e </w>
s </w>
t h
d </w>
n </w>
t </w>
e r
i n
y </w>
th e</w>
, </w>
a n
. </w>
o r
o </w>
a r
; </w>
e d</w>
a </w>
a l
e n
g </w>
r e
t i
o n
o u
er </w>
in g</w>
o f
o n</w>
o s
t o</w>
o t
i n</w>
of </w>
a p
q u
an d</w>
s t
i c
qu ot
& quot
&quot ;</w>
a t
e s</w>
o m
a n</w>
i l
ap os
apos ;</w>
& apos;</w>
a s</w>
a t</w>
i s</w>
e l
a c
i t
or </w>
o l
al </w>
a s
e s
s a
h e</w>
r i
a m
u r
e c
e n</w>
h </w>
th </w>
w h
l </w>
en t</w>
o w
s i
i d</w>
i r
a ti
k </w>
th at</w>
e m
a y</w>
v e</w>
i s
u s
p l
f or</w>
h a
sa id</w>
a d
l e
u n
l i
l y</w>
w i
r o
a g
c h
er s</w>
t s</w>
b e
T he</w>
e ar
w as</w>
- </w>
- -</w>
a b
g h
d i
ou n
wi th</w>
d ay</w>
p </w>
c on
d e
c e</w>
f r
t r
er e</w>
om </w>
o v
i t</w>
n e
f or
N </w>
s u
C N
t er</w>
CN N</w>
c om
i m
s h
ati on</w>
h is</w>
s e
o p
s p
ou r
th e
( </w>
) </w>
o t</w>
t ed</w>
fr om</w>
a k
e x
ou t</w>
l e</w>
b y</w>
l d</w>
ar e</w>
e d
b u
w </w>
h as</w>
at e</w>
t er
ti on</w>
f </w>
on s</w>
it y</w>
v i
0 </w>
p ro
a f
ha ve</w>
d ing</w>
u l
b e</w>
o c
ow </w>
p or
th er</w>
o o
e v
on e</w>
p re
g r
w e
p ar
il l</w>
a in
ar </w>
f ic
c l
s t</w>
si d
c h</w>
wh o</w>
i </w>
i st
a y
y ear
w or
m </w>
n ot</w>
as t</w>
ir </w>
I </w>
p e
m e</w>
gh t</w>
i d
b l
ou ld</w>
m ent</w>
p r
ol d</w>
al l</w>
r a
or e</w>
2 0
el </w>
w ill</w>
p er
C h
a u
w ere</w>
i ti
d s</w>
pl e</w>
re c
es t</w>
T h
A </w>
: </w>
e t</w>
in g
ic </w>
v er
i g
S t
r u
en t
f ir
ha d</w>
a d</w>
be en</w>
s o</w>
bu t</w>
ov er
e t
ac c
al l
ic e</w>
m il
th is</w>
g e</w>
h er</w>
af ter</w>
it s</w>
om e</w>
ar y</w>
p u
ow n</w>
the ir</w>
of fic
our </w>
ab out</w>
f i
m an</w>
p ol
at t
ic h</w>
an y</w>
s e</w>
on al</w>
en ts</w>
m in
the y</w>
d er</w>
m ore</w>
u d
o b
o ther</w>
il l
al ly</w>
o ple</w>
ac k</w>
i a</w>
am </w>
k s</w>
p os
a v
wh ich</w>
d u
b o
on g</w>
at ed</w>
e st
s on</w>
an d
pe ople</w>
t ur
en ce</w>
u p</w>
h e
m e
t ing</w>
ti c
l a
t w
an s</w>
ag e</w>
al s</w>
I n
k e</w>
U .
u m
oun d</w>
in e</w>
ou </w>
es s</w>
s c
e w</w>
t y</w>
ac e</w>
os t</w>
re por
an t</w>
A n
at es</w>
a in</w>
st r
wh en</w>
em </w>
us e</w>
n i
it e</w>
A m
ar d</w>
c oun
em ent</w>
il </w>
th an</w>
d is
1 </w>
s ec
k ing</w>
ti me</w>
k ed</w>
re s
em b
U. S
i al</w>
t e
m on
g i
w ould</w>
d ed</w>
t old</w>
es day</w>
al i
e p
g h</w>
tw o</w>
ak e</w>
us t</w>
or ding</w>
si on</w>
com m
al so</w>
s he</w>
b ec
U.S .</w>
or s</w>
ati ons</w>
os e</w>
W h
sid ent</w>
il e</w>
I n</w>
for m
u t</w>
t o
ou gh</w>
ov er</w>
y ou</w>
it ed</w>
fir st</w>
im </w>
i es</w>
s er
ap p
con t
f in
ol l
an ce</w>
0 0</w>
sa y
en c
u t
ati onal</w>
over n
e y</w>
am e</w>
w e</w>
el y</w>
2 </w>
we e
ar g
as s
t on</w>
5 </w>
year </w>
n ed</w>
an c
g overn
n ow</w>
re e</w>
R e
as e</w>
in to</w>
s ur
p ri
el l</w>
pu bl
en ti
m ar
ou s</w>
er ic
l ast</w>
h el
en d</w>
s ti
year s</w>
ab le</w>
c an</w>
Am eric
in ter
x </w>
es ti
p h
f er
ne w</w>
e f
or y</w>
ol </w>
f l
c ri
am p
n ing</w>
U n
acc ording</w>
am a</w>
ad e</w>
w ay</w>
I t</w>
20 0
oo d</w>
oo k</w>
g u
in v
M ar
1 9
A l
20 1
h i
e b
in c
th ere</w>
d ec
O b
in ce</w>
t ri
d er
u s</w>
d o
B ut</w>
le g
g o
w s</w>
iti es</w>
3 </w>
govern ment</w>
i z
v ed</w>
o k
wh at</w>
c r
pre s
st at
ay s</w>
l in
re m
A r
tr y</w>
m ost</w>
4 </w>
f e
say s</w>
Ob ama</w>
f u
u e</w>
n o</w>
es e</w>
for e</w>
an g
Un ited</w>
a use</w>
be t
? </w>
M on
wh ere</w>
i an</w>
ti ons</w>
8 </w>
o in
li on</w>
ec t</w>
sh i
an n
el l
pol ice</w>
e -
k ill
$ </w>
h im</w>
il y</w>
on g
ing s</w>
c ar
m y</w>
es s
s ome</w>
r y</w>
a ir
w om
d es
cl u
ain st</w>
du c
us ed</w>
P re
I s
m is
o g
c ould</w>
ag ainst</w>
f am
e i
N ew</w>
at ur
th em</w>
u c
v ing</w>
d o</w>
c o
as h
6 </w>
be fore</w>
g l
j ust</w>
ac k
v ic
f e</w>
mil it
is t</w>
a st
er al</w>
f ac
z </w>
th r
n ational</w>
b el
li ke</w>
7 </w>
gr ou
su p
at er</w>
en g
as ed</w>
in a</w>
wor ld</w>
T u
e a</w>
m any</w>
d re
v es</w>
c all
i als</w>
i f</w>
er n</w>
A f
ur ing</w>
th or
v er</w>
at ing</w>
ec ted</w>
m o
r an
S </w>
sid e</w>
y ing</w>
coun try</w>
d on</w>
, 0
le ad
Pre sident</w>
l l</w>
com p
on ly</w>
d e</w>
th ing</w>
bec ause</w>
emb er</w>
s el
th ree</w>
ic al</w>
por t</w>
is h</w>
b ack</w>
ac h</w>
m i
F ri
,0 00</w>
wee k</w>
Tu esday</w>
c our
L i
a il
wh ile</w>
of f</w>
m ade</w>
H e</w>
be ing</w>
t ers</w>
en d
c ap
offic ials</w>
S y
ou t
c re
st ate</w>
w ar
enc y</w>
ear </w>
ist an</w>
ur s
st ar
ac h
b r
t u
ed n
9 </w>
o h
W edn
Wedn esday</w>
Mon day</w>
b le</w>
ch il
o y
ch o
s ince</w>
ak ing</w>
ou th</w>
on d</w>
ne y</w>
re sp
di a</w>
g et</w>
w r
v e
d own</w>
mil lion</w>
F r
pl ay
urs day</w>
Th ursday</w>
S un
Fri day</w>
t or</w>
stat ement</w>
f il
p s</w>
ur r
shi p</w>
wor k</w>
re l
h ome</w>
h ow</w>
W e</w>
i e
ur ity</w>
d uring</w>
au thor
milit ary</w>
we en</w>
is h
St ates</w>
o s</w>
for c
L e
d y</w>
ig n</w>
bet ween</w>
pr ot
par t
N or
re s</w>
re le
t en
m an
sa y</w>
si g
Sy ri
s y
a th</w>
b </w>
ou s
min ist
tur e</w>
g re
a th
oun c
n er</w>
Americ an</w>
sp ok
pl an
m at
k n
gh ts</w>
a z
r e</w>
os s</w>
t al
c c
A u
th ose</w>
b or
thr ough</w>
ti ve</w>
K or
E n
ou se</w>
kill ed</w>
f ound</w>
e an</w>
m s</w>
v en</w>
f t</w>
ow ing</w>
grou p</w>
l ed</w>
S h
m ov
us si
ex p
repor ted</w>
is su
res s</w>
it al</w>
d id</w>
Sun day</w>
ev er</w>
fam ily</w>
o ot
st ri
ear ly</w>
esti g
er g
ot e</w>
u m</w>
ec tion</w>
ver y</w>
wi th
F or
spok es
con tr
an ts</w>
in clu
B r
P ar
um b
w in
D e
form er</w>
s ol
par t</w>
or g
om e
re g
k e
s en
m ed</w>
s ite</w>
fr ic
ev er
B ar
pre sident</w>
sti ll</w>
inclu ding</w>
r an</w>
c er
g en
A fric
- old</w>
publ ic</w>
i p
an s
N e
author ities</w>
l oc
d em
iti c
call ed</w>
b er
P ak
a j
a h
S p
m ake</w>
C ar
R ussi
C </w>
S outh</w>
repor t</w>
offic ial</w>
u p
b i
ar re
m u
ev en</w>
d r
C om
le ar</w>
ent ly</w>
v ice</w>
p oin
l and</w>
- year
p ed</w>
sp ec
inv estig
an t
m ay</w>
S atur
publ ic
f fer
In ter
tic </w>
th en</w>
l ine</w>
Satur day</w>
p ow
t ake</w>
-year -old</w>
th in
e ther</w>
st ud
ati ve</w>
t ain
Ch ina</w>
c ity</w>
pol itic
an ds</w>
op e</w>
g o</w>
ou ght</w>
un der</w>
com e</w>
b il
i on</w>
a w
cont in
vi ol
u </w>
t le</w>
com pl
M c
I ra
ur e</w>
Ira q
de f
st ru
a k</w>
resp on
b ro
dre n</w>
as on</w>
se t</w>
b re
n o
f our</w>
d ays</w>
di rec
he ad</w>
pl ace</w>
sec urity</w>
op er
w ell</w>
n e</w>
v el
Af gh
Nor th</w>
en s</w>
ar ound</w>
st ed</w>
a ve</w>
l o
te am</w>
su ch</w>
al th</w>
ow ed</w>
s ome
ing ton</w>
d oc
ver s
an other</w>
h u
part ment</w>
s oc
d n</w>
M in
e p</w>
Y or
mon th</w>
cl a
un der
re ad
J oh
wom en</w>
y p
M ic
se e</w>
sh ould</w>
ti s
ne x
li fe</w>
la w</w>
go ing</w>
be g
s cho
er ed</w>
d ic
ann ounc
su b
C on
f oll
de ath</w>
ch arg
An d</w>
c i
W or
E ur
sh ow</w>
chil dren</w>
m en</w>
cour t</w>
am es</w>
Is ra
sec ond</w>
T his</w>
ni ght</w>
Yor k</w>
s ed</w>
por t
ti es</w>
l es</w>
in d</w>
f a
wom an</w>
1 0</w>
nex t</w>
O </w>
h os
su l
si ve</w>
% </w>
us p
c ase</w>
o p</w>
th re
pro duc
hi gh
li ght</w>
ac t</w>
n or
ne ws</w>
ic k</w>
mu ch</w>
oc r
am s</w>
y our</w>
t or
p ass
ed eral</w>
t ak
le ast</w>
en ter</w>
s usp
B ri
comm un
t ook</w>
en ing</w>
enti al</w>
t ro
ag o</w>
in j
i tion</w>
emb ers</w>
c u
fu l</w>
e g
al leg
c urr
m p
hel p</w>
m es</w>
re qu
n umb
sel f</w>
s ing</w>
h ear
ter r
S en
pro gr
d ri
st s</w>
h al
W ash
w it
st or
i e</w>
t el
al e</w>
bu il
sp e
ri ght</w>
le ft</w>
thin k</w>
ex pl
id e</w>
c </w>
k now</w>
Wash ington</w>
P h
ol og
f ri
R i
v is
pro vi
I ran</w>
bo th</w>
ol e</w>
ow s</w>
app ear
th ese</w>
comp any</w>
fi ed</w>
H ar
on om
at s</w>
n s</w>
t re
of f
m embers</w>
s l
di ed</w>
Re public
h app
G u
W il
th s</w>
c amp
A s</w>
si ble</w>
an ge</w>
ex per
la w
c ame</w>
S ec
f un
sa me</w>
th ers</w>
P ol
en se</w>
U ni
b us
kn own</w>
Wor ld</w>
C ol
fir e</w>
b an</w>
att ack</w>
spokes man</w>
an iz
re tur
S u
fi ve</w>
Pak istan</w>
A s
I S
l oo
H ouse</w>
al -
ac ks</w>
to p</w>
w on</w>
as s</w>
t en</w>
w in</w>
en ed</w>
pr om
is e</w>
d el
an a</w>
an y
O n</w>
ch ar
sp or
Iraq </w>
sup port</w>
P r
cl ud
b all</w>
a il</w>
N ational</w>
De partment</w>
l ater</w>
c or
l ess</w>
D em
ic k
r oss</w>
u al</w>
p op
th ough</w>
l ar
v en
Kor ea</w>
ap pro
V </w>
m aj
vi ew</w>
I f</w>
forc es</w>
at ors</w>
om b
l ong</w>
at ch</w>
f ul
Ch ri
rec or
t ly</w>
cla im
pr of
w ant</w>
v ot
s m
m ed
f ederal</w>
h ar
politic al</w>
ec onom
ig h</w>
En gl
c an
n am
rele ased</w>
s k
sy st
si st
et y</w>
est s</w>
i gh
id ent</w>
k er</w>
M ex
Mex ic
Min ist
inv ol
Th ere</w>
n ia</w>
mon ths</w>
em s</w>
as h</w>
le y</w>
us h</w>
read y</w>
h ist
di ffer
scho ol</w>
k ey</w>
C ali
Wh en</w>
m er</w>
G e
z e</w>
ec h
P e
camp a
ic t</w>
me dia</w>
us ing</w>
Cali for
pl oy
pop ul
F l
P </w>
ch ed</w>
inc re
ur y</w>
se ver
offic e</w>
p ast</w>
g ood</w>
announc ed</w>
stru c
n ation</w>
w ays</w>
i ous</w>
vi de
for m</w>
wh ether</w>
G er
say ing</w>
re t
it ing</w>
se ason</w>
f fic
t ors</w>
J u
w ent</w>
st e
th ern</w>
he alth</w>
Califor nia</w>
ru n</w>
C lin
on y</w>
a ir</w>
pro bl
fi gh
minist r
per c
19 9
Dem ocr
ag ue</w>
pr os
min ut
c ol
ne ver</w>
b est</w>
li er</w>
d ru
numb er</w>
rec ent</w>
M us
n ear</w>
ati c</w>
inter national</w>
g ir
Is l
St ate</w>
ac y</w>
e vi
g g
Th at</w>
rec ei
ri s
ag es</w>
w ar</w>
a way</w>
Afgh an
R ob
Wh at</w>
i ev
li m
su cc
A t
c el
ch ange</w>
ac ti
en ded</w>
y oun
t -
pos ition</w>
b ur
2 0</w>
Syri a</w>
ar ea</w>
he ad
u res</w>
J ap
as ked</w>
dec i
is m</w>
e ts</w>
vers ity</w>
A t</w>
progr am</w>
l y
Afghan istan</w>
pow er</w>
tri es</w>
c ou
org aniz
f ew</w>
bus in
de vel
ir e</w>
s it
ear ch</w>
r un
un i
in clud
in form
b ed</w>
s ou
with out</w>
ac ross</w>
ri ghts</w>
sever al</w>
ti l</w>
op s</w>
r ul
pl ac
tr av
b an
ist s</w>
pro c
3 0</w>
a id</w>
Ne ws</w>
en ding</w>
ul t</w>
ec u
re gi
M an
T ur
A b
h ol
p o
G r
b ased</w>
F or</w>
fin al</w>
h om
sur e</w>
pu t</w>
e e</w>
Clin ton</w>
Th ey</w>
t ain</w>
w ater</w>
k et</w>
m or
us ti
plan e</w>
per s
ag ency</w>
I S</w>
d ro
B o
l arg
Joh n</w>
B e
y a</w>
cl os
r ain
J an
hel d</w>
f ace</w>
ish ed</w>
d -
pl ay</w>
1 1</w>
O ne</w>
S er
ie f</w>
bo dy</w>
e z</w>
et ing</w>
c over
re sul
& #
m us
Syri an</w>
W i
0 ,000</w>
v ol
rem ain
e w
le ar
c as
campa ign</w>
C o
il ity</w>
tak en</w>
th ir
em p
tr ans
en tr
C ong
viol ence</w>
m it
Americ a</w>
on es</w>
P ri
l it
ec ts</w>
we b
our s</w>
sh ot</w>
am ong</w>
ne ed
i or</w>
coun tries</w>
ur ed</w>
t e</w>
A d
un til</w>
J ack
tis h</w>
C oun
L on
au gh
em ploy
r ed</w>
ne ed</w>
wor king</w>
l ong
as sa
ag re
li k
IS IS</w>
at ely</w>
u b
si x</w>
m ak
syst em</w>
E g
ef for
t a
&# 9
af f
bec ome</w>
R om
o thers</w>
v al</w>
par ty</w>
5 0</w>
de t
M e
g ame</w>
G re
. .
l an
di dn</w>
lead er</w>
s o
bel iev
p ing</w>
ti mes</w>
beg an</w>
hos p
be h
h igh</w>
arre sted</w>
T </w>
re ally</w>
con sid
Afric a</w>
i ght</w>
si ons</w>
cri tic
la un
ministr ation</w>
v ir
H e
ati on
ci v
el ec
vide o</w>
e es</w>
mi ght</w>
S he</w>
pre sid
k ers</w>
att acks</w>
C ity</w>
an ti
ab </w>
ous ly</w>
c are</w>
web site</w>
Eg yp
t ory</w>
ac tion</w>
id enti
j ud
Russi a</w>
In dia</w>
c lear</w>
Lon don</w>
j ob
au di
z ed</w>
o d
Af ter</w>
m aking</w>
ar ds</w>
i f
beh ind</w>
an i</w>
f oot
al ready</w>
Bri tish</w>
ch amp
ot s</w>
es p
m id
An g
T V</w>
se e
m .</w>
Pol ice</w>
ic s</w>
r ace</w>
su m
d en
comm it
K </w>
to o</w>
im port
s ing
do es</w>
c ar</w>
perc ent</w>
B l
terr or
A cc
sup por
g ot</w>
mi gr
le t
r ac
c anc
se en</w>
al ity</w>
or d
i o</w>
d en</w>
Coun ty</w>
D av
om in
l ing</w>
er n
ed ly</w>
ever y
lin es</w>
e qu
devel op
oun ded</w>
Ch in
Jack son</w>
P al
Americ ans</w>
w ard</w>
uc lear</w>
s our
inform ation</w>
D i
D </w>
Isl am
hal f</w>
sh or
ever y</w>
mon ey</w>
Inter national</w>
contin u
j ect</w>
te e</w>
M al
an ted</w>
tr ying</w>
t own</w>
h un
ow ever</w>
pol ic
t a</w>
S c
Li b
man ag
Acc ording</w>
Isra el</w>
. m.</w>
h ere</w>
ag ain</w>
loc al</w>
des cri
ent al</w>
fin d</w>
S A</w>
ph one</w>
c oll
con fir
hist ory</w>
we ap
Sen ate</w>
on a</w>
A ir
ne t
C up</w>
t ou
Wil li
contr ol</w>
N A
h ours</w>
e ign</w>
leg al</w>
b ri
in s</w>
Eur op
b and</w>
en ds</w>
h and
al ia</w>
vic ti
pass eng
c all</w>
m other</w>
U k
ad ded</w>
c om</w>
investig ation</w>
grou ps</w>
poin t</w>
b ab
ar ri
201 1</w>
differ ent</w>
Uk rain
st re
stud ents</w>
el ection</w>
bor der</w>
ear lier</w>
ch ang
Mexic o</w>
deci sion</w>
n uclear</w>
ur </w>
ie ve</w>
ri ed</w>
F ac
P er
Mic ha
charg es</w>
sh oot
ch es</w>
bel ieve</w>
ow n
ec h</w>
201 2</w>
/ </w>
gr ap
wee ks</w>
thir d</w>
par tic
f ar</w>
Russi an</w>
Chin ese</w>
commun ity</w>
mis sion</w>
rele ase</w>
un e</w>
i ed</w>
A p
p er</w>
c a
g ed</w>
lik ely</w>
u l</w>
lead ers</w>
ha ving</w>
e as
fr on
r .</w>
youn g</w>
Fl or
fa ther</w>
re pres
bec ame</w>
Micha el</w>
at or</w>
n ame</w>
busin ess</w>
exp ected</w>
de p
g er</w>
r ap
direc tor</w>
maj or</w>
O r
h ard</w>
pos sible</w>
ac ked</w>
Ang el
att or
n ot
star ted</w>
m ur
.. .</w>
tr an
li g
. com</w>
gr ound</w>
f ail
h er
B ush</w>
st ory</w>
per son</w>
d ra
ser vice</w>
h it</w>
l ate</w>
ti onal</w>
E l
O p
i de
en n
s ent</w>
sm all</w>
b ol
f re
t ech
com pe
regi on</w>
en ch</w>
er ing</w>
mat ch</w>
pos ed</w>
on -
to day</w>
n early</w>
out side</w>
w at
id a</w>
gre at</w>
l at
ec ut
tro ops</w>
G en
com ing</w>
m ents</w>
Wh ile</w>
di tion</w>
e ach</w>
wi fe</w>
ri bu
on ed</w>
c am
ad v
t aking</w>
cap ital</w>
ro c
pl y</w>
t arg
c ul
N ov
h im
t ow
ain ed</w>
fic </w>
m ul
fil m</w>
is ed</w>
ch all
Uni versity</w>
a i</w>
em erg
i ans</w>
ex ecu
wh y</w>
al ong</w>
y s</w>
ne w
star t</w>
Europ ean</w>
er r
de al</w>
E </w>
Wh ite</w>
issu e</w>
ali an</w>
l ot</w>
pri v
olog y</w>
l ook</w>
wr ote</w>
Au str
200 8</w>
Engl and</w>
C l
M il
mo ve</w>
iz ed</w>
u tion</w>
hu man</w>
re li
sh ar
an ding</w>
sa f
import ant</w>
d ge</w>
exper i
Republic an</w>
pro v
com es</w>
foll owing</w>
mil es</w>
cri min
O c
S e
lit tle</w>
le ad</w>
1 0
ri </w>
ser v
di vi
A c
Q a
ep t
el s</w>
er y</w>
L </w>
ef f
inc ident</w>
qu esti
k id
l s</w>
ra in</w>
eb ook</w>
ad d
bi g</w>
el d</w>
ed a</w>
de b
Jap an</w>
s ent
1 2</w>
n ess</w>
de ad</w>
b att
entr al</w>
u ary</w>
chil d</w>
av y</w>
wee k
bet ter</w>
c ha
con c
me di
h op
cl ose</w>
H u
bil lion</w>
poin ts</w>
an g</w>
m ust</w>
Fac ebook</w>
af t</w>
Jan uary</w>
le t</w>
j our
ir ed</w>
i ally</w>
Le ague</w>
or der</w>
S ha
k a</w>
offic er</w>
201 0</w>
m es
W atch</w>
b as
Fr ench</w>
an e</w>
ep t</w>
Mar ch</w>
en ted</w>
st ates</w>
se x
pri son</w>
usti ce</w>
vic tory</w>
b omb
j oin
O ly
con cer
Cong ress</w>
sa w</w>
sti tu
some thing</w>
C our
1 5</w>
0 s</w>
R o
v el</w>
Oly mp
s ch
si t</w>
Flor ida</w>
anc es</w>
C or
wr it
in es</w>
or ity</w>
ar s</w>
th er
o il</w>
Rom ney</w>
Minist er</w>
im p
mor ning</w>
fer ence</w>
y an</w>
v ote</w>
charg ed</w>
soc i
en ough</w>
kill ing</w>
T wit
ag ed</w>
f light</w>
f ur
K en
d am
in du
weap ons</w>
mes sa
S al
im migr
a ther</w>
s es</w>
ne igh
Mus li
Isra el
S o</w>
at r
qu ar
L os</w>
Afric an</w>
l ost</w>
! </w>
est ed</w>
B ra
u ally</w>
str ong</w>
ex c
on ce</w>
W est</w>
gi ven</w>
a h</w>
hosp ital</w>
fam il
oun t</w>
d augh
sc or
sol di
y -
pre vi
recor d</w>
Kor ean</w>
er t</w>
Qa eda</w>
go al</w>
al ways</w>
e er</w>
S om
doc um
v al
Chri sti
ph ot
p ur
an -
em ents</w>
clu b</w>
tech n
play ed</w>
for ce</w>
issu es</w>
vic es</w>
cont ribu
acc used</w>
W e
p ic
i ons</w>
dru g</w>
S ch
w al
cu st
ad ministration</w>
fu ture</w>
Twit ter</w>
r ad
med ical</w>
tr ad
retur n</w>
am m
ti n</w>
eb r
comp an
presid ential</w>
J er
Cour t</w>
ne t</w>
T w
attor ney</w>
gi ve</w>
p en
Y ou</w>
loo king</w>
st er</w>
N o</w>
pl an</w>
J une</w>
ch ing</w>
Angel es</w>
200 9</w>
in dic
u ation</w>
o -
minut es</w>
f ood</w>
O ffic
ou gh
inter view</w>
r ole</w>
h ouse</w>
contin ue</w>
z ens</w>
per form
en ter
ab ility</w>
invol ved</w>
b ig
y et</w>
T ali
gu n</w>
n ow
ch ief</w>
n ec
fri end</w>
ev ent</w>
se x</w>
att emp
ap er</w>
di es</w>
w anted</w>
A n</w>
c es</w>
s is</w>
P or
l and
W al
st and
St ud
se t
g et
h ic
Tali ban</w>
D ec
recei ved</w>
wh ose</w>
g s</w>
f oc
with in</w>
in side</w>
bil ity</w>
ex t
M ad
an k</w>
rec ently</w>
st op</w>
Ph il
soc ial</w>
ser ies</w>
A pr
H am
ke ep</w>
f ree</w>
19 8
2 5</w>
im e</w>
tri al</w>
inj ured</w>
fi ght</w>
st ar</w>
ar e
l er</w>
ol s</w>
es n</w>
d ate</w>
foot ball</w>
d ou
d on
offic ers</w>
ain ing</w>
do esn</w>
Apr il</w>
him self</w>
ru p
v ely</w>
C enter</w>
bo ard</w>
id ed</w>
d ence</w>
S ept
B er
G oo
pl ans</w>
Sept ember</w>
th ings</w>
ret ary</w>
er ship</w>
p ot
er c
canc er</w>
H ong</w>
f our
oun ds</w>
h ot
o ke</w>
ous ands</w>
p il
k y</w>
re sid
ob al</w>
oc k</w>
d le</w>
Bar ack</w>
t ob
at a</w>
M is
K ong</w>
m ag
P ro
ou l
M or
as n</w>
6 -
p ati
probl em</w>
Israel i</w>
al y
fac t</w>
T ex
su it</w>
st and</w>
repor ts</w>
a head</w>
minist er</w>
Al -
o grap
a i
larg est</w>
se ven</w>
se a</w>
ful l</w>
p i
b ook</w>
ve hic
Nov ember</w>
atur e</w>
In di
ar r
m ember</w>
dis c
1 00</w>
Fr ance</w>
def ense</w>
week end</w>
n al
f er</w>
en tion</w>
Sec urity</w>
e y
bre ak</w>
ei ght</w>
ed uc
Dav id</w>
ap </w>
ell ing</w>
o ve</w>
m om
d ers</w>
d one</w>
in ten
g ave</w>
cas es</w>
ter min
pros ecut
gen er
enc es</w>
con duc
ul ar</w>
ati ves</w>
ri age</w>
re al</w>
au l</w>
h ope</w>
confir med</w>
Tex as</w>
wor kers</w>
f ans</w>
h or
claim ed</w>
v o
sc re
Au g
ast ern</w>
t able</w>
Stud ent</w>
li ve</w>
W eb
h um
shoot ing</w>
C an
sc i
op en</w>
er a</w>
» </w>
op position</w>
mur der</w>
ter m</w>
U. N
sig ned</w>
me as
c enter</w>
tur ned</w>
fil i
at eg
Dec ember</w>
figh ting</w>
evi dence</w>
job </w>
appear ed</w>
M ay</w>
Ukrain e</w>
Sc ot
qu e</w>
th em
R ic
plac ed</w>
dep end
us h
sh ows</w>
4 0</w>
th ought</w>
C am
Eur ope</w>
repor ters</w>
A g
play ers</w>
Egyp t</w>
Ju ly</w>
l ist</w>
in iti
Republic ans</w>
Wi th</w>
prot est
su ffer
to g
U.N .</w>
lar ge</w>
remain s</w>
me eting</w>
mov ie</w>
m et
Aug ust</w>
le vel</w>
can di
E x
g est</w>
Q u
buil ding</w>
ar t</w>
n ers</w>
passeng ers</w>
ex am
ro om</w>
issu ed</w>
1 8</w>
im medi
ach ed</w>
g un
u es</w>
P u
econom ic</w>
B ro
tog ether</w>
201 3</w>
en e
law y
anti -
am b
jud ge</w>
gen eral</w>
sour ce</w>
proc ess</w>
m ing</w>
r ing</w>
of ten</w>
o d</w>
e ase</w>
E r
pres s</w>
af fili
Ap ple</w>
di sa
0 -
B I</w>
lat est</w>
E m
Bra z
str y</w>
re ad</w>
sen ior</w>
af ter
ti tle</w>
S ome</w>
D ef
i er</w>
cr aft</w>
se y</w>
s w
ad es</w>
tel lig
K ing</w>
c iti
h ood</w>
fron t</w>
bl ack</w>
con n
s earch</w>
P l
m a</w>
do ing</w>
th ousands</w>
daugh ter</w>
ur ch</w>
F eb
con vic
le ave</w>
sp ace</w>
sc en
m et</w>
av ing</w>
m ain
h on
ch ec
om s</w>
victi ms</w>
N ig
saf ety</w>
is l
br ought</w>
ru ary</w>
Feb ruary</w>
mar ket</w>
M i
mis sing</w>
19 7
des ig
polic y</w>
r is</w>
m em
succ ess
S ud
su gg
Ge or
Sp ain</w>
acc ess</w>
spokes woman</w>
H a
t ation</w>
con f
wi de</w>
ri es</w>
mus ic</w>
2 -
ec e</w>
w a
oc i
us es</w>
si bility</w>
F BI</w>
S i
al most</w>
esti m
on str
Tw o</w>
p ay</w>
M o
ant a</w>
des p
M u
ad o</w>
cel ebr
cour se</w>
M ed
or ig
in o</w>
c ru
for d</w>
af f</w>
on al
Oc tob
Octob er</w>
w est</w>
f el
h am</w>
l ow
g le</w>
an ese</w>
bo y</w>
li ves</w>
e h
St e
si mil
tu ally</w>
ke ep
famil ies</w>
descri bed</w>
popul ar</w>
wor ks</w>
p ped</w>
ber g</w>
tellig ence</w>
are as</w>
mar riage</w>
fi eld</w>
Ch ar
ap pe
E ast</w>
effor ts</w>
j o
f av
1 4</w>
Br own</w>
trav el
sur g
curr ent</w>
in sp
200 7</w>
T o</w>
s al
b ill</w>
gl obal</w>
sh owed</w>
fur ther</w>
compe ti
S audi
probl ems</w>
tal k</w>
t our
H ow</w>
on line</w>
spec i
compan ies</w>
amp ;</w>
e f</w>
& amp;</w>
indu stry</w>
re st</w>
par ents</w>
st age</w>
nam ed</w>
B os
for eign</w>
in fl
du e</w>
es si
E ar
Pak ist
Al l</w>
si m
der ed</w>
h us
bu l
a vi
car eer</w>
1 3</w>
get ting</w>
jour nal
m os
k es</w>
gir l</w>
Willi ams</w>
t est</w>
organiz ation</w>
Ch amp
ash ed</w>
ail s</w>
resul t</w>
a -
dem onstr
Democr ats</w>
gu il
B C</w>
Lib ya</w>
tain ed</w>
play ing</w>
p an
vi sit</w>
desp ite</w>
1 8
L a
ic ide</w>
Afgh an</w>
sur vi
th y</w>
lead ing</w>
stor m</w>
p ul
messa ge</w>
Saudi </w>
ell s</w>
lo ve</w>
e ted</w>
o es</w>
stri ke</w>
ri d</w>
of fer
believ ed</w>
call s</w>
P aul</w>
Ger many</w>
bu s</w>
econom y</w>
b ir
Chri st
sex ual</w>
pers onal</w>
1 6</w>
de st
as k</w>
T r
i on
S an</w>
cover ed</w>
H is</w>
6 0</w>
C ha
f f
sp ent</w>
ad a</w>
ut e</w>
un ity</w>
de termin
br ing</w>
k ind</w>
ni fic
re bel
I ran
hus band</w>
cri sis</w>
ess es</w>
L ou
c ent
W est
sc ri
E bol
priv ate</w>
B </w>
del i
con ference</w>
V al
fe el</w>
d ang
N ations</w>
es tion</w>
J o
col le
protest ers</w>
&#9 3
&#93 ;</w>
Br it
agre ement</w>
2 2</w>
on n
Democr atic</w>
Minist ry</w>
F A</w>
so on</w>
1 ;</w>
spor t</w>
st anding</w>
Geor ge</w>
j u
&#9 1;</w>
d ata</w>
com b
di str
w ounded</w>
oo ds</w>
A le
K ar
claim s</w>
tre at
me ans</w>
Ebol a</w>
erg y</w>
alleg ed</w>
air port</w>
identi fied</w>
w ood</w>
wor ked</w>
i um</w>
t ot
tr af
minut e</w>
provi de</w>
play er</w>
sit uation</w>
M ay
oun d
m ental</w>
disc us
sig nific
us ers</w>
s or
uc k</w>
need s</w>
respon se</w>
pos iti
l ad
1 5
b a
cr ash</w>
in n
re fer
b er</w>
al ed</w>
dre ds</w>
p .m.</w>
shi ps</w>
vi ew
air craft</w>
win ning</w>
f all</w>
H ol
civ il
p aid</w>
si a</w>
soldi ers</w>
ap s</w>
op ening</w>
enc ed</w>
b it</w>
g es</w>
tour nam
am ed</w>
trav el</w>
st ep
neigh bor
ec tive</w>
experi ence</w>
v ar
happ ened</w>
in f
t ment</w>
r ound</w>
st aff</w>
evi sion</w>
m er
in depend
thre at
par ts</w>
b ack
g ames</w>
pos ted</w>
Goo gle</w>
big gest</w>
app oin
Nig er
su per
ca used</w>
sel ves</w>
fin anc
Tur key</w>
need ed</w>
e k</w>
run ning</w>
ab or
F </w>
li ons</w>
n ine</w>
tri ed</w>
sch ed
Uni on</w>
dec ided</w>
S w
divi du
ov ed</w>
is n</w>
tic s</w>
1 .
ste ad</w>
M id
fail ed</w>
r en
questi ons</w>
sur pri
ac king</w>
ar ti
Pal est
f ar
high -
tr ain</w>
R es
in d
for ward</w>
g ay</w>
wh ite</w>
Fr anc
re pe
M ore</w>
cont ro
h old</w>
m ay
H oll
og ni
de fe
app ed</w>
simil ar</w>
Pakist ani</w>
in ation</w>
char ac
a ily</w>
ro b
re ach</w>
arre st</w>
s li
affili ate</w>
m ob
expl os
ic ally</w>
t ell</w>
in dividu
Pri me</w>
emerg ency</w>
qu estion</w>
h and</w>
if f</w>
g res
Islam ic</w>
ar ian</w>
Com mit
tur n</w>
B u
I A</w>
net work</w>
H owever</w>
continu ed</w>
st -
g in
effor t</w>
milit ants</w>
orig in
ser ved</w>
ris k</w>
guil ty</w>
char ge</w>
at ory</w>
let ter</w>
rebel s</w>
Ar my</w>
z en</w>
ac tor</w>
new sp
t em
fri ends</w>
f ig
pre me</w>
NA T
b en
f -
champ ion</w>
H er
A ri
civ il</w>
laun ched</w>
forc ed</w>
rel ation
co -
mov ed</w>
w asn</w>
spec ial</w>
D el
spe ech</w>
pre v
execu tive</w>
op port
gir ls</w>
p age</w>
chall eng
er iff</w>
di st
2 4</w>
rec ogni
ograp h
all owed</w>
ti on
su icide</w>
Palest in
co ach</w>
pot ential</w>
an aly
V i
re sc
av ail
c entral</w>
p t</w>
contribu ted</w>
B el
hel ped</w>
ac tually</w>
Sud an</w>
S and
ti t
Som alia</w>
Iran ian</w>
fir ed</w>
sou thern</w>
resid ents</w>
C ounc
techn ology</w>
Au thor
rec over
L ast</w>
c ut</w>
Ser vice</w>
el a</w>
repres ent
con fl
some one</w>
be at</w>
as si
bor n</w>
J ustice</w>
E W
cre w</w>
Sp an
an im
Y em
N ow</w>
c ir
w ants</w>
m ain</w>
Musli m</w>
G l
tr u
G az
Ge org
y le</w>
in st
er ous</w>
all ow</w>
rem ain</w>
cri me</w>
c y
crimin al</w>
li </w>
Def ense</w>
est er</w>
B ec
200 6</w>
rel ated</w>
t yp
R ed</w>
stud ent</w>
ke ts</w>
Ger man</w>
call ing</w>
b ot
no on</w>
Inter net</w>
en sive</w>
ell ow</w>
li ving</w>
ap pl
sa d</w>
cou ple</w>
V ir
cr ow
3 -
att ention</w>
ab l
c lim
D ay</w>
n omin
F i
di ffic
ac ted</w>
ol l</w>
c au
tournam ent</w>
st ep</w>
ar ly</w>
fil ed</w>
M os
du ce</w>
ful ly</w>
par ed</w>
includ e</w>
C E
ing ly</w>
j ing</w>
c o</w>
201 4</w>
Joh n
Rob ert</w>
K h
hear d</w>
tel evision</w>
employ ees</w>
tw o-
h owever</w>
mak es</w>
au </w>
p ay
ef ul</w>
T ran
elec tions</w>
B i
Counc il</w>
prov ince</w>
sig n</w>
pe ace</w>
ath s</w>
est ing</w>
f y</w>
M oh
popul ation</w>
oper ation</w>
an der</w>
T i
hun dreds</w>
and a</w>
ol f</w>
er -
esp ec
M a
bro ther</w>
them selves</w>
espec ially</w>
E d
ar med</w>
mat ter</w>
reg ime</w>
hot el</w>
ide a</w>
pro ject</w>
M </w>
ap ol
f li
Tur k
A ir</w>
H I
avail able</w>
compl et
v ers</w>
ser ious</w>
se par
le vel
ben ef
es sion</w>
re f
ran ge</w>
hom es</w>
Gen eral</w>
tow ard</w>
Commit tee</w>
cre ated</w>
forc ement</w>
tal ks</w>
1 7</w>
T im
ad ed</w>
B ei
Ar ab
add ress</w>
immedi ately</w>
r </w>
Ha iti
Web </w>
den ied</w>
ap par
s qu
pri s
vir on
en a</w>
re ve
sp oke</w>
tur ed</w>
ali zed</w>
ext rem
Op en</w>
fu g
in telligence</w>
Engl ish</w>
acti v
As soci
ic ations</w>
r ying</w>
G ar
19 6
nor thern</w>
Com m
w el
reli gi
st ay</w>
por ts</w>
oc curr
Re ad</w>
b ar
al li
fe et</w>
alleg ations</w>
urr ic
Indi an</w>
oc k
G O
figh ters</w>
consid ered</w>
st ation</w>
Su preme</w>
vot ers</w>
sec on
b oo
se qu
re st
stud y</w>
il le</w>
t op
Pr ince</w>
A h
w er</w>
Gaz a</w>
in ion</w>
I t
thre at</w>
reg ul
docum ents</w>
s -
b ase</w>
Georg ia</w>
le aving</w>
ac tions</w>
re as
immigr ation</w>
Co ast</w>
ver si
Bei jing</w>
me et</w>
B al
B en
manag er</w>
f em
after noon</w>
pl ant</w>
pass ed</w>
y s
C ri
J ames</w>
in t
suppor ters</w>
li am
Col omb
no thing</w>
D r.</w>
ar i</w>
ch ance</w>
NAT O</w>
d es</w>
Sec retary</w>
pl es</w>
di </w>
qu ake</w>
dec ades</w>
g as</w>
alleg edly</w>
foll owed</w>
ro y
W ar</w>
ev ents</w>
ex ten
1 ,
bo at</w>
believ es</w>
c os
Sen .</w>
financ ial</w>
incre ase</w>
M y
de ad
at ter
de z</w>
am i</w>
al a</w>
d ates</w>
pen al
K im</w>
stat e-
gr owing</w>
treat ment</w>
la ws</w>
retur ned</w>
f le
pos t</w>
a .m.</w>
O n
s il
h our</w>
as hi
b s</w>
writ ten</w>
M y</w>
fi re
hear t</w>
incre as
publ ished</w>
war ds</w>
p p
o ot</w>
on er</w>
R </w>
L u
t esti
tr aining</w>
ir man</w>
acti vi
sp ending</w>
d om
ist r
educ ation</w>
agre ed</w>
mit ted</w>
batt le</w>
v ey</w>
g gl
re mar
Car ol
newsp aper</w>
m ar</w>
ou d</w>
C ap
G i
c ause</w>
ab use</w>
con serv
st u
c li
ch em
ass y</w>
or dered</w>
hear ing</w>
four th</w>
l ab
m as
Par k</w>
e um</w>
s em
ei ther</w>
arg u
struc k</w>
cr os
f f</w>
1 7
la h</w>
y n
susp ect</w>
r os
relation ship</w>
1 -
investig ators</w>
d el</w>
go ti
Brit ain</w>
U </w>
op ened</w>
oun ding</w>
ch urch</w>
prot ests</w>
po ol</w>
k new</w>
co ast</w>
maj ority</w>
Par ty</w>
d ad</w>
any one</w>
pow er
p ir
Austr alian</w>
st on</w>
c ost</w>
pati ents</w>
com ment</w>
H ill
qu ick
e th
N G
r a</w>
Ch el
lawy er</w>
p un
p ain
d in
pu ty</w>
ish ing</w>
scen e</w>
suffer ed</w>
we st
r out
ic es</w>
clos ed</w>
stri kes</w>
ern an
bro ad
it self</w>
ill ing</w>
S ince</w>
t our</w>
ed er
ro ad</w>
B ang
e ws</w>
ul ed</w>
imp act</w>
ep h
g one</w>
cre ate</w>
c lear
ad vis
ve ter
B ur
v an</w>
d own
leg isl
Ag ency</w>
s anc
occurr ed</w>
comm ents</w>
c ast</w>
m it</w>
ver sion</w>
er ry</w>
tr a
b ad</w>
ag ing</w>
H un
5 00</w>
sh are</w>
rul ing</w>
ear s</w>
Th om
signific ant</w>
an while</w>
assa ult</w>
Turk ish</w>
Pe ople</w>
mul ti
Mad rid</w>
O N</w>
S ou
de aths</w>
h i</w>
Mc C
shor t</w>
res earch</w>
Bos ton</w>
pl e
o dy</w>
ser ve</w>
is ing</w>
Chel sea</w>
Olymp ic</w>
ser vices</w>
ain s</w>
D esp
previ ous</w>
infl u
any thing</w>
develop ment</w>
Vir gin
dec lar
mom ent</w>
Desp ite</w>
t un
N ic
g ent
terror ist</w>
ud e</w>
4 -
s un
ass oci
ad s</w>
scor ed</w>
oper ations</w>
U K</w>
t in
pos e</w>
im pro
ar my</w>
At l
chang es</w>
cla im</w>
Ri ghts</w>
B ag
pres sure</w>
M any</w>
200 5</w>
S ing
curr ently</w>
h ost</w>
pil ot</w>
mo der
tu res</w>
long -
commit tee</w>
convic ted</w>
ec ti
T our</w>
pl om
It alian</w>
off er</w>
l in</w>
Associ ation</w>
requ est</w>
n al</w>
D an
Par is</w>
en ge</w>
G ames</w>
Virgin ia</w>
cl ass
j ury</w>
N i
ta x</w>
st op
est abl
ot a</w>
g ing</w>
Jap anese</w>
ne goti
comm is
ti an</w>
con di
vi a</w>
Austr alia</w>
law suit</w>
2 5
Iraq i</w>
in e
gi ving</w>
tak es</w>
o gi
re ason</w>
every one</w>
Re al</w>
car rying</w>
s mar
c le
sp ar
al ing</w>
pri me</w>
ernan dez</w>
ven tion</w>
mil lions</w>
str ateg
west ern</w>
au th
li e</w>
T ha
A A</w>
Z im
we ather</w>
re ti
cer em
kid s</w>
Offic e</w>
gr and</w>
He alth</w>
ar n
tri p</w>
N avy</w>
as sist
C u
f i</w>
As sad</w>
all s</w>
en ergy</w>
n on
Span ish</w>
GO P</w>
E ven</w>
Jer sey</w>
sum mer</w>
D u
l os
pro per
ak er</w>
St .</w>
laun ch</w>
H en
e astern</w>
acc ident</w>
Bar cel
com pu
B y</w>
Sh ar
distr ict</w>
mov ement</w>
deb ate</w>
d oll
con stitu
Atl anta</w>
I I</w>
wor d</w>
ed y</w>
Barcel ona</w>
sa fe</w>
long er</w>
ev ent
Hu man</w>
di plom
succ ess</w>
k en</w>
m ail</w>
qu ali
I tal
n atur
dou b
confl ict</w>
susp ected</w>
Braz il</w>
d ings</w>
or i
20 0</w>
tot al</w>
re form</w>
John son</w>
prosecut ors</w>
sci enti
te ams</w>
loo ked</w>
appear s</w>
en forcement</w>
citi zens</w>
diffic ult</w>
ph o
bo dies</w>
il legal</w>
includ ed</w>
Mar tin</w>
Haiti </w>
v ill
terror ism</w>
ed om</w>
S ar
me -
arri ved</w>
ear th
e en</w>
mar k</w>
dri ver</w>
an ks</w>
es tic</w>
or ial</w>
every thing</w>
acc oun
Ital y</w>
in stead</w>
en viron
C os
bur g</w>
H os
tain ment</w>
ch ester</w>
con dition</w>
2 1</w>
For ce</w>
buil d</w>
at ures</w>
ev </w>
7 -
dru gs</w>
y ond</w>
Mar k</w>
dis ease</w>
prot est</w>
re fug
Ari z
Mexic an</w>
om b</w>
it ors</w>
per i
c al
pe ac
ad dition</w>
S an
sti t
ab ly</w>
k o</w>
si an</w>
re ached</w>
chall enge</w>
n ear
man u
win ner</w>
cl ass</w>
de partment</w>
ex </w>
de fin
F ran
wor ds</w>
ch e
quick ly</w>
ec ting</w>
hist or
lead ership</w>
sched uled</w>
I l
mob ile</w>
partic ip
ev ening</w>
re vol
z ing</w>
Ariz ona</w>
dra w</w>
Air lines</w>
go als</w>
hum an
T o
n ation
im pl
lin ed</w>
re t</w>
in -
aff ected</w>
con ver
scho ols</w>
offer ed</w>
ra ised</w>
dem ocr
S am
vehic le</w>
rul ed</w>
R u
job s</w>
T ri
19 </w>
gh t
M ass
s end</w>
em y</w>
elec tr
ar en</w>
bri dge</w>
el ed</w>
N et
d omin
det ails</w>
g old</w>
ac ts</w>
on e-
F I
in si
spor ts</w>
tr ade</w>
success ful</w>
fl o
iz e</w>
see king</w>
7 0</w>
dom estic</w>
rup tion</w>
m ate</w>
cust om
f ellow</w>
oc c
ach ing</w>
concer ns</w>
in sur
sing le</w>
struc tion</w>
m y
ak s</w>
bu d
Palestin ian</w>
ay ed</w>
ough out</w>
hu ge</w>
T ay
C IA</w>
Ar gent
fem ale</w>
produc ts</w>
ac hi
join ed</w>
s le
appear ance</w>
a ver
ex pres
L ad
can not</w>
previ ously</w>
f ell</w>
prot ect</w>
1 3
Yem en</w>
At tor
Ri ver</w>
sent ence</w>
foc us</w>
bec om
i v
rul es</w>
il ed</w>
respon sible</w>
az ine</w>
F re
k il
coun ter
si x
chang ed</w>
dra w
st ra
ad ding</w>
cri mes</w>
1 6
tr ue</w>
M it
S he
compl ain
prev ent</w>
M at
vi ews</w>
an k
opport unity</w>
cap tain</w>
fav or
b al
D is
estim ated</w>
contr oll
includ es</w>
ra ther</w>
n on-
2 6</w>
c ities</w>
resul ts</w>
j ail</w>
ru le</w>
g ar
s ha
par liam
fel t</w>
sp ir
re -
not ed</w>
ound ation</w>
Author ities</w>
Le e</w>
n ations</w>
B ah
ac her</w>
nor th</w>
For eign</w>
P en
power ful</w>
Carol ina</w>
acc ount</w>
u ries</w>
jo in</w>
attemp t</w>
c ell</w>
tr ack</w>
ic ation</w>
cer tain</w>
state- run</w>
inter est</w>
Ph one</w>
ic op
mat er
har d
y l
1 2
s old</w>
bo x</w>
R os
Niger ia</w>
thre e-
D istr
sanc tions</w>
mak ers</w>
w il
perform ance</w>
av es</w>
rap e</w>
ow ned</w>
K ur
Distr ict</w>
lan gu
dis pu
respon sibility</w>
defe at</w>
stre ets</w>
Al l
S o
ban k</w>
oul dn</w>
is land</w>
l oss</w>
Attor ney</w>
Man chester</w>
ear ch
fa ir</w>
enter ed</w>
cerem ony</w>
in ed</w>
M r.</w>
T ra
bab ly</w>
T s
p on
An other</w>
Ar ab</w>
Ken ne
provi ded</w>
an o</w>
to -
A l</w>
hop es</w>
doc tors</w>
Mil an</w>
Ne w
sa tion</w>
it or</w>
bro ke</w>
comm on</w>
k ept</w>
car s</w>
m as</w>
Al though</w>
we ight</w>
g ree</w>
sit es</w>
on ic</w>
fac ility</w>
Wh y</w>
res ol
Th ese</w>
Bag h
B ill</w>
ok o</w>
b omb</w>
commit ted</w>
be yond</w>
ab ove</w>
f oun
B ul
de v
r ate</w>
of t</w>
y wood</w>
an ia</w>
enti re</w>
C lar
al though</w>
tr ou
Scot t</w>
C entral</w>
di e</w>
pro bably</w>
nec ess
G ul
Olymp ics</w>
olog ical</w>
ev ac
th -
p air</w>
plan ned</w>
happ y</w>
Lib yan</w>
r oll
D uring</w>
ac tive</w>
dam age</w>
o g</w>
gr ow
s we
FI FA</w>
in tro
G ad
conn ection</w>
bl ed</w>
ess or</w>
dec ade</w>
t ab
b le
t el</w>
journal ists</w>
competi tion</w>
ap e</w>
ar ms</w>
el ing</w>
penal ty</w>
M urr
ion ship</w>
R E
cul ture</w>
urric ane</w>
recei ve</w>
onal d</w>
t om
minist ry</w>
CE O</w>
prom p
O hi
victi m</w>
a str
ta x
ali tion</w>
g n
ail ed</w>
h aps</w>
G </w>
thr oughout</w>
S cho
2 3</w>
sim ply</w>
sour ces</w>
numb ers</w>
origin al</w>
wor th</w>
ar ch
l or</w>
Murr ay</w>
Christ mas</w>
Ac t</w>
k o
ti </w>
st er
ag ents</w>
ul arly</w>
e h</w>
Me anwhile</w>
and ed</w>
kid n
ti v
govern or</w>
al one</w>
condi tions</w>
Ohi o</w>
par ties</w>
stit ute</w>
l u
colle ge</w>
es cap
in ning</w>
For mer</w>
exper ts</w>
H ou
Ch ic
enc ies</w>
a im
F in
b ly</w>
contro versi
p ush
as king</w>
v ille</w>
Hill ary</w>
im ages</w>
West ern</w>
h ous
av o
sa me-
peri od</w>
prof essi
ess ed</w>
c over</w>
th west</w>
r ow</w>
cust ody</w>
religi ous</w>
H ernandez</w>
partic ularly</w>
ic a</w>
Pu tin</w>
ear ing</w>
phot os</w>
C ru
c le</w>
bab y</w>
Air port</w>
ad mitted</w>
am med</w>
F err
cer tain
em ed</w>
ip p
sem i
pre dic
air s</w>
a x
ent ary</w>
trad iti
g ath
E ver
happ en</w>
critic al</w>
W A
Gr ou
ast er</w>
C ub
set t
mas sive</w>
sen se</w>
now le
ann ual</w>
Mid dle</w>
al- Assad</w>
li f
stand ards</w>
R am
Ch ris</w>
ack nowle
ba ab</w>
M and
Li ver
chem ical</w>
M ost</w>
r ic
Sha baab</w>
cha irman</w>
car ried</w>
natur al</w>
tri b
wh om</w>
Tay lor</w>
Gad ha
F u
do or</w>
insur ance</w>
progr ams</w>
NA SA</w>
Gu ard</w>
b in</w>
l ack</w>
g ri
1 4
am ount</w>
same- sex</w>
ow er</w>
sel f-
k i</w>
3 5</w>
m oun
neighbor hood</w>
vehic les</w>
air line</w>
ad di
Gadha fi</w>
b all
2 7</w>
w ell
candi date</w>
V er
grow th</w>
stre et</w>
beg in</w>
ph ys
An dre
i Phone</w>
ar m</w>
R ec
G ra
Kenne dy</w>
ill ed</w>
z er
i ent</w>
cr ashed</w>
manu fac
Willi am</w>
ex t</w>
be ha
8 0</w>
p ass</w>
ill s</w>
clim ate</w>
hel icop
consid er</w>
att acked</w>
h ands</w>
sc and
Mic h
l ow</w>
dri ving</w>
go es</w>
z one</w>
tal king</w>
app ear</w>
aw are</w>
s y</w>
positi ve</w>
rel ations</w>
d or</w>
vir us</w>
Ric hard</w>
exam ple</w>
desig ned</w>
stru ggl
Re public</w>
N F
s n
F eder
fam ous</w>
he avy</w>
Fr om</w>
ashi on</w>
Arab ia</w>
buil t</w>
pr inc
mo del</w>
candi dates</w>
sup pl
at ri
ap ar
le ague</w>
fac ing</w>
ter ms</w>
de puty</w>
200 4</w>
ord in
al bu
200 3</w>
am ing</w>
plac es</w>
str ong
fi f
s ell</w>
requ ired</w>
cam p</w>
wor st</w>
f ying</w>
gr ad
il ities</w>
foun der</w>
al i</w>
dis covered</w>
Christi e</w>
stri ker</w>
Champ ions</w>
inv est
passeng er</w>
Holl ywood</w>
Egyp tian</w>
m ist
f all
cou l
Tim es</w>
fac ed</w>
Liver pool</w>
O k
z a</w>
j ustice</w>
J ord
coul dn</w>
P rem
A R
inj ury</w>
or ado</w>
ant ly</w>
z i</w>
id ents</w>
terr it
il ing</w>
nor m
O R
An th
s outh</w>
ph ones</w>
m ass</w>
may or</w>
P an
ac ting</w>
ap p</w>
pre c
Chic ago</w>
des ign</w>
civil ians</w>
re duc
war ned</w>
mag azine</w>
S pe
or ies</w>
under stand</w>
n er
addi tional</w>
et ers</w>
Bagh dad</w>
mov ing</w>
oper ating</w>
Musli ms</w>
et ro
B oko</w>
announc ement</w>
wor l
S im
par k</w>
oy al</w>
. -
ad op
l a</w>
wh ole</w>
sur r
high est</w>
B re
C ath
d aily</w>
Har am</w>
pri m
cl in
K el
controversi al</w>
recor ds</w>
M ur
. com
ac tors</w>
eff ect</w>
L at
us et
D en
Anth ony</w>
fu el</w>
Ar sen
ach uset
Mass achuset
s mo
vo ice</w>
2 .
.com .</w>
Grou p</w>
re comm
Ham as</w>
oc ked</w>
t edly</w>
fli ghts</w>
2 8</w>
b it
high er</w>
J en
event ually</w>
it arian</w>
id es</w>
w atch</w>
st ore</w>
J os
cont act</w>
M ac
li ved</w>
an ing</w>
continu es</w>
cor ruption</w>
F ederal</w>
Ad ministration</w>
complet e</w>
ser ving</w>
po or</w>
G ol
traf fic</w>
res sed</w>
st yle</w>
di stri
distri bu
stor ies</w>
wr ong</w>
NF L</w>
j ected</w>
w on
e k
D C</w>
k ill</w>
hel ping</w>
mis s
declar ed</w>
Can ada</w>
im age</w>
el ected</w>
level s</w>
hol ding</w>
H aw
Z e
sist er</w>
ac qu
pho to</w>
le -
incre ased</w>
Gul f</w>
n os
Col orado</w>
cu ts</w>
beha vi
Scho ol</w>
apol ogi
sent enced</w>
see ing</w>
dem and</w>
Ab out</w>
k et
mis sed</w>
k ins</w>
am id</w>
war ning</w>
Op inion</w>
cre di
ach es</w>
R ep
j ects</w>
o o</w>
t wee
Pl ay
b ing</w>
ar a</w>
s now</w>
inj uries</w>
well -
ill er</w>
Ar m
T SA</w>
earth quake</w>
J ud
Massachuset ts</w>
h ur
pro pos
lin ked</w>
pr in
f ear</w>
cent ury</w>
En ter
Christi an</w>
el and</w>
ing ing</w>
conduc t</w>
form s</w>
pi ece</w>
c ow</w>
en sure</w>
W at
n ative</w>
hosp it
te en
dang erous</w>
star ting</w>
t ress</w>
gre at
con v
eas y</w>
s ession</w>
wit n
fl oo
stra ight</w>
Prem ier</w>
le ts</w>
co alition</w>
fin ally</w>
enc our
ar ding</w>
al thy</w>
resc ue</w>
al ist</w>
sh ut
mar ried</w>
se ts</w>
independ ent</w>
win d
conc ern</w>
Com mission</w>
uni versity</w>
in k</w>
Gre ece</w>
viol ent</w>
tou ri
se ems</w>
Ch ief</w>
tr ag
W ar
dro pped</w>
d om</w>
tre ated</w>
ur al</w>
reve aled</w>
z u
ans as</w>
disa ster</w>
pu t
Ale x
cover age</w>
Mal ay
Rob er
Cub a</w>
i si
fic ation</w>
de gree</w>
g olf</w>
o is</w>
An dro
C as
ex ist
adv oc
app ing</w>
at tr
it ation</w>
individu al</w>
com for
e- mail</w>
St re
Is land</w>
Phil ipp
acknowle d
me an</w>
al es</w>
I C
cos ts</w>
R og
benef its</w>
bud get</w>
produc tion</w>
S ol
I ow
bu y</w>
Gr and</w>
ec tions</w>
mat ches</w>
is es</w>
c op
tor n
a ur
un g</w>
L a</w>
var ious</w>
O ur</w>
U S
ab o
sp ot</w>
beg inning</w>
stop ped</w>
e ed
spe ak</w>
lear ned</w>
S ee</w>
bot t
Ken ya</w>
Thom as</w>
dis h</w>
li st
In v
p ping</w>
W in
c ur
S ur
all ed</w>
assa dor</w>
M el
te en</w>
a ev</w>
fre edom</w>
remar ks</w>
dead ly</w>
e ing</w>
wi d
ow ers</w>
per f
do g</w>
equ ip
meas ures</w>
appe al</w>
ig n
sur ve
ash es</w>
Hos p
b el</w>
I R
tur al</w>
un ion</w>
fac es</w>
c at
vot ed</w>
v ess
head ed</w>
Dan i
si onal</w>
re fl
j um
ow ner</w>
Ear lier</w>
prof ile</w>
ac tic
ag on</w>
Pr ot
Ts arn
fr u
S mi
sing er</w>
near by</w>
Th ree</w>
su st
coll ap
ov ic</w>
conduc ted</w>
op en
N ad
b ag
i res</w>
it es</w>
f oot</w>
S up
ent ing</w>
langu age</w>
pro -
J ones</w>
s ong</w>
pr ice</w>
ra ise</w>
aver age</w>
scri pt</w>
pres ence</w>
invol ving</w>
expl o
pre t
appro pri
Iow a</w>
esti val</w>
Li ber
L E
fif th</w>
T or
on to</w>
P atr
Mos cow</w>
S hi
a o</w>
polic ies</w>
pre mi
respon ded</w>
appro ved</w>
conserv ative</w>
terr or</w>
2 9</w>
res earch
Tsarn aev</w>
intro duc
en der</w>
gu ard</w>
y o</w>
ov a</w>
org an</w>
n or</w>
B ay</w>
U.S .-
ag er</w>
ad ium</w>
doll ars</w>
B ay
spor tation</w>
L eb
cap tured</w>
ro g
W om
m ent
in sul
Colomb ia</w>
Bl ack</w>
deb t</w>
Andro id</w>
onn el</w>
pul led</w>
To day</w>
Sh eriff</w>
charac ter</w>
re str
cau ght</w>
Enter tainment</w>
scand al</w>
V ic
sec retary</w>
D or
wat ers</w>
gu e</w>
uc k
g ress</w>
200 1</w>
wal k</w>
f ast</w>
3 1</w>
proper ty</w>
A bu
Th e
F light</w>
ar k</w>
b id</w>
Ukrain ian</w>
Jo e</w>
F o
4 5</w>
politic s</w>
challeng es</w>
B ol
shar ed</w>
N A</w>
the ast</w>
abo ard</w>
un d</w>
explos ion</w>
all -
se at</w>
prim ary</w>
re view</w>
B as
sub ject</w>
a war
re ality</w>
human itarian</w>
pers onnel</w>
ig an</w>
at en</w>
b ra
ast ers</w>
ve z</w>
behavi or</w>
anc y</w>
is on</w>
be au
pres ent</w>
con dem
doc tor</w>
sk i</w>
vol un
surg ery</w>
cont ent</w>
ov </w>
spe ed</w>
f ashion</w>
Hosp ital</w>
Sw ed
el ess</w>
Stre et</w>
I s</w>
coun ts</w>
t .</w>
z er</w>
3 00</w>
F ir
erg us
fe ed
fl ying</w>
O f</w>
F ergus
an ch
g e
neigh b
H er</w>
i b
pris on
ar ez</w>
Argent ina</w>
sp read</w>
contr act</w>
rem oved</w>
refug ees</w>
complain t</w>
Ze al
exp ect</w>
manufac tur
ol a</w>
appoin ted</w>
ack ers</w>
star s</w>
h ear</w>
l ic
Fergus on</w>
L O
p ush</w>
ch er</w>
appar ently</w>
s elling</w>
Al- Shabaab</w>
C r
our ces</w>
reg ist
ar d
view ed</w>
vis itors</w>
remain ed</w>
p atr
el se</w>
shor tly</w>
A I
reas ons</w>
st y</w>
scre en</w>
g ets</w>
m ach
J ust</w>
v als</w>
z y</w>
s a</w>
loo ks</w>
ar ily</w>
c tion</w>
n is</w>
adv ant
om eters</w>
bo ys</w>
met ers</w>
gr and
Arsen al</w>
vot es</w>
ne g
+ </w>
L ev
V ill
* </w>
V ene
se ed</w>
Y ou
legisl ation</w>
phot ograph
E l</w>
Mich igan</w>
D A</w>
lear n</w>
D onald</w>
S now
di g
out break</w>
T ok
T am
s man</w>
re ly</w>
T ON</w>
wa iting</w>
fr au
pro gress</w>
susp ended</w>
uc ky</w>
or ing</w>
produc ed</w>
dr am
appro ach</w>
strateg y</w>
M un
rad i
ast s</w>
ter y</w>
si oner</w>
concer ned</w>
v e-
no ti
custom ers</w>
sec ure</w>
ick et</w>
em o
commun ities</w>
kil ometers</w>
fa i
McC ain</w>
secon d-
bl ood</w>
ay ing</w>
comb at</w>
Zeal and</w>
traf fic
gen der</w>
T om</w>
K ab
ju ana</w>
D ub
h y
si ze</w>
fl u</w>
ob </w>
trans fer</w>
roc k</w>
stat us</w>
ul ts</w>
n ature</w>
ab ad</w>
fe e</w>
ans wer</w>
di ag
dec lined</w>
pro posed</w>
on ing</w>
vi sion</w>
n ote</w>
low er</w>
op h
fin ished</w>
de vice</w>
ac i
lim ited</w>
Mic ros
1 ,000</w>
der son</w>
Micros oft</w>
WA S
Vene zu
tr a</w>
mov ies</w>
ti l
pp i</w>
ath on</w>
min d</w>
t ests</w>
s ear
Di rec
resp ond</w>
pre par
parliam ent</w>
im ag
M ub
run s</w>
Lad en</w>
s si
rel and</w>
p aper</w>
Car l
d wide</w>
or ed</w>
H ay
Snow den</w>
Mand ela</w>
boo ks</w>
G od</w>
H ot
insp ired</w>
cir c
sh owing</w>
influ ence</w>
determin ed</w>
acc ep
Zim mer
soci ety</w>
Rep .</w>
cho ice</w>
hos t
st one</w>
5 -
K ing
organiz ations</w>
Afric an-
usti n</w>
m ates</w>
n i</w>
P enn
Bo th</w>
ak es</w>
res er
traditi onal</w>
direc tly</w>
Cha vez</w>
3 3</w>
ali ze</w>
li fe
si </w>
evac u
as tic</w>
Braz il
ey es</w>
Ch il
w ouldn</w>
champ ions</w>
Zimmer man</w>
Be fore</w>
Cam er
Bah rain</w>
tw ice</w>
al ter
Tok yo</w>
do zen</w>
i juana</w>
travel ing</w>
p as
id s</w>
provi ding</w>
m ad
t ough</w>
P ist
Mub ar
op er</w>
ag an</w>
bre aking</w>
ong s</w>
do zens</w>
oo d
con gres
N BC</w>
Mis si
Ob am
Mubar ak</w>
ul lah</w>
O sc
I m
N ot</w>
miss ile</w>
ali ve</w>
pr acti
Dav is</w>
A T
targ et</w>
in son</w>
M ah
professi onal</w>
prosecut or</w>
K e
sig ns</w>
s wi
n it
compu ter</w>
G h
audi ence</w>
Sp ec
pic ture</w>
S pr
M aj
ul ti
is co</w>
car ry</w>
Missi ssi
li z
commis sion</w>
certain ly</w>
S af
ag encies</w>
rest aur
r are</w>
A sh
i ously</w>
immigr ants</w>
soldi er</w>
vot ing</w>
gener ation</w>
p at
re bel</w>
vis ited</w>
ref used</w>
sp ot
HI NG
Mississi ppi</w>
b ar</w>
e ast</w>
eng ine</w>
see k</w>
dis play</w>
foll ow</w>
Jord an</w>
sh el
la hom
WAS HING
differ ence</w>
WASHING TON</w>
c er</w>
F oundation</w>
bl ing</w>
ev ol
B erg
auth or</w>
cl o
I reland</w>
mid dle</w>
chec k</w>
loc ated</w>
op pon
susp ects</w>
albu m</w>
threat ened</w>
fi el
Ok lahom
pret ty</w>
favor ite</w>
sh eriff</w>
d a</w>
fir st-
em an</w>
and -
achi ev
ou l</w>
helicop ter</w>
remain ing</w>
los ing</w>
mil e</w>
Inter ior</w>
ex ac
N ob
Del hi</w>
necess ary</w>
her self</w>
S ev
soc cer</w>
l ov
ak ed</w>
ati c
S ri</w>
aw a
hon or</w>
T ime</w>
sc ale</w>
vers ary</w>
pre pared</w>
rad io</w>
F ar
L an
M ot
democr acy</w>
se emed</w>
f ol
ni versary</w>
F our</w>
st ands</w>
Oklahom a</w>
Per ry</w>
Fir st</w>
t ac
activ ity</w>
Wil son</w>
targ eted</w>
con sul
de tained</w>
employ ee</w>
t ells</w>
quar ters</w>
D ie
avo id</w>
w earing</w>
diag nos
mar ijuana</w>
pr actic
Su per
f at
F ire</w>
Th en</w>
C al
S tr
9 0</w>
Or g
investig ating</w>
im pres
se ven
pl ays</w>
5 ,000</w>
Bec ause</w>
ed ge</w>
A C
cam era</w>
pur ch
syst ems</w>
ne ys</w>
thre ats</w>
m ot
fin als</w>
ac tress</w>
B or
com pared</w>
Bo eh
revol ution</w>
p ounds</w>
R onal
ann a</w>
fin ish</w>
Islam abad</w>
sy l
con sist
advant age</w>
- based</w>
H igh</w>
t elling</w>
D ut
W oods</w>
con su
S ony</w>
an mar</w>
Li ke</w>
ar ies</w>
gre en</w>
crow d</w>
spe aking</w>
di an</w>
recover y</w>
pir ates</w>
H on
becom ing</w>
ten nis</w>
M as
step s</w>
My anmar</w>
c iting</w>
dr one</w>
l ying</w>
stitu tion</w>
larg ely</w>
T e
author ity</w>
V eg
u ment</w>
Boeh ner</w>
ch i</w>
in spec
surpri se</w>
i Re
abor tion</w>
ag u
fun eral</w>
St ation</w>
astr o</w>
over all</w>
le ans</w>
Har ry</w>
G overn
M er
sy mp
cr oss</w>
he av
ple aded</w>
compl ex</w>
l ose</w>
vill age</w>
doub t</w>
gh t-
for tun
se v
pol l</w>
te acher</w>
prison ers</w>
w ed
Kel ly</w>
B ank</w>
Can ad
b rain</w>
y m
pati ent</w>
practi ce</w>
sen ding</w>
erc ial</w>
de ep</w>
R yan</w>
smar t
f ine</w>
Kab ul</w>
La ur
wor k
Smi th</w>
C air
p sy
de vices</w>
We ek
pr ices</w>
p h</w>
bir th</w>
enti ally</w>
scienti sts</w>
plan es</w>
join t</w>
determin e</w>
ir ing</w>
200 2</w>
fig ures</w>
Or leans</w>
j ok
m and
Th ose</w>
me ant</w>
A N
let es</w>
fig ure</w>
direc t</w>
R el
law makers</w>
S ul
busin esses</w>
b ran
H or
min e</w>
per haps</w>
four -
S ti
a be
t on
alli es</w>
in ches</w>
partic ular</w>
con sum
s ought</w>
Inv estig
p it
repor tedly</w>
H ere</w>
O ther</w>
str eng
st ood</w>
on so</w>
e ur
moder n</w>
l ands</w>
br inging</w>
ur ged</w>
E v
apar tment</w>
sol ution</w>
up on</w>
activi ties</w>
histor ic</w>
ain e</w>
Lou is</w>
sal es</w>
in fr
Franc isco</w>
plan ning</w>
Gen .</w>
Scot land</w>
qu ality</w>
Hou ston</w>
s en</w>
g ate</w>
foc used</w>
oh an</w>
il ton</w>
kn ow
ath letes</w>
fir m</w>
tu al</w>
bu t
b on</w>
Lou isi
compl eted</w>
ac are</w>
Obam acare</w>
dec ide</w>
pos sibility</w>
L ar
3 0
be aten</w>
Nad al</w>
lawy ers</w>
pu s</w>
ad i</w>
Mic hel
bl amed</w>
inten ded</w>
targ ets</w>
Penn syl
multi ple</w>
activi sts</w>
es h</w>
ep is
tem por
20 00</w>
m ale</w>
3 .
dri ve</w>
reg ular</w>
eth n
ear ned</w>
201 6</w>
i ve</w>
hu a</w>
gre ater</w>
tur ning</w>
ro y</w>
fun ding</w>
initi al</w>
ste in</w>
ri se</w>
part ner</w>
N o
v ania</w>
Pennsyl vania</w>
b acked</w>
Jud ge</w>
territ ory</w>
discus s</w>
dri vers</w>
ang er</w>
set ting</w>
m el
C astro</w>
P i
Dub ai</w>
Abu </w>
T enn
Brazil ian</w>
Louisi ana</w>
Char les</w>
offic ially</w>
B A</w>
Mi ke</w>
bomb ing</w>
d y
pl at
Ste ve</w>
B ash
ru b
some times</w>
pre gn
is c
J ose</w>
sy m
D aily</w>
v acc
Som ali</w>
M organ</w>
an niversary</w>
as ka</w>
A sia</w>
ri val</w>
amb assador</w>
il and</w>
res ources</w>
de tain
Il lin
all owing</w>
C y
ell ed</w>
ol en</w>
Week ly</w>
X </w>
b ru
le dge</w>
sa ve</w>
Illin ois</w>
promp ted</w>
s in</w>
survi v
pre ad</w>
R oll
be ating</w>
O ver</w>
T eh
i ri
con clud
A li</w>
form ed</w>
ill ance</w>
for ec
emb assy</w>
ban ned</w>
initi ally</w>
ep tion</w>
D S</w>
F ul
susp ic
develop ing</w>
b es</w>
suffer ing</w>
B P</w>
individu als</w>
ber t</w>
worl dwide</w>
roc ket</w>
prof essor</w>
sh own</w>
coun t</w>
fl ed</w>
Mis sou
Die go</w>
leg ally</w>
Al ab
ri ver</w>
ag ent</w>
fail ure</w>
fe atur
in surg
Pe ter</w>
l oved</w>
Pist ori
S ci
19 5
t al</w>
i P
n y</w>
Alab ama</w>
Kur dish</w>
appropri ate</w>
sub ur
gg le</w>
si bly</w>
P ope</w>
D un
re duce</w>
arg o</w>
sk y</w>
Bang ko
M ag
proc ed
veter ans</w>
g al</w>
gi ant</w>
ver se</w>
on going</w>
Bangko k</w>
fun d</w>
att le</w>
F AA</w>
Mi ami</w>
resp ect</w>
Missou ri</w>
bre ak
IR S</w>
R ad
ess ing</w>
manag ement</w>
sp on
ex change</w>
Pistori us</w>
sugg ested</w>
Em b
iz ing</w>
sci ence</w>
critic ism</w>
pre -
keep ing</w>
sh ots</w>
bro ken</w>
separ ate</w>
it ting</w>
meas ure</w>
sid es</w>
J es
Cair o</w>
sev ere</w>
Emb assy</w>
G ir
devel op</w>
E T</w>
Pu bl
Por tu
mul a</w>
For mula</w>
qu ite</w>
hor se</w>
Ferr ari</w>
ab duc
B ow
equip ment</w>
ecti vely</w>
Tha iland</w>
represent ative</w>
m al
te gr
T E
K erry</w>
dro p</w>
pros ecu
off ers</w>
An derson</w>
o on</w>
f an</w>
comm ander</w>
o e</w>
U S</w>
pers on
Dut ch</w>
sp end</w>
Arm strong</w>
thin king</w>
ban ks</w>
wil d
Gra ham</w>
wit ness</w>
R oyal</w>
g an</w>
retur ning</w>
f al
wr iting</w>
EW </w>
reli ef</w>
prom ised</w>
clear ly</w>
bl og</w>
Bay ern</w>
ad el
re pu
Wom en</w>
fin ding</w>
Er ic</w>
L ohan</w>
as c
en -
exac tly</w>
perf ect</w>
sur vey</w>
Al onso</w>
o de</w>
me at</w>
C iv
con struction</w>
expres sed</w>
mo on</w>
sec ret</w>
re au</w>
own ers</w>
cle an</w>
deli ver
kn ows</w>
argu ed</w>
r ates</w>
he althy</w>
con spir
ex erc
ell a</w>
mos tly</w>
St eph
sub st
L it
S il
S k
I v
critic ized</w>
ru m
S ea</w>
prof it</w>
n ames</w>
Ab d
ov .</w>
C DC</w>
regi onal</w>
milit ant</w>
be t</w>
t esting</w>
ph ia</w>
ol der</w>
g all
Ronal do</w>
gir l
ati vely</w>
employ ment</w>
hel ps</w>
us ual</w>
fri end
aw ard</w>
flo or</w>
f it</w>
put ting</w>
extrem ely</w>
sh ut</w>
wi des
circ um
ch i
lan ding</w>
l og
de but</w>
H om
quar ter
public ly</w>
credi t</w>
travel ed</w>
Org aniz
wides pread</w>
ough ly</w>
roy al</w>
suppor ting</w>
ser iously</w>
mid -
in tegr
l es
In stitute</w>
fai th</w>
olog ist</w>
appro val</w>
y ers</w>
ven ue</w>
F oot
ac </w>
Un der</w>
pro duce</w>
wat ching</w>
Canad ian</w>
end ers</w>
H ill</w>
S oci
0 0-
val ue</w>
un it</w>
ri vals</w>
ar tic
G ov.</w>
produc t</w>
acknowled ged</w>
D ev
bu ried</w>
keep er</w>
cor por
Teh ran</w>
rem ember</w>
buil dings</w>
fi x
gu ar
am p</w>
comm ercial</w>
S anta</w>
au tom
wor ker</w>
high ly</w>
prov inc
vers y</w>
speci fic</w>
ad ministr
civil ian</w>
Phil adel
Philadel phia</w>
G al
f illed</w>
i -
Ri o</w>
P a
ex clu
targ eting</w>
ob vi
se ized</w>
u b</w>
inn ov
Bl ack
pan el</w>
el i
volun te
Z </w>
im um</w>
K ir
ne sty</w>
youn ger</w>
el son</w>
Ah mad
le g</w>
sup ply</w>
in king</w>
Feder er</w>
trad ition</w>
P ent
Pent agon</w>
att ended</w>
j i
sp r
su e</w>
ish ment</w>
J ew
F DA</w>
bott om</w>
un able</w>
c a</w>
All en</w>
- up</w>
am o</w>
pri ze</w>
f ounded</w>
S qu
is s</w>
u el</w>
expl ained</w>
des er
inc idents</w>
propos al</w>
mat ely</w>
Le ad
f ly</w>
f ast
cy cl
s ale</w>
fer red</w>
Gre en</w>
ket ball</w>
de al
j ad</w>
conf id
ach ers</w>
f are</w>
gath ered</w>
vide os</w>
ti e</w>
trib al</w>
bro thers</w>
Veg as</w>
Cong o</w>
eng aged</w>
med al</w>
prom ot
Fo x</w>
tran si
l oy
Moh ammed</w>
4 4</w>
Pr os
critic s</w>
dest roy
Philipp ines</w>
B oy
suppor ted</w>
h ou
dis crimin
At lan
wa it</w>
terror ists</w>
ine jad</w>
larg er</w>
h o</w>
Tu be</w>
st ing</w>
coll ection</w>
contro versy</w>
en ko</w>
Dani el</w>
H as
e ed</w>
Sal eh</w>
i et</w>
vess el</w>
girl friend</w>
veter an</w>
impro ve</w>
E R
f requ
introduc ed</w>
Con tr
4 8</w>
Ahmad inejad</w>
wel come</w>
win ds</w>
— </w>
campa ig
sa tions</w>
R af
• </w>
St ar</w>
Mus eum</w>
4 7</w>
at edly</w>
h asn</w>
P ress</w>
D on</w>
w ing</w>
A sian</w>
hop ing</w>
ow ns</w>
B eng
Ch urch</w>
independ ence</w>
For t</w>
r ich</w>
Y et</w>
Bo ard</w>
i day</w>
hol ds</w>
S B</w>
d ah
in ated</w>
att end</w>
M an</w>
en ses</w>
accoun ts</w>
requ ire</w>
mus eum</w>
Cath ol
fav or</w>
la g</w>
journal ist</w>
exten ded</w>
an on</w>
v ac
ap ers</w>
anc ed</w>
v </w>
s tic
loc ation</w>
push ed</w>
assist ance</w>
s h</w>
t we
D etro
ef ul
norm al</w>
iP ad</w>
research ers</w>
T y
fe atures</w>
p ack
se em</w>
surve illance</w>
sh ow
2 -year-old</w>
Publ ic</w>
c ast
p ath</w>
F am
witn esses</w>
gr y</w>
traffic king</w>
s pl
k h</w>
insi sted</w>
peac eful</w>
read ing</w>
or t</w>
re action</w>
spok en</w>
iz </w>
pro p
head ing</w>
he at</w>
ad emy</w>
Bang lad
id en</w>
ra ising</w>
c ard</w>
frau d</w>
ob tained</w>
f ish</w>
n um
aci fic</w>
fi ve-
sit ting</w>
ag ues</w>
threat ening</w>
repe atedly</w>
fun ds</w>
s ons</w>
st olen</w>
ang ing</w>
rel atives</w>
EW .com</w>
ar ity</w>
com edy</w>
e ve</w>
messa ges</w>
Pri x</w>
K ath
fu n</w>
car ri
in come</w>
pos es</w>
Sup er</w>
ra w
f ought</w>
typ e</w>
conver sation</w>
gr ow</w>
Mon t
HI V</w>
p al
M iller</w>
In don
restr ic
iz on</w>
Direc tor</w>
great est</w>
Indon es
questi oned</w>
dang er</w>
3 6</w>
fe ature</w>
pos t-
cam pus</w>
Br ad
A M
enc ing</w>
all ows</w>
ab e</w>
se as
N T
arti st</w>
st ers</w>
n arr
tit les</w>
7 5</w>
fi res</w>
Hot el</w>
mis s</w>
7 .
Fran k
tor ture</w>
M essi
t ested</w>
P acific</w>
sum mit</w>
artic le</w>
mak er</w>
You Tube</w>
dam aged</w>
rec ru
de ploy
For d</w>
te amm
ord ers</w>
i ety</w>
Foot ball</w>
S el
c eas
P it
O per
ha zi</w>
bri ef
destroy ed</w>
w ake</w>
loc k</w>
dre am</w>
pro ve</w>
s of
mar ked</w>
consum ers</w>
B S</w>
S how</w>
l un
gun s</w>
y ach
cour ts</w>
sm all
Cl ub</w>
n ov
sett l
ex hi
Char lie</w>
testi fied</w>
increas ing</w>
er o</w>
ar ed</w>
Malay sia</w>
L as</w>
tem per
s .</w>
S a
bel ow</w>
sc ore</w>
in ess</w>
gu y</w>
mon y</w>
sim ple</w>
tain s</w>
D oc
R en
anim als</w>
Wi th
ill ness</w>
tow ards</w>
ad ver
fil ms</w>
m en
l ess
c ut
us er</w>
St u
c ited</w>
g am
W im
r oll</w>
A vi
us ually</w>
Ear th</w>
accep ted</w>
Leb anon</w>
t an
Th ough</w>
r o</w>
er ine</w>
ethn ic</w>
J im</w>
wid ely</w>
D on
recor ded</w>
fac ilities</w>
ag ree</w>
May or</w>
doc ument</w>
wed ding</w>
U N
gr anted</w>
gi ves</w>
mon d</w>
Wh o</w>
2- 1</w>
em is
y land</w>
le ge</w>
ing er</w>
D o</w>
L or
produc ing</w>
em ic</w>
surr ounding</w>
Detro it</w>
at ell
z es</w>
offer ing</w>
secon ds</w>
hand ed</w>
King dom</w>
so -
claim ing</w>
Sou thern</w>
R od
t ech</w>
ar m
ash ing</w>
Sing ap
F il
regist ered</w>
immedi ate</w>
Sti ll</w>
govern ments</w>
er up
in i</w>
Mo ore</w>
y outh</w>
ed s</w>
Se oul</w>
develop ed</w>
N ep
recover ed</w>
activ ist</w>
dig ital</w>
ip al</w>
tic al</w>
Am az
S eb
199 9</w>
twee ted</w>
stat ements</w>
st un
feed back</w>
organiz ed</w>
L ake</w>
Le w
gr ounds</w>
sur face</w>
prec ed
h ot</w>
Y ear</w>
B lo
hol iday</w>
controll ed</w>
Cos by</w>
On ce</w>
A C</w>
Nob el</w>
2 ,
H urricane</w>
invol v
x on</w>
insul a</w>
Fran k</w>
bl es</w>
Har ris</w>
touri sts</w>
ti ves</w>
4 .
appar ent</w>
prom ise</w>
torn ado</w>
far m
c old</w>
air lines</w>
G ates</w>
stru ggle</w>
war t</w>
Mar ine</w>
V A</w>
K ansas</w>
rout e</w>
occ up
Cor ps</w>
ast e</w>
acc ept</w>
- to-
Mar s</w>
W .</w>
w ear</w>
se where</w>
ant an
manag ed</w>
involv ement</w>
W ill</w>
reti red</w>
Jew ish</w>
ul ation</w>
exper t</w>
wr ite</w>
d ating</w>
Osc ar</w>
p ick</w>
J am
1 -year-old</w>
Messi </w>
num erous</w>
au g
surpri sed</w>
ep ing</w>
ag ement</w>
z z
Colomb ian</w>
lab or</w>
Beng hazi</w>
poin ted</w>
inc ol
Wal ker</w>
T A</w>
ir o</w>
K y
T ony</w>
L incol
repor ting</w>
I st
negoti ations</w>
H el
kill s</w>
gre w</w>
bu l</w>
Al so</w>
p ope</w>
se ats</w>
invest ment</w>
Singap ore</w>
Clar k</w>
J ef
tre at</w>
cru ise</w>
pol i</w>
Nor thern</w>
it ems</w>
f lag</w>
Fi ve</w>
pe ti
ha ven</w>
pr a
Tri poli</w>
S C
ong side</w>
u g
mater ial</w>
Med ical</w>
Col umb
5 0
pro b
air strikes</w>
li gh
ic ity</w>
indic tment</w>
S um
Wim ble
tr uck</w>
P ic
Wimble don</w>
n a</w>
r am</w>
P ost</w>
acc u
it er
D es
am az
resc u
C ross</w>
commun ications</w>
ca using</w>
conn ected</w>
D ar
bre ast</w>
H al
Offic ials</w>
pow ers</w>
the astern</w>
ey e</w>
M ali
ur s</w>
charac ters</w>
Lincol n</w>
N ev
pol l
We ather</w>
4 2</w>
ph y</w>
p tion</w>
W is
fe eling</w>
Be ach</w>
pos sibly</w>
c ab
champ ionship</w>
Al aska</w>
cor rec
im m
pres ent
Lat ino</w>
cre d
as es</w>
dou ble</w>
C re
pic ked</w>
figh ter</w>
4 -year-old</w>
lad y</w>
rac es</w>
S ter
t es</w>
six th</w>
Qu een</w>
ad ults</w>
z ai</w>
eful ly</w>
Ist an
Istan bul</w>
emerg ed</w>
repu tation</w>
d est</w>
testi mony</w>
a el</w>
1 0,000</w>
b on
ah u</w>
Sp ace</w>
ti ful</w>
ell er</w>
inter ests</w>
di v
bas ketball</w>
environ ment</w>
© </w>
writ er</w>
African- American</w>
H us
know ledge</w>
pay ing</w>
R ice</w>
D am
G ri
P G
N C
Rober ts</w>
bomb ings</w>
eff ective</w>
g en</w>
ans w
op inion</w>
in hua</w>
dram atic</w>
Gu antan
Guantan amo</w>
j oy
Squ are</w>
S E
X inhua</w>
st ag
head quarters</w>
E U</w>
Atlan tic</w>
constitu tional</w>
t ol
uni que</w>
B ob</w>
floo ding</w>
de dic
any ahu</w>
cl ashes</w>
atic ally</w>
et ta</w>
diplom atic</w>
investig ate</w>
indu stri
Net anyahu</w>
provi des</w>
wh e
bir th
un clear</w>
Michel le</w>
sol ar</w>
H is
rem ov
w illing</w>
th u
ot ten</w>
D e</w>
ag gres
rac ing</w>
so- called</w>
th anks</w>
A D</w>
sist ance</w>
b atter
His pan
ad or</w>
cu it</w>
B iden</w>
circum st
y er</w>
p ain</w>
pic tures</w>
ou ts</w>
tru th</w>
C op
bl az
colle agues</w>
201 5</w>
al ongside</w>
wind ow</w>
Mal ala</w>
2 ,000</w>
ha b
g ers</w>
K ent
bo y
win s</w>
squ ad</w>
Islam ist</w>
Oc ean</w>
su s</w>
pre h
appe als</w>
ru c
p ip
hous es</w>
Ch en
Bel gi
in mates</w>
Mu g
Lew is</w>
re jected</w>
comfor table</w>
M ov
phot ograp
win ter</w>
4 0
w all</w>
Pal in</w>
T uni
increas ingly</w>
W all</w>
N BA</w>
b ought</w>
J on
environ mental</w>
r ant</w>
ay ne</w>
W ind
Tran sportation</w>
presid ency</w>
se es</w>
Q at
ef s</w>
ex -
step ped</w>
land ed</w>
me aning</w>
her o
Isl am</w>
condem ned</w>
wi </w>
4 00</w>
o x
oun ce</w>
identi ty</w>
experi enced</w>
E liz
D re
b un
s atell
aim ed</w>
# </w>
h ol</w>
Eliz abe
establ ished</w>
op tion</w>
pil ots</w>
the ater</w>
est ate</w>
six -
par tis
w ise</w>
mot or
tal ked</w>
scor ing</w>
Banglad esh</w>
produc er</w>
confir m</w>
con sol
mag nit
i p</w>
mater ials</w>
K u
ad m
Phil li
Wh it
jour ney</w>
3 2</w>
bas ic</w>
S A
10 -
stat ing</w>
bl ast</w>
B ern
attemp ted</w>
phys ical</w>
t ons</w>
D all
oc cas
hou se
eff ects</w>
w an</w>
Champ ionship</w>
an tic
Tenn es
pr oud</w>
chang ing</w>
dre w</w>
ti ed</w>
under standing</w>
sh op</w>
coun c
net works</w>
kill ings</w>
refer ring</w>
Sand y</w>
re aching</w>
st ret
3 8</w>
ic ts</w>
As s
10 0,000</w>
may be</w>
Alex ander</w>
win d</w>
st able</w>
sa m
Am ong</w>
T el
ob s</w>
detain ees</w>
fac ts</w>
me th
ec k</w>
J our
rac ial</w>
Val ley</w>
Jer us
y n</w>
v ent
br and</w>
l eng
Jerus al
vis iting</w>
fru str
Jerusal em</w>
weap on</w>
ris h</w>
li sted</w>
hal f-
J ack</w>
Ale x</w>
Com mis
apologi zed</w>
perform ed</w>
Ro dri
mon it
er ce</w>
s burg</w>
cou ples</w>
j et</w>
diagnos ed</w>
off ensive</w>
x im
gi ft</w>
the -
B en</w>
b ound</w>
stor es</w>
tin y</w>
f ears</w>
ri sing</w>
dr ama</w>
wal ked</w>
M og
st adium</w>
vol can
Gh ana</w>
dispu te</w>
assist ant</w>
car bon</w>
anc er</w>
priv acy</w>
aff id
re min
Tennes see</w>
neg ative</w>
3 7</w>
ch ances</w>
pass ing</w>
arti sts</w>
app s</w>
St one</w>
Kent ucky</w>
oc al</w>
Mug abe</w>
pro hi
ni ght
ba g</w>
r oughly</w>
Niger ian</w>
l -
resol ution</w>
chec k
ri de</w>
Sec ret</w>
affid av
associ ated</w>
Se attle</w>
Cathol ic</w>
famil i
C ab
draw n</w>
g otten</w>
as ing</w>
Pros ecut
o y</w>
C oll
her o</w>
h urricane</w>
r ally</w>
en ess</w>
C amp
ch -
congres sional</w>
head s</w>
wat ched</w>
pe t</w>
in stitu
el ine</w>
s ongs</w>
Bro ok
ab bed</w>
6 5</w>
clos er</w>
de par
and o</w>
ic ks</w>
ul um</w>
t ask</w>
counc il</w>
ta h</w>
ed ed</w>
Li ve</w>
Con nec
Sh er
cli ent</w>
sp ill</w>
fall ing</w>
at e
Organiz ation</w>
small er</w>
ten sions</w>
sli de</w>
speci fic
def end</w>
ir ates</w>
it ary</w>
sle ep</w>
Cru z</w>
Mc L
recei ving</w>
pr ay
kidn apping</w>
ic ate</w>
un likely</w>
suppl ies</w>
su d
incre di
over ty</w>
q </w>
M ir
B un
Mit t</w>
D E
complet ely</w>
B us
bag s</w>
tre me</w>
C L
attor neys</w>
ly n</w>
R ock</w>
dic t</w>
t y
w er
Saf ety</w>
ent y</w>
Med ic
fl ag
do gan</w>
eng ine
U tah</w>
Mc Car
Bo eing</w>
L op
no tic
con sequ
def end
3 -year-old</w>
low -
For ces</w>
Ti bet
C ro
gu ards</w>
b a</w>
ha ir</w>
tri bu
impl em
repres ents</w>
H um
n es
cont est</w>
exp ensive</w>
ec t
air ed</w>
J ustin</w>
ra il</w>
mar ks</w>
n ell</w>
at ever</w>
commit ment</w>
thin ks</w>
St ev
op posed</w>
B ud
long time</w>
def ending</w>
bi tion</w>
hur t</w>
h ate</w>
ide as</w>
cr icket</w>
Lan ka</w>
R ou
jo y</w>
rem ove</w>
beau tiful</w>
G o
L i</w>
T er
ter ri
N az
R a
magnit ude</w>
Elizabe th</w>
Wis con
A BC</w>
af ford</w>
clin ic</w>
affidav it</w>
Nep al</w>
e ans</w>
for e
Y </w>
f estival</w>
ad ult</w>
direc ted</w>
2 8
c ateg
r y
bl ame</w>
docum ented</w>
def ender</w>
te achers</w>
Indones ia</w>
dis cover
G ab
anc ing</w>
d ent</w>
at ers</w>
rob ber
b oss</w>
H all</w>
prot ection</w>
9 .
fac tory</w>
Amaz on</w>
canc eled</w>
pi ec
tor ia</w>
oin t</w>
tr ust</w>
Cam p</w>
M asters</w>
isl ands</w>
U g
iz ation</w>
govern ing</w>
ent re
adver tis
rec alled</w>
vo y</w>
i ther</w>
is tic</w>
Lop ez</w>
circumst ances</w>
jok ovic</w>
a than</w>
h ole</w>
inter rog
NT SB</w>
Bri an</w>
fir ing</w>
rel atively</w>
add res
Er dogan</w>
€ </w>
arre sts</w>
D jokovic</w>
con fron
Cl ick</w>
F 1</w>
B ut
comp ound</w>
Commis sioner</w>
bo x
peac e
R ome</w>
D r
coun ter</w>
win ners</w>
ten tion</w>
Jos ep
Gu ar
citi zen</w>
Ni xon</w>
to s</w>
sec tion</w>
on ym
sub sequ
re plac
cre ating</w>
contin ent</w>
surviv ors</w>
c ial</w>
de pres
4 3</w>
demonstr ators</w>
deli ver</w>
ob serv
Rob in</w>
pre ci
L uc
op ping</w>
tran script</w>
spor ting</w>
pot entially</w>
gh am</w>
spar ked</w>
ro oms</w>
we alth</w>
s an
ap ology</w>
Bu reau</w>
W </w>
Ste wart</w>
it an</w>
Josep h</w>
Mal i</w>
Me h
An ti
V ati
b y
cent ers</w>
proc eed
6 .
ulti mately</w>
ot t</w>
o gue</w>
ad ish
adish u</w>
Mog adishu</w>
hop ed</w>
Govern ment</w>
Cos ta</w>
PG A</w>
Rodri gu
conclud ed</w>
z h
T re
Andre w</w>
yach t</w>
C ir
tion ary</w>
join ing</w>
tri um
sh ir
Gre ek</w>
min ority</w>
broad cast</w>
op tions</w>
wal king</w>
dem anding</w>
f ill</w>
d ance</w>
K ev
M ary</w>
farm ers</w>
Vati can</w>
sl ow</w>
daugh ters</w>
hi j
Connec tic
ic ated</w>
m att
plan ts</w>
Goo d
grad u
p ace</w>
O reg
Civ il</w>
D al
N elson</w>
qu ick</w>
ris m</w>
c ash</w>
Wiscon sin</w>
famili ar</w>
oc ide</w>
Mar yland</w>
guar an
Co oper</w>
exist ing</w>
1 50</w>
escap ed</w>
ra id</w>
sen si
Dall as</w>
analy st</w>
per man
Columb ia</w>
t ext</w>
t oll</w>
Re g
th en-
ast ruc
tw are</w>
du ty</w>
Ac ademy</w>
explo ded</w>
my self</w>
it ely</w>
Ad am</w>
Gre at</w>
c ore</w>
s la
pr ene
epis ode</w>
conspir acy</w>
r ol
V ice</w>
fal se</w>
l ob
at -
Hol mes</w>
isc al</w>
Nev ada</w>
c oc
long- term</w>
positi ons</w>
in aug
Contr ol</w>
mo tion</w>
big ger</w>
par ti
identi fy</w>
wer en</w>
w rec
S in
estim ates</w>
os ter</w>
cru cial</w>
com par
not ing</w>
pro jects</w>
k el</w>
ris ks</w>
Sar ah</w>
qu ir
Oreg on</w>
wh el
R ud
w ave</w>
l an</w>
prom in
ir ation</w>
piec es</w>
ex treme</w>
a is
en joy
per form</w>
F al
t oms</w>
be half</w>
CN N
sor t</w>
mom ents</w>
em e
hun t</w>
stand ard</w>
p ical</w>
emb ly</w>
pre scri
al th
ass ass
neighb or</w>
Connectic ut</w>
reg arding</w>
benef it</w>
ov ers</w>
pro ved</w>
bomb er</w>
iri t</w>
Win ter</w>
li ber
T ig
S tra
J obs</w>
op ing</w>
air ports</w>
bl ue</w>
m ass
g ol
der ing</w>
ar ded</w>
L et</w>
s ound</w>
de ed</w>
sh ire</w>
ic ian</w>
convic tion</w>
ab sol
part n
D o
8 .
ograph y</w>
smo ke</w>
B ir
struggl ing</w>
inn oc
demonstr ations</w>
f air
min or</w>
escap e</w>
bomb s</w>
ther e
of -
2 7
R ed
F ree</w>
prom ote</w>
sa tis
p op</w>
it a</w>
Gi b
inv ited</w>
z en
3 4</w>
Ser b
J ong</w>
E very</w>
ut es</w>
u k
bl oo
over whel
leg iti
D NA</w>
al co
I bra
as ser
gr own</w>
6 00</w>
As ked</w>
char ity</w>
L ind
m ention</w>
sh oot</w>
g er
ro ads</w>
E th
on ey</w>
L yn
R ay</w>
of fee</w>
V an</w>
restaur ant</w>
success fully</w>
J im
Sun ni</w>
El ec
V e
dis ci
mach ine</w>
shar ing</w>
Investig ators</w>
5 5</w>
Ju li
g a</w>
Laur a</w>
pos t
Soci ety</w>
z ation</w>
recogni zed</w>
al ists</w>
Lar ry</w>
pl ea</w>
grap h
mar kets</w>
C .</w>
In ter</w>
squ are</w>
astruc ture</w>
m ath</w>
clu bs</w>
deliver ed</w>
quar ter</w>
im possible</w>
neighbor ing</w>
val ues</w>
t s
not es</w>
car ds</w>
m om</w>
Y an
6- 3</w>
radi ation</w>
mo tiv
es sive</w>
de e
Th r
def ended</w>
be ar</w>
de tention</w>
ann er</w>
Camer on</w>
Qat ar</w>
li on
r ural</w>
re placed</w>
go al
Venezu ela</w>
4 9</w>
ordin ary</w>
p overty</w>
war rant</w>
quot ed</w>
is ol
sl am</w>
A y
vacc ine</w>
cor ner</w>
consist ent</w>
H igh
dah l</w>
Berg dahl</w>
end or
shor t
author ized</w>
W ell</w>
O pr
tri gg
et ings</w>
res h</w>
direc tion</w>
ac re</w>
del eg
Indi ana</w>
P y
bl ock</w>
cros sing</w>
en h
Rodrigu ez</w>
head lines</w>
O li
Y oun
heav ily</w>
im posed</w>
g ar</w>
re pl
indic ated</w>
f iscal</w>
ann el</w>
AI DS</w>
ex tra</w>
ther hood</w>
clos ely</w>
Pro ject</w>
y ang</w>
d ated</w>
t ack
mis sions</w>
entre prene
sig n
R ang
t ar</w>
nation wide</w>
dee ply</w>
b ail
cho ose</w>
Ju arez</w>
Bash ar</w>
happ ening</w>
N SA</w>
shut down</w>
f ile</w>
opport un
inter nal</w>
c ia</w>
bl ow</w>
k ley</w>
ni e</w>
gr ade</w>
resul ted</w>
Hen ry</w>
li ghts</w>
Franc is</w>
F er
A L
N EW</w>
te es</w>
eb er</w>
back ground</w>
Con stitution</w>
emis sions</w>
mp h</w>
g ain</w>
Y es</w>
fe ed</w>
cap ture</w>
v ul
an gry</w>
politic ians</w>
leg acy</w>
H ag
Ar t</w>
partis an</w>
si ght</w>
Res earch</w>
Ham ilton</w>
up set</w>
P lan
form ation</w>
Ar c
fe els</w>
is her</w>
ab and
Kev in</w>
Hol der</w>
end ment</w>
equ ality</w>
Re id</w>
m ax
Ser vices</w>
se as</w>
mil iti
N D
ing -
Brook lyn</w>
represent atives</w>
St an
bi e</w>
sw ine</w>
ar do</w>
avi ation</w>
Sing h</w>
ul ty</w>
sof tware</w>
an onym
gh tly</w>
confid ence</w>
onn a</w>
jud ges</w>
as su
F ern
Pri ze</w>
descri be</w>
Ever y
Zim bab
ad vice</w>
Am nesty</w>
b o</w>
oc king</w>
ill a</w>
w ish</w>
conc ept</w>
8 00</w>
eas ily</w>
n in
ed ged</w>
Hom eland</w>
sp ac
tor al</w>
lo an</w>
Chil dren</w>
pres ented</w>
pos ts</w>
de fic
cul tural</w>
Bi g</w>
t um
Si x</w>
pol ls</w>
ch ose</w>
requ ires</w>
quali fied</w>
peti tion</w>
um s</w>
scre ening</w>
rac ism</w>
c able</w>
recogni ze</w>
An dy</w>
tou ch</w>
Mur doc
pros p
a z</w>
r at
tic ket</w>
ceas e-
h acking</w>
gr av
plat form</w>
en i</w>
g ang</w>
Ber lin</w>
car tel</w>
Kh an</w>
sy n
ca uses</w>
is a</w>
hospit als</w>
eb all</w>
infr astructure</w>
b our
Jes us</w>
st ated</w>
Bar bar
ut ely</w>
Vi et
5 2</w>
I rish</w>
bi o
e at</w>
Bi eber</w>
S wit
F ood</w>
Author ity</w>
analy sts</w>
Portu gal</w>
Ph il</w>
Mar ia</w>
inter vention</w>
J e
li es</w>
becom es</w>
princ i
B est</w>
re ment</w>
cam er
Raf ael</w>
v ast</w>
Blo om
re su
in ho</w>
part ners</w>
consequ ences</w>
fel ony</w>
repres ent</w>
Pen n</w>
gun men</w>
e u
bas is</w>
sil es</w>
ad d</w>
D ou
trans ferred</w>
uni ons</w>
w w
en e</w>
So chi</w>
ad ds</w>
err a</w>
Ju an</w>
del ay</w>
Bec k
an ic</w>
celebr ate</w>
au ction</w>
u le</w>
jud ic
ver dict</w>
ur g
3 9</w>
up coming</w>
be st-
k able</w>
survi ved</w>
cut ting</w>
s ick</w>
4 ,000</w>
Bow l</w>
tr apped</w>
T om
In telligence</w>
viol ations</w>
advis er</w>
as ide</w>
fl ood</w>
consid er
re sident</w>
thir d-
re stor
j un
Murdoc h</w>
amm ad</w>
establ ish</w>
ast er
ric h
view ers</w>
gen ocide</w>
th western</w>
Patr ick</w>
import ance</w>
Li fe</w>
d ol
H ow
ad ing</w>
20 ,000</w>
inten se</w>
exerc ise</w>
pregn ant</w>
mis siles</w>
Re agan</w>
h a</w>
shoot ings</w>
C el
H </w>
satell ite</w>
W right</w>
conf ident</w>
Pol and</w>
sec u
collap sed</w>
tain ing</w>
ten s</w>
3 0-
acc ur
amaz ing</w>
opportun ities</w>
antic ip
wor se</w>
On ly</w>
Mat the
prosecu tion</w>
lim it</w>
spec ies</w>
sh ed</w>
pul l</w>
Haw ai
cap ac
ak i</w>
re place</w>
k i
B ru
refer red</w>
symp toms</w>
un usual</w>
gr am</w>
c e
cease- fire</w>
ran ked</w>
in struc
patr ol</w>
smo king</w>
j ew
D ru
j usti
P ow
k in</w>
Tuni sia</w>
r or</w>
In stead</w>
sing les</w>
Col lege</w>
shar k</w>
Bro therhood</w>
Cu ban</w>
199 0s</w>
al ert</w>
sk in</w>
end a</w>
exper im
S ant
o ther
H ud
g -
l ot
rec all</w>
de aling</w>
tel eph
est -
defin itely</w>
U SA</w>
friend ly</w>
ter ed</w>
expl ain</w>
g y
M erc
8 -
l us
With out</w>
bel ong
S n
B a
n ic
disci pl
W he
P A</w>
un employment</w>
mem ory</w>
al er
St and
Dev el
h its</w>
Stev ens</w>
pl us</w>
me etings</w>
Mun ich</w>
un rest</w>
attemp ts</w>
Jen ni
vul ner
sun ami</w>
Swit zer
fle w</w>
pl astic</w>
ri ous</w>
hand le</w>
Spe aking</w>
O ld</w>
des per
Lit tle</w>
fun dam
Ch i
xim ately</w>
viol ation</w>
inter viewed</w>
aff ect</w>
3 ,
forc ing</w>
inform ed</w>
high- profile</w>
pl ot</w>
Si erra</w>
k -
preced ented</w>
un precedented</w>
ap ply</w>
ath le
inter ested</w>
s at</w>
d ly</w>
div or
5 0,000</w>
v a</w>
emo tional</w>
analy sis</w>
in ing</w>
hero in</w>
D -
L ig
9 11</w>
spon sor
matt ers</w>
rac ist</w>
Switzer land</w>
S us
n ings</w>
clos ing</w>
Ti bet</w>
F oll
ig nor
teen ager</w>
Del ta</w>
Sand us
Sandus ky</w>
T ru
s kills</w>
4 6</w>
origin ally</w>
continu ing</w>
Gar cia</w>
li p
L t.</w>
ac compan
mo del
spokes person</w>
dist ance</w>
ex pos
assa ul
6 -year-old</w>
coun ty</w>
z o</w>
smar t</w>
ren ew
ne ither</w>
met al</w>
it able</w>
dr ones</w>
featur ed</w>
ch os
trag edy</w>
arri val</w>
ti s</w>
le f
dis missed</w>
th a</w>
constitu tion</w>
clos ure</w>
deci sions</w>
dro ve</w>
be ach</w>
G all
1- 0</w>
lin k</w>
The ir</w>
LO ND
LOND ON</w>
f fer</w>
c argo</w>
i ves</w>
G on
det on
om ing</w>
pos session</w>
op pos
happ ens</w>
m ud
Wal es</w>
J ason</w>
Play Station</w>
A wards</w>
twe et</w>
oc key</w>
a im</w>
rem ote</w>
air e</w>
gu id
sugg est</w>
tr ail
cl assi
P ot
ass ess
R evol
co ordin
smart phone</w>
pri or</w>
cros sed</w>
cont ained</w>
G or
del ayed</w>
Sev eral</w>
deploy ed</w>
st ations</w>
T op</w>
trou ble</w>
d ar
ed itor</w>
lit er
fiel der</w>
acc ept
br ary</w>
sig ning</w>
accu sations</w>
oper ated</w>
Bloom berg</w>
u tions</w>
alter native</w>
consid ering</w>
D ak
NC AA</w>
Ah med</w>
sex ually</w>
Ne ther
ent ation</w>
hos ts</w>
pri ority</w>
discus sed</w>
or ities</w>
Swed en</w>
mist ake</w>
teleph one</w>
sear ching</w>
Christi ans</w>
Ber lus
seven th</w>
tol er
2- 0</w>
S am</w>
Roll ing</w>
ati </w>
Pa ul
bail out</w>
wat er
enter ing</w>
con i</w>
anc ient</w>
C ent
insp iration</w>
M em
we igh
oper ate</w>
tribu te</w>
B on
sec tor</w>
Nether lands</w>
sh oul
Rog ers</w>
se in</w>
teamm ate</w>
li min
clear ed</w>
st ro
k us
stre am</w>
thr ow</w>
sup posed</w>
y es</w>
J .</w>
Berlus coni</w>
exp an
qu es</w>
Abd ullah</w>
view ing</w>
m enti
ali zing</w>
ati s
com preh
emerg ing</w>
if y</w>
cl ash</w>
crimin als</w>
Ed ward</w>
tru ly</w>
R y
arre n</w>
Palestin ians</w>
nomin ation</w>
Jenni fer</w>
princ ipal</w>
corpor ate</w>
vol ta</w>
Gir l</w>
C BS</w>
L y
f resh</w>
6- 2</w>
c ep
Gol den</w>
par </w>
n ur
T ot
Tra volta</w>
S ov
har m</w>
st em</w>
stu dies</w>
n one</w>
Pre sid
C ann
divi sion</w>
s k</w>
oc ks</w>
di am
prob ation</w>
4 1</w>
b ac
rup t</w>
execu tion</w>
An ton
foll owers</w>
ti oned</w>
Net work</w>
O mar</w>
Por t-
Por t
religi on</w>
L ove</w>
cha ir</w>
199 8</w>
tr ained</w>
Ad ams</w>
bo ost</w>
lu x
re signed</w>
R w
sh ock</w>
j ets</w>
specific ally</w>
du </w>
He z
discrimin ation</w>
Li u</w>
A w
mov es</w>
compe te</w>
trou bled</w>
bur n</w>
main tain</w>
199 4</w>
oppon ents</w>
regul ations</w>
saf ely</w>
O P
ext end</w>
dis appeared</w>
Man ning</w>
k ick</w>
am in</w>
k ic
cont am
let ters</w>
Mc Il
ly -
Cha irman</w>
Thom p
f ishing</w>
au -
pl enty</w>
T ai
st aff
batt ling</w>
un ve
tr o</w>
re forms</w>
col li
5 .
d ark</w>
refug ee</w>
V en
Lead er</w>
spec tac
in t</w>
birth day</w>
Thomp son</w>
Nic ol
promin ent</w>
organiz ers</w>
pain ting</w>
notic ed</w>
ar i
McIl roy</w>
w age</w>
initi ative</w>
Mar athon</w>
ob ile</w>
V et
dispu ted</w>
de struction</w>
s mu
il a</w>
F if
T oy
dis appearance</w>
ch ell</w>
Prosecut ors</w>
bur ned</w>
l au
sa v
lim its</w>
ann e</w>
bol lah</w>
9 9</w>
it z</w>
gr at
pos ting</w>
expl or
C an</w>
net t</w>
dedic ated</w>
i ble</w>
bu c
dis placed</w>
si vely</w>
kill er</w>
9 5</w>
J r</w>
Pan etta</w>
bre aks</w>
B order</w>
tur ns</w>
ol ds</w>
impres sive</w>
sti mul
har ass
us tic
el li</w>
id den</w>
Y our</w>
coc aine</w>
as yl
ev al
appoin tment</w>
atri ot</w>
O l
travel ers</w>
mar athon</w>
land slide</w>
on ally</w>
En ergy</w>
bo ats</w>
tou gh
Su arez</w>
3 ,000</w>
h att
Man hatt
appro ached</w>
th ro
Wat son</w>
capac ity</w>
Mit chell</w>
s or</w>
transi tion</w>
st an</w>
e ating</w>
settl ement</w>
Te am</w>
ab ilities</w>
med ic
Carl os</w>
sub si
el le</w>
Ver izon</w>
tran sport</w>
por ted</w>
Min nes
Ph o
Swed ish</w>
h ar</w>
dem ands</w>
C z
m all</w>
chos en</w>
collap se</w>
for d
att end
produc ers</w>
or m
L un
v is</w>
j ur
Tha i</w>
sun g</w>
M ul
ay -
mi x
T erry</w>
push ing</w>
sust ain
fin dings</w>
le aves</w>
T im</w>
ha i</w>
gener ally</w>
Comm on</w>
class es</w>
Ber ry</w>
loc ations</w>
a wards</w>
f oundation</w>
ustic es</w>
su ing</w>
Hez bollah</w>
on ia</w>
gre es</w>
pro of</w>
Hawai i</w>
et te</w>
De puty</w>
mos que</w>
M oun
La w</w>
goal keeper</w>
C at
Ch ile</w>
ful l-
d ress</w>
S ports</w>
r on
asyl um</w>
t sunami</w>
ush ed</w>
mid fielder</w>
sched ule</w>
dr inking</w>
conv inc
g ained</w>
oc ean</w>
compu ters</w>
offic es</w>
struggl ed</w>
Offic er</w>
F und</w>
hal t</w>
1 st</w>
Th ir
sugg ests</w>
B il
r h
Minnes ota</w>
ex ist</w>
In stag
ow ly</w>
fortun ately</w>
ir a</w>
bo arding</w>
new ly</w>
din ner</w>
docum entary</w>
St ar
g ap</w>
hun ger</w>
ear n</w>
dri ven</w>
St or
K in
k eting</w>
Vet tel</w>
sp ring</w>
h itting</w>
F estival</w>
eme tery</w>
col um
d ry</w>
ussi ons</w>
Instag ram</w>
5 1</w>
awar ded</w>
S au
Re gi
do ors</w>
competi tive</w>
g ation</w>
distribu tion</w>
evacu ated</w>
hor ri
vi sible</w>
limin ary</w>
M ol
hand ling</w>
a ide</w>
strong er</w>
it ch
re sig
res ort</w>
war ran
A th
alco hol</w>
il s</w>
br ings</w>
Gl obal</w>
announc ing</w>
Coll ins</w>
Manhatt an</w>
gi ous</w>
and e</w>
pun ishment</w>
P el
199 2</w>
do gs</w>
K at
Comm un
Spec ial</w>
psy ch
Iv ory</w>
ti m
198 0s</w>
ph ere</w>
co ast
mp tion</w>
appro ximately</w>
o ks</w>
A z
roll ed</w>
on able</w>
Gol d
el ines</w>
e ge</w>
as p
Ar e</w>
H off
Pr inc
them e</w>
cl es</w>
bl og
X box</w>
War ner</w>
dic tion</w>
ei gh
bru tal</w>
bal ance</w>
pro per</w>
lear ning</w>
a ult</w>
L ab
institu tions</w>
repe ated</w>
R I
requ ests</w>
ion ships</w>
blaz e</w>
Ed wards</w>
bur ning</w>
in et</w>
monit oring</w>
rol es</w>
val u
strong ly</w>
G ary</w>
el -
ag a</w>
down town</w>
Chen ey</w>
F el
ent -
exc ited</w>
augh ter</w>
alli ed</w>
camer as</w>
add ressed</w>
audi o</w>
deli ber
en i
open ly</w>
camp s</w>
chec ks</w>
celebr ity</w>
un known</w>
u n</w>
bor ders</w>
swi m
u al
H amp
prepar ing</w>
Devel op
represent ing</w>
e ers</w>
app er</w>
es sions</w>
volcan o</w>
s el</w>
vi g
O ut
carri er</w>
P es
rescu ed</w>
Jon athan</w>
ill u
the tic</w>
E st
Zimbab we</w>
hos ted</w>
Vill a</w>
Sch um
lin ks</w>
in er</w>
Car ter</w>
to x
lic ense</w>
oppon ent</w>
prin t</w>
separ ati
mem orial</w>
clo th
E cu
c ells</w>
no -
R ick</w>
Dis ney</w>
Ri ver
sh ore</w>
b ail</w>
a wi</w>
Fern ando</w>
B T</w>
Barbar a</w>
w ine</w>
Wh ere</w>
Port- au-
Port-au- Prince</w>
provinc ial</w>
trans plant</w>
iti ve</w>
H ob
p are</w>
exc ept</w>
expl ains</w>
p acked</w>
Py ong
enc ia</w>
b ene
dev a
L G
S oc
Al an</w>
U E
tr acks</w>
absol utely</w>
su n</w>
cou p</w>
W el
expos ure</w>
recogni tion</w>
tit ude</w>
p it</w>
form al</w>
â </w>
al ities</w>
fall en</w>
discus sion</w>
sensi tive</w>
car to
Le g
T ech
Pyong yang</w>
r ated</w>
tax es</w>
H ood</w>
ish es</w>
ap ed</w>
c ope</w>
h am
Arc tic</w>
T ah
Rog er</w>
r d</w>
I l</w>
l ay</w>
r am
At le
plan et</w>
por ter</w>
Yem eni</w>
enter tainment</w>
Hud son</w>
att acking</w>
Belgi um</w>
non profit</w>
deva stating</w>
aff airs</w>
r om
bus y</w>
Shi ite</w>
fl ow</w>
el sewhere</w>
sp irit</w>
Ken yan</w>
Rob inson</w>
prot ecting</w>
stor ms</w>
ul ture</w>
shi ft</w>
c offee</w>
sup er</w>
hospit alized</w>
experi ences</w>
quir y</w>
hous ing</w>
re ha
es cal
en s
Sh ang
Pe ace</w>
W ol
dic t
Rad io</w>
predic ted</w>
m our
Af f
the aters</w>
lif ted</w>
A k
mo thers</w>
at em
ic als</w>
proced ures</w>
le ton</w>
Tibet an</w>
es burg</w>
tis m</w>
G et
be gun</w>
con nec
K ah
noti ce</w>
A F</w>
199 5</w>
wh atever</w>
tre es</w>
Isl ands</w>
ev a</w>
W all
tel s</w>
gu ests</w>
In c</w>
il legally</w>
wh ale</w>
199 6</w>
level and</w>
AT P</w>
S av
au top
it age</w>
nor theast</w>
sh oes</w>
C leveland</w>
Me yers</w>
stu di
ap y</w>
d res
a un
S ean</w>
con st
t ape</w>
host ages</w>
cas ual
j an</w>
Joh ann
pre liminary</w>
scen es</w>
struc ture</w>
Bri dge</w>
tic o</w>
St adium</w>
F e
lux ury</w>
E astern</w>
Cam bo
vot er</w>
tempor ary</w>
et t</w>
ef fic
premi ere</w>
Vic toria</w>
ed es</w>
tal ent</w>
hal f
f ear
p apers</w>
pre pare</w>
cloth es</w>
v ard</w>
l en</w>
ou tr
de als</w>
comm it</w>
S ain
class ic</w>
197 0s</w>
gg ed</w>
pra ised</w>
i kh</w>
per mission</w>
suspic ion</w>
penal ties</w>
bri ef</w>
Th ank</w>
tic kets</w>
bour ne</w>
exclu sive</w>
eff ectively</w>
rem emb
neighb ors</w>
seas ons</w>
assa ge</w>
pack age</w>
Bl ue</w>
Gu atem
domin ated</w>
discover y</w>
prohi b
ad y</w>
k ni
n am</w>
Avi ation</w>
ti er</w>
com e
H av
typ ical</w>
Nic hol
er e
con clu
sen ator</w>
youn gest</w>
repres ented</w>
t m
Beck ham</w>
Ster ling</w>
rap ed</w>
d ur
T on
obvi ous</w>
c ock
R ow
pal ace</w>
nomin ated</w>
high way</w>
av al</w>
an ting</w>
recomm ended</w>
foll ows</w>
199 7</w>
comm and
cont acted</w>
top -
anim al</w>
spl it</w>
ak ers</w>
be an</w>
Au stri
tou rism</w>
Youn g</w>
Pr of
kidn apped</w>
id ly</w>
Matthe w</w>
Kar zai</w>
2 n
or ic</w>
co de</w>
gath ering</w>
g by</w>
re p
re gre
Hus sein</w>
H ist
under ground</w>
B ab
electr icity</w>
R us
eas ier</w>
Sam sung</w>
Fre edom</w>
mar t</w>
p -
Atle tico</w>
int ent</w>
democr atic</w>
man n</w>
ni val</w>
Bro oks</w>
nor thwest</w>
Ug anda</w>
6 7</w>
Ob serv
c oo
s wit
swe pt</w>
keep ers</w>
tro pical</w>
Philli ps</w>
en sion</w>
E duc
Steph en</w>
a x</w>
won der
ic on</w>
od d</w>
K er
foot age</w>
j a</w>
popul arity</w>
awar eness</w>
zer o</w>
ac compl
sou thwest</w>
Nicol as</w>
st uck</w>
su ed</w>
forec ast</w>
ex posed</w>
u tionary</w>
host age</w>
Be y
Mem orial</w>
199 0</w>
Toy ota</w>
par ent</w>
iti me</w>
perc ent
em ph
loy d</w>
L loyd</w>
7 2</w>
Sal v
fat al</w>
appl ication</w>
Mat t</w>
ta g</w>
L am
des c
des ire</w>
regi ons</w>
mon th
B et
par king</w>
For est</w>
sym bol
twee ts</w>
Ar k
c ig
temper atures</w>
o zone</w>
partn ership</w>
Gon z
I M
O K</w>
5 4</w>
Re present
commun ication</w>
bl ocked</w>
T est</w>
n el</w>
Moh amed</w>
over seas</w>
gi an</w>
Per u</w>
photograp her</w>
ag enda</w>
ap preci
practic es</w>
as er</w>
pre sti
adv ance</w>
Fam ily</w>
S hel
ess ential</w>
ve get
loc ked</w>
Venezu el
nomin ee</w>
ell o</w>
Aff airs</w>
Pen insula</w>
T ro
pit ch</w>
f ant
dr ed</w>
tech ni
ji ha
attemp ting</w>
ounc ed</w>
sh opping</w>
mus ical</w>
exp and</w>
model s</w>
1. 5</w>
ob j
fre e
st ability</w>
Mar sh
re ference</w>
C ook</w>
en o</w>
- and-
requ i
ecti ves</w>
spot ted</w>
T al
Johann esburg</w>
achi eve</w>
P as
imag ine</w>
qu i
insurg ents</w>
er ies</w>
repor ter</w>
cont ain
defe ated</w>
as ks</w>
C i
en try</w>
Sud anese</w>
a a</w>
s over
ab il
suppor ts</w>
sist ant</w>
v owed</w>
det ailed</w>
6- 4</w>
Sov iet</w>
Shang hai</w>
inter views</w>
ch ap
Mc Con
assess ment</w>
r ose</w>
erup ted</w>
touri st</w>
I II</w>
S ome
st ock</w>
de grees</w>
el ite</w>
ed ing</w>
em a</w>
K hal
ad equ
un its</w>
Sul li
B la
Doc tors</w>
en joy</w>
8 7</w>
Prot ection</w>
Serb ia</w>
9 -
as ion</w>
re alized</w>
Com p
viol ated</w>
resig nation</w>
F RE
adop ted</w>
subur b</w>
tempor arily</w>
Or </w>
wel com
rh et
Mos ul</w>
v it
A NG
out come</w>
g ang
Mah m
trag ic</w>
4 0,000</w>
inter net</w>
P o
we b</w>
San tos</w>
c ro
nur se</w>
strateg ic</w>
fl ames</w>
di al
nov el</w>
re venue</w>
m arg
at ter</w>
Sulli van</w>
c at</w>
S wi
com mon
met e
Per haps</w>
@ </w>
extrem ists</w>
execu tives</w>
W o
R -
dr illing</w>
Ark ansas</w>
Pe ter
9 -year-old</w>
aw n</w>
an ian</w>
ko zy</w>
h ackers</w>
reser ved</w>
Pre vention</w>
M our
r aft</w>
W ayne</w>
. C.</w>
rob ot</w>
A B
cor respon
Sar kozy</w>
tr au
Develop ment</w>
I d
welcom ed</w>
inspec tors</w>
m ir
N Y
cy cle</w>
rob ots</w>
T ry</w>
Jen kins</w>
ip e</w>
recomm end
K no
col or</w>
dev ast
n ice</w>
ap art</w>
wor ried</w>
te a</w>
legiti mate</w>
Ar ch
B ad
I O
h anna</w>
ati n</w>
au t
amm ar</w>
Ri hanna</w>
sust ained</w>
Elec tr
ha dn</w>
te ens</w>
bre a
K night</w>
requ ested</w>
wil d</w>
tr ac
shel ter</w>
ce iling</w>
conserv atives</w>
r it
so il</w>
smu ggl
el ig
him a</w>
Cro ati
Hamp shire</w>
robber y</w>
ent ally</w>
Car nival</w>
2n d</w>
ic ted</w>
Christ op
hot els</w>
Sec ond</w>
trans l
ast ed</w>
8 5</w>
Tig er</w>
LG BT</w>
remar kable</w>
con struc
p atter
st ayed</w>
techn ical</w>
5 6</w>
Lig a</w>
A si
fail ing</w>
C li
extrem ist</w>
Dru g</w>
bab ies</w>
innoc ent</w>
pl edged</w>
l ay
bul lying</w>
oper ator</w>
equ al</w>
L ong</w>
J oint</w>
tran sportation</w>
S P
coun sel
ac res</w>
i g</w>
k in
torn ad
compreh ensive</w>
ro ots</w>
ti st</w>
ou ghts</w>
un less</w>
St even</w>
Schum acher</w>
C C</w>
in k
V ol
Feder ation</w>
comm and</w>
D et
trium ph</w>
perform ing</w>
Venezuel an</w>
est er
H an
beg ins</w>
all ing</w>
R and
7 00</w>
it ol</w>
eng er</w>
f eder
gun man</w>
industri al</w>
D an</w>
O sa
ar io</w>
im ir</w>
Mus ic</w>
en berg</w>
Foll owing</w>
d in</w>
curr ency</w>
inj uring</w>
por tion</w>
abduc ted</w>
Bal d
lad imir</w>
amb iti
det ail</w>
concer t</w>
fin ed</w>
descri bes</w>
Vi ol
t ent</w>
rad ical</w>
j ustices</w>
en emy</w>
t y-
kn owing</w>
bac ter
P le
ass an</w>
el im
Sy d
mar ine</w>
M en</w>
i vi
Spe aker</w>
gl ass</w>
bloo dy</w>
Pol itic
in stein</w>
e- m
om a</w>
ford able</w>
AR C</w>
perman ent</w>
Sur vey</w>
encour age</w>
ar ing</w>
administr ative</w>
Sim on</w>
- in</w>
re vi
du m</w>
it ar</w>
acc o</w>
6- 1</w>
She ikh</w>
UE FA</w>
FRE E</w>
car tels</w>
associ ate</w>
N ight</w>
G in
fre y</w>
C in
thu si
O s
6 8</w>
Dak ota</w>
particip ate</w>
m ic
eb </w>
star ts</w>
cre ws</w>
fil ing</w>
bro ad</w>
Hay es</w>
advertis ing</w>
min al</w>
ha z
percent age</w>
U r
survi ve</w>
sec ured</w>
h enko</w>
I r
A T</w>
cl er
McCar thy</w>
Bro ad
ig ned</w>
accompan ied</w>
sym b
ag ric
enti rely</w>
g est
Par liam
presti gious</w>
bl ack
menti oned</w>
co operation</w>
ti li
ro of</w>
peace keepers</w>
h ired</w>
tou ched</w>
£ </w>
semi -
secu tive</w>
Bald win</w>
int enti
H y
Bun des
over night</w>
Democr at</w>
con secutive</w>
pol itan</w>
R IS
tur ing</w>
ut ri
cap able</w>
or ds</w>
ro ad
la id</w>
el ect</w>
d at
un k</w>
moun tain</w>
ar y-
own ership</w>
Bul ger</w>
sh ape</w>
refer ee</w>
we ak
R oll</w>
or a</w>
Mer kel</w>
wonder ful</w>
thre w</w>
X i</w>
Kah n</w>
Gre g</w>
avi </w>
H inc
fl u
Wi ki
Mahm oud</w>
S imp
innov ation</w>
ing u
1 20</w>
fun c
S ab
re- election</w>
Di ana</w>
volunte ers</w>
complain ts</w>
inf ection</w>
ann ounce</w>
Parliam ent</w>
compl ained</w>
inf ections</w>
to ol</w>
gall ery</w>
n avi
Cri sti
broad c
j </w>
to ols</w>
aw a</w>
inter esting</w>
o be</w>
s ac
doll ar</w>
S lo
Seb as
V ladimir</w>
th oughts</w>
observ ers</w>
cr own</w>
associ ation</w>
f ts</w>
v on</w>
N u
sh r
Stra us
ali zation</w>
Sel ma</w>
Cap e</w>
achiev ed</w>
beau ty</w>
arri ving</w>
rel ative</w>
ri ding</w>
mem ories</w>
coll abor
classi fied</w>
d am</w>
Air ways</w>
sec re
commis sioner</w>
roc kets</w>
Bul l</w>
d d
eni x</w>
c atch</w>
B at
Le on
th al</w>
w aves</w>
jur ors</w>
restric tions</w>
tak e
t ant</w>
3 0,000</w>
Fr on
qu ez</w>
consu mer</w>
Ph ot
y our
leg end</w>
enjoy ed</w>
tic ally</w>
P D</w>
ur ban</w>
semi final</w>
mem or
batter y</w>
H ER
ann y</w>
there fore</w>
run way</w>
OR K</w>
R ay
fe wer</w>
R ose</w>
L au
tornad oes</w>
D omin
en thusi
dec line</w>
spectac ular</w>
str anded</w>
st amp
Y ORK</w>
every body</w>
w aste</w>
hol es</w>
t z</w>
de -
in stru
p ages</w>
Bundes lig
Bundeslig a</w>
pur pose</w>
ex press</w>
Ben j
sh ouldn</w>
rout ine</w>
il li
Naz i</w>
y right</w>
P et
Ar med</w>
Bal ti
0 th</w>
advoc ates</w>
subst anti
Dor tm
Pro gram</w>
ag ged</w>
K im
How ard</w>
P E
pur sue</w>
em pl
Hispan ic</w>
Dortm und</w>
ir ts</w>
Q </w>
tiv ity</w>
it z
ang ed</w>
fr anch
Em irates</w>
st ages</w>
att ending</w>
sent encing</w>
life -
t led</w>
V ide
min imum</w>
Cz ech</w>
appl ied</w>
Le one</w>
S l
sc ru
max imum</w>
br is</w>
sli ghtly</w>
cr ack
od ds</w>
tow ns</w>
tran spar
quali fying</w>
pl ain
vulner able</w>
M umb
N early</w>
Soc ial</w>
fire fighters</w>
won der</w>
ri ght-
ple ased</w>
M en
Merc edes</w>
Hoff man</w>
dest ination</w>
tr ail</w>
g ment</w>
inter ior</w>
O x
O h</w>
mid night</w>
nor theastern</w>
LE S</w>
O range</w>
Comm and</w>
J </w>
ph arm
comm od
end ary</w>
lead s</w>
D er
Mour inho</w>
K al
tit led</w>
rat ings</w>
5 7</w>
th ri
E ach</w>
Hag el</w>
gr ave</w>
p our
Jim my</w>
desig ner</w>
Ex ecu
t ree</w>
M obile</w>
Jan e</w>
rec ording</w>
pri mar
appear ances</w>
ten ham</w>
Balti more</w>
Ibra him</w>
Gu in
Cu st
C ra
y ards</w>
ob i</w>
cont ain</w>
Observ atory</w>
symb ol</w>
bil ities</w>
o ds</w>
p ack</w>
iRe port</w>
4 th</w>
Col .</w>
ph ase</w>
lo ad</w>
il es</w>
ab s
os ex
Straus s-
et own</w>
River a</w>
ch ur
manufactur er</w>
in ary</w>
B O</w>
ti ps</w>
purch ase</w>
fin ds</w>
pro gres
parliam entary</w>
B ell</w>
til ity</w>
smart phones</w>
eli us</w>
ex tr
f o
Strauss- Kahn</w>
ar ch</w>
D ri
E sp
increas es</w>
h ani</w>
in ti
ha ble</w>
N is
th ank</w>
Jack ie</w>
other wise</w>
pas sion</w>
yl an</w>
em e</w>
celebr ated</w>
cast ing</w>
ul tural</w>
HER E</w>
Mali ki</w>
Benj amin</w>
er berg</w>
a bet
off -
CL IC
CLIC K</w>
Kath erine</w>
li ght
electr ic</w>
4 ,
de bris</w>
Bar ry</w>
Tai wan</w>
per spec
Man agement</w>
the ft</w>
K n
for est</w>
C ancer</w>
8 -year-old</w>
P res
6 ,000</w>
ven ues</w>
C all</w>
Patr ol</w>
O ri
bur gh</w>
C ou
exp ects</w>
war ming</w>
li b
Pho enix</w>
emph as
cir cuit</w>
N apol
in os</w>
3 rd</w>
gu ide</w>
re alize</w>
mand atory</w>
ran ks</w>
Cas ey</w>
P at
s now
incredi ble</w>
poll ution</w>
m outh</w>
F ur
ic onic</w>
de ep
ex tra
se aled</w>
ib bean</w>
Anton io</w>
Di vision</w>
Malay sian</w>
B o</w>
prop ag
investig ated</w>
R aj
Al ger
M eg
evac uation</w>
sha d
Cap itol</w>
el ements</w>
ti ght</w>
ei th</w>
Brad ley</w>
G un
6 2</w>
your self</w>
cou ts</w>
S couts</w>
y ard</w>
anti- government</w>
b es
Has an</w>
C av
cli ents</w>
scor es</w>
vis its</w>
fin ance</w>
W a
Sus an</w>
au ght</w>
cer ti
far m</w>
A L</w>
assi st</w>
eur ozone</w>
depres sion</w>
Rw anda</w>
in ch</w>
6 4</w>
arri ve</w>
P helps</w>
susp ension</w>
signific antly</w>
Car ibbean</w>
Sci ence</w>
Mar i
Rang ers</w>
D F</w>
h o
conc entr
Represent atives</w>
fi x</w>
w are</w>
H ann
Har vey</w>
f ed</w>
co al</w>
196 0s</w>
A .</w>
ogi es</w>
meas les</w>
sa il
var iety</w>
L isa</w>
estim ate</w>
Viet nam</w>
pro be</w>
prom ises</w>
draw ing</w>
i op
Z uck
fi es</w>
ar -
F ARC</w>
W ag
off ense</w>
prot ected</w>
Educ ation</w>
encour aged</w>
exp ect
shir t</w>
en orm
Ch ap
defic it</w>
wor n</w>
si on
il i
bas eball</w>
contr actor</w>
frequ ently</w>
deton ated</w>
P ew</w>
V o
main ly</w>
Cal der
per su
reg ard</w>
atis tics</w>
P oll
fu sion</w>
a er
M TV</w>
assass ination</w>
su ffer</w>
urric ulum</w>
ei ved</w>
challeng ed</w>
r ating</w>
B ot
ab road</w>
Ser ena</w>
um ents</w>
Den ver</w>
enn y</w>
E LES</w>
tack le</w>
ab les</w>
i ao</w>
pl ed</w>
C urriculum</w>
d or
e tic</w>
lib eral</w>
Mumb ai</w>
cont ext</w>
rain s</w>
onom ous</w>
shar es</w>
h idden</w>
J ean</w>
Zuck erberg</w>
J ay</w>
we ak</w>
mass acre</w>
r amp
citi zen
s ounds</w>
spor ted</w>
Mc Donald</w>
M etro
tion ally</w>
streng th</w>
1- 1</w>
Gre en
ANG ELES</w>
me a</w>
li est</w>
LO S</w>
ic ians</w>
McCon nell</w>
resul ting</w>
Wil d
el ry</w>
ti le</w>
ul ated</w>
Val encia</w>
Sw iss</w>
ch at</w>
argu ment</w>
Kno x</w>
p ers</w>
Bre wer</w>
impro ved</w>
Ch en</w>
b ers</w>
adm its</w>
spot light</w>
im er</w>
interrog ation</w>
N ancy</w>
har d-
G olf</w>
spec ulation</w>
dial ogue</w>
am oun
ach i</w>
refl ect</w>
mar keting</w>
i ya</w>
tab let</w>
b bed</w>
L atin</w>
distribu ted</w>
rout es</w>
repe al</w>
reve al</w>
depar ture</w>
Christop her</w>
N air
conduc ting</w>
pray ers</w>
demonstr ate</w>
Un like</w>
aggres sive</w>
p e</w>
lo aded</w>
Con serv
aim s</w>
Tran s
L e</w>
C ore</w>
politic ian</w>
L ocal</w>
vac ation</w>
az z
au tism</w>
1 2-
tor ies</w>
dro pping</w>
thr owing</w>
C urr
fac tors</w>
boy friend</w>
en sur
yp e</w>
pe di
Tra vel</w>
fundam ental</w>
li ft</w>
questi oning</w>
Bey once</w>
typ es</w>
lik es</w>
anti bio
Pal ace</w>
c us</w>
autop sy</w>
cy ber
st ance</w>
retur ns</w>
cha in</w>
Tot tenham</w>
me anwhile</w>
resid ence</w>
M ount</w>
L and
p ending</w>
Vide o</w>
jum ped</w>
c overs</w>
ban k
T uc
vis a</w>
K ri
obvi ously</w>
gi e</w>
3- 1</w>
ak a</w>
E con
comb ination</w>
Fri ed
restaur ants</w>
P ear
mos phere</w>
exhi bition</w>
Per ez</w>
gi o</w>
p assage</w>
ri ties</w>
expan sion</w>
Mar io</w>
rele v
Lu is</w>
teen age</w>
C had</w>
dis pat
d ay
Jam a
de pl
divor ce</w>
wat ch
a fr
B au
Tran script</w>
Whe ther</w>
Hinc kley</w>
diplom at</w>
bomb ers</w>
Mo ammar</w>
un cle</w>
t ail</w>
kic ked</w>
co- founder</w>
pow ered</w>
a w</w>
contr ast</w>
kus hima</w>
Fu kushima</w>
Her oes</w>
Execu tive</w>
b ow
ed -
re ver
D eb
Rou hani</w>
du ties</w>
l oyal</w>
pho on</w>
li sts</w>
Syd ney</w>
t ank</w>
stor age</w>
arg ue</w>
e ous</w>
m un
Bar ca</w>
mem o</w>
I T
Har vard</w>
ay a</w>
h an</w>
hun dred</w>
ic it</w>
ir s</w>
ol ogies</w>
Un der
f ers</w>
str ing</w>
fac tor</w>
RIS K</w>
prescri ption</w>
Me dia</w>
tr end</w>
ti mis
harass ment</w>
U p
batt led</w>
it ch</w>
inter im</w>
C a
ed e</w>
rum ors</w>
Nair obi</w>
pe tr
accept able</w>
abet es</w>
seven -
surr ounded</w>
St at
Val ent
Liber ty</w>
re sign</w>
b ad
at ern
or al</w>
sw ing</w>
H eb
tu ition</w>
C O
N O
cap </w>
on el</w>
Econ om
Nov ak</w>
Tor res</w>
du m
regul arly</w>
after math</w>
ep id
any where</w>
conn ect</w>
disc ussions</w>
Osa ma</w>
7- 6</w>
- led</w>
Mis s</w>
n es</w>
ac tual</w>
main tained</w>
fast -
ac o</w>
contam inated</w>
Z h
hear t
C ob
elec toral</w>
K eith</w>
man ned</w>
St ri
pri sing</w>
Gr ay</w>
por tr
don ated</w>
manufactur ing</w>
Mont ana</w>
D ylan</w>
photograph s</w>
Stand ards</w>
Man uel</w>
contr ols</w>
J r.</w>
b age</w>
Sou thwest</w>
bu ying</w>
provinc es</w>
Eth iop
indic ted</w>
explos ive</w>
casual ties</w>
in ks</w>
ic y</w>
J on</w>
F ab
read s</w>
5 -year-old</w>
p ed
d oping</w>
I ts</w>
H assan</w>
ra il
im pose</w>
c ra
promot ing</w>
k m</w>
Dam asc
op timis
bi o</w>
mil k</w>
ad ap
replac ement</w>
Jer ry</w>
immigr ant</w>
Y ah
tran sported</w>
199 3</w>
P os
extra ordinary</w>
ar ia</w>
Oper ation</w>
id al</w>
witn essed</w>
an x
Hu gh
coast al</w>
e i</w>
suspic ious</w>
scienti fic</w>
pu m
tr ains</w>
ec lip
qu est</w>
gr en
v oc
nec k</w>
crack down</w>
rel ess</w>
acc using</w>
shi p
ex emp
subsequ ent</w>
judic ial</w>
proceed ings</w>
del ays</w>
sa ved</w>
Pe ti
Gor don</w>
propag anda</w>
clo thing</w>
coll ected</w>
Ve ter
L aw
laun ching</w>
ot ing</w>
moder ate</w>
O w
reduc ed</w>
defend ants</w>
featur ing</w>
198 6</w>
migr ation</w>
il it
Th ousands</w>
Damasc us</w>
v ital</w>
manag ing</w>
Cri mea</w>
Comp any</w>
o z</w>
some body</w>
ob lig
ack er</w>
explos ives</w>
m ech
mi x</w>
Wal sh</w>
Gonz al
As sistance</w>
T -
ick en</w>
sol ve</w>
ri st</w>
succ eed</w>
person ally</w>
coun t
list en</w>
Tech n
leg s</w>
s its</w>
jew elry</w>
c ell
inc or
don ors</w>
M et
ick y</w>
uc ks</w>
l uck</w>
Fel ipe</w>
9 th</w>
or d</w>
att ackers</w>
ra f</w>
hon ored</w>
W on
9 3</w>
out lets</w>
lab eled</w>
ran king</w>
F all
B oo
N ative</w>
auth ors</w>
hi ri</w>
remov al</w>
iev </w>
w a</w>
distr icts</w>
lat ter</w>
olog ists</w>
promp ting</w>
reduc tion</w>
franch ise</w>
an ie</w>
Scot tish</w>
Cath erine</w>
st a</w>
lion aire</w>
T ech</w>
Swi ft</w>
life time</w>
elig ible</w>
k h
militi a</w>
sub way</w>
com ic</w>
3 70</w>
reduc ing</w>
v ity</w>
hab i</w>
rest ore</w>
Mov ement</w>
rap idly</w>
198 9</w>
l ucky</w>
rec alls</w>
refer en
Cab inet</w>
gr abbed</w>
Cam bridge</w>
j e
D ick</w>
Mel bourne</w>
perspec tive</w>
b ian</w>
min ing</w>
answ ers</w>
L ank
McL aren</w>
fre ed</w>
Holl ande</w>
compe ting</w>
L ater</w>
b or</w>
T C</w>
dem anded</w>
est yle</w>
diplom ats</w>
conf essed</w>
dr ought</w>
aj </w>
Hu go</w>
199 1</w>
referen dum</w>
min ers</w>
E le
eng in
She en</w>
3- 0</w>
ap ova</w>
war m</w>
fi erce</w>
min orities</w>
challeng ing</w>
batt le
O t
tot ally</w>
qu it</w>
acc id
Sand ra</w>
t one</w>
fast est</w>
execu ted</w>
sh ocked</w>
i ding</w>
W H
produc tive</w>
T own</w>
occ ur</w>
L im
du bbed</w>
co ol</w>
Mar tin
stro ke</w>
dec re
K o
H all
con voy</w>
sol id</w>
hom eless</w>
inf ected</w>
Meh su
n esses</w>
d ying</w>
amb er</w>
f ur</w>
ha ul</w>
ob jects</w>
We ek</w>
t ex
Dis ease</w>
stu ff</w>
pur poses</w>
k ings</w>
multi -
photograph y</w>
Mor sy</w>
th us</w>
ord ination</w>
p ot</w>
sl aughter</w>
od es</w>
ast ro
Shar apova</w>
7 ,000</w>
b acking</w>
mar ch</w>
rhet oric</w>
trigg ered</w>
rele asing</w>
pay ments</w>
divi ded</w>
dis order</w>
Mor ales</w>
ch annel</w>
Calder on</w>
wor e</w>
Bru ce</w>
Pro v
7 7</w>
st aying</w>
o id</w>
S U
see ks</w>
Wind ows</w>
den ly</w>
P on
r ounds</w>
b ell</w>
nation ally</w>
sugg esting</w>
recover ing</w>
ur an
di ver
hand led</w>
ri al</w>
bacter ia</w>
addres sing</w>
Camer oon</w>
swim ming</w>
h oods</w>
mur ders</w>
sh e
expect ations</w>
Am endment</w>
Le on</w>
cover ing</w>
Ass embly</w>
pos s
sen ators</w>
guaran tee</w>
low est</w>
re sistance</w>
cap it
ast ing</w>
vess els</w>
Lad y</w>
Cent ers</w>
os s
W ars</w>
er ge</w>
f fi
F P</w>
he imer</w>
ass es</w>
Sch war
abs ence</w>
h all</w>
uran ium</w>
e- up</w>
an ked</w>
wh ales</w>
sing ing</w>
alli ance</w>
lo ans</w>
restor ed</w>
Rus sell</w>
Ric hard
Richard son</w>
versi ties</w>
shi pping</w>
as -
atern ity</w>
6 6</w>
post p
custom er</w>
appl ications</w>
fin ale</w>
pu ties</w>
k ne
public ation</w>
200 ,000</w>
fun ded</w>
Leb anese</w>
H u</w>
bran ch</w>
ei ght-
appro ve</w>
Ecu ador</w>
Qu e
D onn
at mosphere</w>
ru gby</w>
Spr ing</w>
busin ess
Egyp ti
O M
deci ding</w>
T en
Mehsu d</w>
min im
in deed</w>
S em
val ent</w>
sponsor ed</w>
stret ch</w>
En viron
dis t</w>
insi sts</w>
Z awa
ment -
H ear
employ ed</w>
arch it
e on</w>
sil ver</w>
crow ds</w>
sustain able</w>
typ ically</w>
rap ing</w>
advoc ate</w>
chil d
ha w
f ame</w>
con ven
amp a</w>
r anging</w>
fa il</w>
ser ves</w>
lin er</w>
categ ory</w>
W olf</w>
err or</w>
Zawa hiri</w>
hear ts</w>
te aching</w>
fr ac
certain ty</w>
e iro</w>
com eb
inv asion</w>
ac le</w>
outr age</w>
war nings</w>
enorm ous</w>
citizen ship</w>
contr actors</w>
sl owly</w>
public ist</w>
is sa</w>
bl asts</w>
exten sive</w>
re pair</w>
migr ants</w>
j ack
” </w>
ou ting</w>
foc using</w>
jum p</w>
leng th</w>
y ellow</w>
C ur
rec ip
stud ying</w>
Sci enti
tr il
accur ate</w>
t arian</w>
li qu
b at
J ak
b arr
Cust oms</w>
ush ing</w>
deleg ation</w>
less ons</w>
argu ing</w>
prom o
l augh
d ressed</w>
Hun g
exp anded</w>
read ers</w>
R aul</w>
H ilton</w>
consu mption</w>
tro phy</w>
electr onic</w>
be ars</w>
D ol
vir tually</w>
Peti t</w>
d ir
fiel ds</w>
P ed
or ious</w>
Su b
inst ance</w>
particip ating</w>
N ick</w>
Bu il
mon itor</w>
st ery</w>
comb ined</w>
writ es</w>
K iev</w>
hand ful</w>
auth en
uni versities</w>
del igh
og an</w>
Pro duc
lab el</w>
se em
depend ent</w>
consol e</w>
sle eping</w>
engin eer</w>
fire works</w>
US S</w>
um a</w>
poin ting</w>
Mu ch</w>
di t</w>
apologi ze</w>
or bit</w>
ic an</w>
fun dra
OR E</w>
or ph
inst all
trans gender</w>
sa ving</w>
pic king</w>
Prot est
ph il
politic ally</w>
st ressed</w>
bene ath</w>
l ake</w>
desig n
adv ent
amm ing</w>
eng age</w>
differ ences</w>
m erg
A R</w>
att ached</w>
l en
cho os
dist ur
C raw
fun ny</w>
R onald</w>
Cristi ano</w>
U l
semi finals</w>
Ex pl
ob by</w>
anonym ous</w>
D habi</w>
ev es</w>
ol dest</w>
ha bit
proced ure</w>
shor t-
afr aid</w>
h at
uni or</w>
Ath ens</w>
person ality</w>
Mil itary</w>
J i
Jan eiro</w>
fore ig
20 -
bran ds</w>
mand ate</w>
air plane</w>
noti fied</w>
ot ti</w>
ter ing</w>
an tic</w>
qu iet</w>
Tr ade</w>
sh ops</w>
ul a</w>
Moh ammad</w>
mech an
reas onable</w>
p oc
Lank an</w>
a ides</w>
an i
dis appointed</w>
hor ror</w>
sud den</w>
amoun ts</w>
Wag ner</w>
j ailed</w>
E .</w>
J ur
ti p</w>
r ar
sam ples</w>
ess ors</w>
y ed</w>
Par ker</w>
emb arr
long- range</w>
charac ter
Gr ace</w>
ten ed</w>
N am
Her o</w>
F IA</w>
L ane</w>
re vel
pir acy</w>
anch or</w>
log o</w>
en counter</w>
m emb
sh ell</w>
h op</w>
human ity</w>
F ernandez</w>
for ds</w>
wel fare</w>
He alth
subst ance</w>
alleg ation</w>
re actors</w>
necess arily</w>
bo ards</w>
fol ks</w>
cl ay</w>
Slo ot</w>
norm ally</w>
helicop ters</w>
n ard</w>
ul l</w>
h anging</w>
discus sing</w>
Cong res
id er</w>
j er
b ath
A v
G ran
princi ples</w>
25 ,000</w>
sor ry</w>
aband oned</w>
unve iled</w>
B ack</w>
su ffic
par ole</w>
10 th</w>
te ach</w>
on ate</w>
relev ant</w>
b arri
C la
pass es</w>
kn ocked</w>
inaug ural</w>
pu ts</w>
ass ured</w>
ent e</w>
6 9</w>
thr own</w>
Kar d
Wall ace</w>
fle e</w>
T ea</w>
convinc ed</w>
P T</w>
vi </w>
di versity</w>
f ro
In formation</w>
man age</w>
par ade</w>
separati sts</w>
R esp
Ram os</w>
u ality</w>
A -
C ros
in quiry</w>
me ter</w>
e-m ails</w>
J ol
Ru bio</w>
stimul us</w>
al d</w>
ag grav
Du ke</w>
g li
fear ed</w>
An ne</w>
Ro oney</w>
e dition</w>
al ism</w>
ar on</w>
Martin ez</w>
o a</w>
T ampa</w>
Ch ry
au to</w>
T ar
M au
F ast</w>
med ication</w>
dist inc
air space</w>
crow ded</w>
WH O</w>
f it
a to</w>
draw al</w>
7 1</w>
ac commod
tre ating</w>
ox ide</w>
writ ers</w>
sch ol
m ut
don or</w>
R oc
hi ding</w>
K as
ven ess</w>
sud denly</w>
keep s</w>
m ap</w>
f ate</w>
Guatem ala</w>
emp ty</w>
8 0
ec ture</w>
ex act</w>
H aving</w>
house hold</w>
UN I
J ac
sover e
e us</w>
ic -
Br enn
det ected</w>
comp en
ch est
L et
S even</w>
ak e
re a</w>
fair ly</w>
el er
land mark</w>
be ef</w>
im prov
Cambo dia</w>
tan ker</w>
Le aks</w>
Ever ton</w>
c ous
c in
tr ick</w>
eval u
A li
occup ied</w>
cre te</w>
g rid</w>
T it
un like</w>
ri r</w>
Air bus</w>
Tah rir</w>
two- year</w>
7 -year-old</w>
Egypti ans</w>
uk ov
Yan ukov
al- Maliki</w>
ut t
de emed</w>
Por t</w>
un ited</w>
co aches</w>
af fair</w>
el ev
tax pay
E d</w>
et t
sit u
cycl ing</w>
Arab ian</w>
ur ging</w>
tab lets</w>
clos est</w>
leg endary</w>
att ribu
Kard ashi
y l</w>
ab s</w>
M I
sou theast</w>
kid ney</w>
st atistics</w>
swe eping</w>
come dian</w>
U.S.- led</w>
Ni k
M ills</w>
seem ingly</w>
ar ming</w>
Pit t</w>
research er</w>
ther apy</w>
sel ected</w>
Th ank
High way</w>
El ection</w>
8 ,000</w>
di et</w>
pol </w>
Opr ah</w>
fic ial</w>
un al</w>
dy nam
e ering</w>
perform ances</w>
Em erg
eclip se</w>
equ ally</w>
demonstr ation</w>
c y</w>
assi sted</w>
oppos ite</w>
F .</w>
A ustin</w>
pl ing</w>
eigh th</w>
d ges</w>
b ars</w>
dou bles</w>
Pit ts
gradu ate</w>
mov ements</w>
shut tle</w>
ri g</w>
Brenn an</w>
desper ate</w>
ste aling</w>
moun tain
S T
Rud d</w>
techni ques</w>
tri als</w>
re d
G if
lan e</w>
T un
Guar di
L A
manufactur ers</w>
l o</w>
di gn
Ple ase</w>
IO C</w>
Pow ell</w>
purch ased</w>
K ay
provi sions</w>
al an</w>
vir tual</w>
T ed</w>
Jos h</w>
l ab</w>
tel ev
- -
F oster</w>
u a</w>
Tam er
Al z
Wiki Leaks</w>
s enti
D .C.</w>
an or</w>
Nor way</w>
devast ated</w>
Cri minal</w>
los ses</w>
W arren</w>
Hugh es</w>
quar ant
sl ammed</w>
Span i
sett led</w>
spe aker</w>
up per</w>
la in</w>
cre ation</w>
tur n
Sum mer</w>
volunte er</w>
L ot
gu ys</w>
t ears</w>
197 9</w>
be dro
In du
medic ine</w>
gl obe</w>
Or land
Ray mond</w>
form ally</w>
floo ded</w>
C iti
c ot
20 th</w>
investig ator</w>
o tic</w>
,0 00-
Al li
Rom a</w>
hom eland</w>
Orland o</w>
K atr
Katr ina</w>
proper ly</w>
sear ched</w>
v in</w>
Metro politan</w>
bel ief</w>
wh ere
B ing</w>
anticip ated</w>
er als</w>
fer ry</w>
her oes</w>
str ict</w>
t aught</w>
sid er</w>
hum ans</w>
co ol
Mis sion</w>
sur faced</w>
B BC</w>
sig nal</w>
Pitts burgh</w>
G ood</w>
N ie
n utri
Ri vers</w>
in s
shoul der</w>
inter cep
es ome</w>
comfor t</w>
sist ers</w>
ax y</w>
star ring</w>
B an</w>
wi der</w>
long est</w>
T own
par am
studi o</w>
n urs
Ro ad</w>
U A
4- 0</w>
me an
presid ents</w>
tun nel</w>
comm ent
ail ing</w>
fil m
develop ers</w>
half time</w>
den y</w>
recommend ations</w>
Am y</w>
radi o
B ak
t ments</w>
de puties</w>
ex tradition</w>
hard ly</w>
celebr ating</w>
counter terrorism</w>
Argent ine</w>
un documented</w>
motiv ated</w>
resol ve</w>
ear ning</w>
guid elines</w>
indic ate</w>
invol ve</w>
reti rement</w>
ou sted</w>
M ORE</w>
every where</w>
neighbor hoods</w>
shar p</w>
om en
sou thwestern</w>
Gab ri
econom ies</w>
9 ,000</w>
Guin ea</w>
off enders</w>
wor ry</w>
common ly</w>
lot tery</w>
bl ind</w>
with drawal</w>
embarr ass
refl ects</w>
f esti
ph en
vol ati
Ne il</w>
su gar</w>
cre ative</w>
Wild life</w>
Stor m</w>
Spr ings</w>
0 .
pre dec
in ner</w>
overwhel ming</w>
con crete</w>
epid emic</w>
ang o</w>
Ser ie</w>
n aval</w>
hos ting</w>
Lev y</w>
re y</w>
compen sation</w>
histor ical</w>
ang el
am bul
K i
in appropriate</w>
vers al</w>
inspec tor</w>
P age</w>
autom atic</w>
rap </w>
isol ated</w>
scre en
f ish
cr y</w>
sovere ign
sovereign ty</w>
Un fortunately</w>
pp o</w>
b acks</w>
gar bage</w>
cal m</w>
Fin ally</w>
prof iling</w>
Hun ter</w>
1 1
cop ies</w>
t rem
super vis
prot ections</w>
le thal</w>
de bu
in ely</w>
for get</w>
arg ues</w>
rec over</w>
sc ar
pl eas
mis conduct</w>
wr ong
pri se</w>
quali fy</w>
2 50</w>
coll ective</w>
D ow
bi ke</w>
K .</w>
Re ed</w>
first- degree</w>
Tamer lan</w>
subur ban</w>
An y</w>
deligh ted</w>
eng aging</w>
set tle</w>
Ex press</w>
B aker</w>
wr apped</w>
albu ms</w>
rememb ered</w>
c emetery</w>
le aked</w>
chem icals</w>
eas es</w>
mom ent
T ou
sk i
ran ch</w>
3 60</w>
Sebas tian</w>
dead line</w>
por ters</w>
m ation</w>
advis ed</w>
G P</w>
exc iting</w>
alleg es</w>
am ph
An n
k ing
ess ica</w>
chap ter</w>
p ast
Mor ris</w>
t ate</w>
ap es</w>
child hood</w>
se iz
gg ing</w>
trib unal</w>
thir ds</w>
pre domin
as signed</w>
S t</w>
Ari as</w>
exc ell
comeb ack</w>
An aly
on als</w>
c oin
U z
g ro
sent ences</w>
hij acked</w>
En forcement</w>
narr ow</w>
Alz heimer</w>
E ight</w>
ar an</w>
W ood
spe aks</w>
s ank</w>
as pir
ex it</w>
st om
f aster</w>
t ney</w>
survi val</w>
fun ction</w>
un a</w>
ai k
H BO</w>
h ockey</w>
ivi k</w>
psy chi
cig ar
z oo</w>
ell ow
sa ge</w>
15 -
16 -year-old</w>
din and</w>
identi fication</w>
pen insula</w>
12 th</w>
b one</w>
G il
appl ic
Liber ia</w>
p es</w>
ac ing</w>
vill ages</w>
Kar achi</w>
1 1-
scienti st</w>
pri de</w>
Mar quez</w>
fr ag
det ect</w>
D id</w>
re z</w>
ext ent</w>
esti ons</w>
govern ment-
cap abilities</w>
A ut
nic kn
cast le</w>
Ab bot
conclu sion</w>
eng ers</w>
ra v
tran sit</w>
w ick</w>
May be</w>
prom ising</w>
celebr ation</w>
stri king</w>
coll ect</w>
Commun ist</w>
cri tic</w>
exam ined</w>
respon ding</w>
Ro y</w>
Portu gu
with draw</w>
relation ships</w>
Carl o</w>
fr aternity</w>
t end</w>
v y</w>
newsp apers</w>
stic k</w>
vent ure</w>
inc umb
M E
fortun ate</w>
gr ant</w>
kni fe</w>
provi ders</w>
Mar c</w>
b ish
fir ms</w>
J essica</w>
tal e</w>
inter pre
5 3</w>
nation als</w>
ag ers</w>
pos ing</w>
defin ed</w>
co inc
n ose</w>
7- 5</w>
Fer dinand</w>
hon est</w>
ri ft</w>
se al</w>
grat eful</w>
Bre ivik</w>
RE AD</w>
Bla ir</w>
answ ered</w>
pl agu
light ning</w>
inten si
Ri ght</w>
Rod ger</w>
ach el</w>
st ress</w>
dat ab
ff ed</w>
vi ously</w>
requ iring</w>
fac ulty</w>
stop ping</w>
Sh in</w>
Jour nal</w>
check point</w>
fle et</w>
P in
tox ic</w>
aj a</w>
Ma x</w>
L ama</w>
the ory</w>
H o
enn is</w>
ow een</w>
e o</w>
mist ak
pe ts</w>
fe es</w>
car ries</w>
Cir cuit</w>
par don</w>
f ever</w>
dram atically</w>
celebr ations</w>
carri ers</w>
Portugu ese</w>
ul p
under way</w>
Craw ford</w>
f ath
Ã </w>
some what</w>
Tr acy</w>
der ly</w>
Su ch</w>
U p</w>
Port land</w>
har der</w>
de x</w>
well- known</w>
war s</w>
sch eme</w>
ed ict</w>
di abetes</w>
ol i
hom etown</w>
explor ation</w>
R oss</w>
gu est</w>
Yah oo</w>
er i</w>
in ations</w>
engine ering</w>
gener ated</w>
g aming</w>
Id ol</w>
Mor ning</w>
Gif fords</w>
M A
contr acted</w>
ten sion</w>
om o</w>
8 6</w>
O z</w>
pro ven</w>
apol is</w>
ear th</w>
ch or
descri bing</w>
G ame</w>
adv anced</w>
prosp ect</w>
air ing</w>
M aps</w>
Jol ie</w>
illu str
Uz be
sal t</w>
A ward</w>
g oods</w>
ti gh
et e</w>
um p
8 8</w>
A gr
un covered</w>
campaig ns</w>
bi partisan</w>
inten tion</w>
sk y
G arri
ret ail</w>
2. 5</w>
ul ous</w>
tough er</w>
ru s</w>
J or
O ver
Al ong</w>
.. ..
sp ots</w>
Mar ines</w>
trail er</w>
w alls</w>
Kardashi an</w>
R on</w>
Sam uel</w>
hu b</w>
ab used</w>
q q
sp y</w>
ent- elect</w>
bl acks</w>
is er</w>
off enses</w>
let ting</w>
Seb elius</w>
sc ape</w>
Bash ir</w>
adequ ate</w>
c en
tob acco</w>
ter -
appe aled</w>
sc ious</w>
contribu te</w>
dis appoin
indic ation</w>
c ave</w>
ussi a</w>
W ill
sp ying</w>
deli very</w>
w oo
W y
Com pl
tac tics</w>
m anner</w>
N ine</w>
6 3</w>
k son</w>
b right</w>
stand ings</w>
conv enti
gr ass</w>
occas ions</w>
N ash
design ated</w>
di er</w>
Br and
W TA</w>
parti al</w>
bul let</w>
at or
Ser ies</w>
1, 500</w>
Im migration</w>
rem ents</w>
P op
atr ic</w>
fire arms</w>
Gr am
Sh or
be er</w>
K le
K ob
vo ices</w>
Don et
aggrav ated</w>
fur t</w>
streng then</w>
cour age</w>
Andre a</w>
M embers</w>
flo ating</w>
in mate</w>
R achel</w>
L eno</w>
L o
P C</w>
H ave</w>
198 0</w>
epis odes</w>
Car l</w>
Mon aco</w>
ic h
Gri ffi
dest roy</w>
Philipp ine</w>
ish -
Hall oween</w>
rel s</w>
C ain</w>
ip ped</w>
U n</w>
pres sed</w>
tal ity</w>
ex ha
en ch
rog ba</w>
success or</w>
rec k
grand mother</w>
u ps</w>
M other</w>
b id
ot elli</w>
Cy pr
su its</w>
D rogba</w>
inaug ur
Dan ish</w>
La wr
s worn</w>
Den mark</w>
li fel
dis close</w>
qu een</w>
out standing</w>
Por os
Mu h
st ake</w>
Pe tra
Petra eus</w>
enn a</w>
Poros henko</w>
um m
li brary</w>
en zo</w>
terri ble</w>
Ber mud
Ju vent
ang ered</w>
lef t-
ju ven
Donn ell</w>
al ty</w>
den ies</w>
Am anda</w>
ur a</w>
exist ence</w>
D zh
Dzh ok
congres sman</w>
Har t</w>
Emerg ency</w>
Juvent us</w>
volati le</w>
A aron</w>
Anti -
e ased</w>
fl oods</w>
ligh ted</w>
os i</w>
San ch
Sanch ez</w>
succ essive</w>
meth ods</w>
gl asses</w>
y ou
ri e</w>
bl ood
hol ders</w>
New town</w>
stor med</w>
w ai
Whit ney</w>
educ ators</w>
El vis</w>
gre en
mor al</w>
Hon dur
les bian</w>
G reg
iti s</w>
bl ock
Heb do</w>
org ans</w>
O S</w>
law maker</w>
ic ed</w>
Donet sk</w>
defend ant</w>
t ar
cle aning</w>
in gham</w>
acc eler
h at</w>
l ap
telev ised</w>
iRe port
re ar</w>
addres ses</w>
Hann ah</w>
mach ines</w>
correc t</w>
Res er
correspon dent</w>
Re port</w>
s on
eng agement</w>
ad minist
Do zens</w>
contr acts</w>
e ks</w>
re in
i an-
bor ough</w>
Nash ville</w>
re ward</w>
tor n</w>
direc tors</w>
Dal ai</w>
tic ated</w>
Cypr us</w>
sur ge</w>
R A</w>
5 8</w>
awa iting</w>
hor ses</w>
m are</w>
ec tors</w>
du o</w>
head er</w>
staff ers</w>
P ower</w>
tem ple</w>
l ots</w>
Spani ard</w>
T og
rel ay</w>
Lind say</w>
Qu in
amb ia</w>
ex ports</w>
Hun dreds</w>
iReport .com</w>
F -
Web ber</w>
cel eb
reg ard
g ear</w>
b ond</w>
Griffi th</w>
Pot ter</w>
May nard</w>
temper ature</w>
Con ference</w>
Ar th
Arth ur</w>
Ful ler</w>
bur st</w>
R ev
resp ected</w>
w .
ww w.
regard less</w>
advoc acy</w>
oc h</w>
Thank s
broad er</w>
em ail</w>
at eral</w>
p y</w>
bo arded</w>
R id
Bo y</w>
er man</w>
r and
brea thing</w>
K rem
p ound</w>
t ag
sol utions</w>
Ly on</w>
b au
Mur phy</w>
an ed</w>
O u
cho ices</w>
r on</w>
pain ted</w>
Jef f</w>
M L
acti vely</w>
st ops</w>
w rest
rub ber</w>
H adi</w>
foreig ners</w>
Ale ppo</w>
Super ior</w>
sc ared</w>
pp ers</w>
Del aware</w>
wor thy</w>
disa gre
on au
d ose</w>
boo ked</w>
gang s</w>
protest ing</w>
hi p</w>
sp ell</w>
Lawr ence</w>
ed it
it y-
colum n</w>
t all</w>
Comm unity</w>
lin ing</w>
wh ites</w>
Si si</w>
p in
Mid d
Princ ess</w>
Bu en
ex plan
um p</w>
Frank furt</w>
un t</w>
Bal otelli</w>
main land</w>
op ol
8 3</w>
med als</w>
Sh ould</w>
earth qu
em por
H ur
M ass</w>
my stery</w>
lic en
cha os</w>
sk irts</w>
ri son</w>
R ap
P un
F isher</w>
lo ose</w>
expres sion</w>
pro- Russian</w>
bre ach</w>
invest ors</w>
foot ball
re fu
con scious</w>
Mun oz</w>
don ations</w>
se eded</w>
controll ers</w>
ot ed</w>
r apper</w>
D s</w>
i to</w>
dis played</w>
Cor p
acqu iao</w>
8 2</w>
ex ists</w>
mid d
th o
Thanks giving</w>
Pes ha
cr af
k istan</w>
v an
Pesha war</w>
I B
B ill
Corp .</w>
Ab b
trau ma</w>
sig nature</w>
inc enti
toler ance</w>
tr acking</w>
in- law</w>
ad or
some how</w>
Sch al
der ailed</w>
al- Zawahiri</w>
comp atriot</w>
ti re</w>
min ds</w>
ester day</w>
Ven us</w>
ig ning</w>
invol ves</w>
mar itime</w>
mil est
Prov ince</w>
Marsh all</w>
up date</w>
k age</w>
wrec kage</w>
l ung</w>
m erc
fire arm</w>
m aster</w>
trad em
er ie</w>
car e
provi sion</w>
Li onel</w>
ch ase</w>
op ens</w>
roc ks</w>
c ann
Camp bell</w>
B obby</w>
cr ack</w>
ster dam</w>
es -
u prising</w>
bedro om</w>
mic ro
priv il
engine ers</w>
we althy</w>
m ol
scho ol
am as</w>
ch ess</w>
valu able</w>
Fi eld</w>
oo th</w>
ab bing</w>
resol ved</w>
f ab
educ ational</w>
m o</w>
n avy</w>
s and
out skirts</w>
cli ff</w>
et z</w>
S ot
leng thy</w>
abduc tion</w>
cros s-
hom osex
be d
P acquiao</w>
M arg
oper a</w>
W ells</w>
Rom an</w>
We instein</w>
L ance</w>
i ency</w>
indic ates</w>
my ster
ir atory</w>
particip ation</w>
orig in</w>
T at
high- speed</w>
cour tro
cir cul
African- Americans</w>
net working</w>
P S</w>
Con tin
renew ed</w>
Clin ic</w>
Alger ia</w>
Ch e
Guardi ola</w>
New castle</w>
v .</w>
Scienti sts</w>
bel i
brief ing</w>
An d
ill o</w>
bal let</w>
pray er</w>
B ase</w>
re union</w>
T odd</w>
Bu ff
cl ashed</w>
Ben edict</w>
Jes se</w>
influ ential</w>
Mor oc
t ally</w>
car di
repl ied</w>
confir mation</w>
deser ve</w>
er son</w>
mix ed</w>
8 1</w>
consider ation</w>
ball ot</w>
k id</w>
Ham id</w>
Pal m</w>
M ak
compl ications</w>
G am
si bilities</w>
A P</w>
belong ing</w>
Cann es</w>
ri g
in ev
exc essive</w>
com promise</w>
E mil
appear ing</w>
confron tation</w>
fil med</w>
or ous</w>
f ake</w>
ic kets</w>
b ow</w>
Sh ir
ac ies</w>
resid ential</w>
ni ghts</w>
encour aging</w>
sub stitute</w>
Ser gio</w>
Gen eva</w>
mete or
lo be</w>
acc es
17 -year-old</w>
et -
pl ease</w>
3- D</w>
iz ar
nomin ations</w>
Con cor
l is</w>
S port</w>
si st</w>
assaul ted</w>
substanti al</w>
perc eived</w>
Bl atter</w>
Con vention</w>
TE D</w>
entreprene urs</w>
fat ally</w>
o ch
bil lions</w>
f illing</w>
w ounds</w>
Schal ke</w>
kn ess</w>
in stitution</w>
G od
Lor enzo</w>
B es
El sewhere</w>
ar o</w>
op pose</w>
Cor por
Â </w>
exten sion</w>
Gonzal ez</w>
over -
er to</w>
f le</w>
oph is
A ires</w>
for ever</w>
W enger</w>
el eph
investig ations</w>
rar ely</w>
f a</w>
class room</w>
B ou
ath y</w>
fin ishing</w>
b arg
Buen os</w>
ow ski</w>
saf er</w>
pre serve</w>
volun t
sol e</w>
ob served</w>
pl edge</w>
r owing</w>
ambul ance</w>
dev </w>
Bermud a</w>
H ome</w>
S g
s ophis
impl ement</w>
ten ance</w>
man hunt</w>
C are</w>
develop er</w>
dis cre
8 4</w>
y e</w>
Revol ution</w>
dis closed</w>
ok er</w>
Bus iness</w>
De ad</w>
frustr ated</w>
attend ant</w>
2 3-year-old</w>
whe el</w>
p ap
t anks</w>
Nie to</w>
Gal axy</w>
Gi ven</w>
Ass ange</w>
An cel
Ancel otti</w>
pres sing</w>
gri p</w>
oc </w>
str ange</w>
r ushed</w>
exc ep
audi ences</w>
Jo el</w>
patter n</w>
atter ed</w>
Simp son</w>
Gib son</w>
at t</w>
Cap tain</w>
L oo
gener ations</w>
flag s</w>
bon uses</w>
inten sive</w>
on d
Gir ls</w>
h iring</w>
assi onate</w>
en ab
par d</w>
NY PD</w>
subsequ ently</w>
don ate</w>
quarter finals</w>
ignor ed</w>
Croati a</w>
D H
W ei
ic hi</w>
box es</w>
w ounding</w>
av ed</w>
thr one</w>
comp on
C lim
ball ots</w>
K ey</w>
L es
K az
C old</w>
pre fer</w>
But ler</w>
wild fire</w>
arre ll</w>
wind ows</w>
exc eption</w>
Ab du
Nig er</w>
Won der</w>
g age</w>
dr un
Cor rec
def ensive</w>
A j
ret ary-
sp reading</w>
plagu ed</w>
oy ce</w>
pris oned</w>
critic ally</w>
it ated</w>
Sch ul
it ement</w>
Dzhok har</w>
Ev ans</w>
O ak
uni form</w>
1. 3</w>
L in</w>
W ood</w>
celeb rities</w>
ec tor</w>
un beaten</w>
UA E</w>
and an</w>
R em
M r
pul ling</w>
cred ited</w>
Gib bs</w>
ulti mate</w>
8 0s</w>
Ch an</w>
n u
25 -year-old</w>
K yle</w>
b ills</w>
Un til</w>
Ge ological</w>
under stood</w>
ha iled</w>
ec raft</w>
two- thirds</w>
incumb ent</w>
high lights</w>
cra zy</w>
propos als</w>
Am b
ff s</w>
si ege</w>
arr ang
Ch uck</w>
main tenance</w>
7 4</w>
D od
Tuc son</w>
Am sterdam</w>
Y on
6 0
champ ionships</w>
Sg t.</w>
Maj or</w>
mu ch-
att on</w>
Mi k
Syri ans</w>
ke ys</w>
reha b</w>
consist ently</w>
tu tion</w>
dam ages</w>
Ab ra
mur der
u ph
sh oe</w>
insp ection</w>
f et
Hist ory</w>
st up
T ower</w>
struc tures</w>
25 0,000</w>
mar sh
astr onau
7 6</w>
primar ily</w>
em ies</w>
exam ine</w>
ul ate</w>
pi on
an z
F a
techn ologies</w>
frequ ent</w>
h ash
fl ash</w>
ex port</w>
New man</w>
Cru ise</w>
speci alist</w>
as y</w>
1 6-
Pl an</w>
a ign</w>
201 8</w>
sla very</w>
V ar
implem ented</w>
ass embly</w>
Kle in</w>
in ate</w>
B ank
mon ella</w>
tow er</w>
b ury</w>
Fin anc
chec ked</w>
pros tate</w>
L ing</w>
cock pit</w>
Amb assador</w>
curr ic
be y</w>
Wil d</w>
pregn ancy</w>
st em
courtro om</w>
stu died</w>
legisl ative</w>
cat astro
Mar ie</w>
rub ble</w>
Fi re
Mad onna</w>
i ors</w>
particip ants</w>
any more</w>
amb ers</w>
st al</w>
gu itar</w>
sc ulp
pat ent</w>
po or
Maj .</w>
disappoin ting</w>
cau tion</w>
pil gri
Sun g</w>
urg ent</w>
carto on</w>
L A</w>
equip ped</w>
diam ond</w>
under went</w>
nin th</w>
postp oned</w>
Ky i</w>
wild life</w>
, 500</w>
Tr ay
cre ator</w>
ad diction</w>
ven ted</w>
t an</w>
rac ed</w>
ran ean</w>
exp ense</w>
h ill</w>
K och</w>
H op
gr ams</w>
avi er</w>
f its</w>
s om</w>
et tes</w>
u me</w>
H ut
compl icated</w>
Kh am
e ager</w>
Russi ans</w>
am nesty</w>
assaul ting</w>
Med al</w>
ac e
Hun t</w>
phen omen
commun icate</w>
surpri sing</w>
reve als</w>
fix ing</w>
under cover</w>
aly mp
reg arded</w>
ex changes</w>
U ru
Gl ob
A E
lif estyle</w>
Sh ell</w>
R ab
et ly</w>
ri a</w>
re ject</w>
sli des</w>
Med iter
Bri en</w>
Mr s.</w>
M ut
K un
K um
accoun table</w>
deb ates</w>
eur o</w>
reti re</w>
My ers</w>
S .</w>
Br on
en g</w>
16 th</w>
em erge</w>
Li ving</w>
Spr ing
anim ated</w>
ing re
oper ates</w>
b ench</w>
Sw at</w>
Clar kson</w>
gr u
re al
Car ac
ter man</w>
ac ad
surviv or</w>
Reser ve</w>
Agr ic
A ston</w>
gr aves</w>
des ert</w>
over turned</w>
plain ti
est r
Ar ts</w>
L az
h in
dis rup
expl aining</w>
ou ted</w>
remin der</w>
ter i
3 D</w>
San aa</w>
popul ations</w>
coun ties</w>
R O
C ateg
C -
198 8</w>
exp ecting</w>
incredi bly</w>
dem e
D ave</w>
commit ting</w>
ob tain</w>
I cel
gy m</w>
1 30</w>
ah a</w>
em entary</w>
ph r
shoot er</w>
Ferr er</w>
Web b</w>
al le
t os
scru tiny</w>
h ire</w>
Per sian</w>
gun fire</w>
re al-
ha il</w>
attr acted</w>
Fl em
fix ed</w>
18 -
G et</w>
succ eed
rap id</w>
D ark</w>
cros s
por ting</w>
m ad</w>
on ics</w>
Fri ends</w>
fac ilit
Salv ador</w>
re verse</w>
ingre di
fr ame</w>
t une</w>
beli efs</w>
sel ection</w>
ti tution</w>
pe ak</w>
diagnos is</w>
sil ence</w>
D ennis</w>
demonstr ated</w>
bo om</w>
curric ulum</w>
PE OP
jiha dist</w>
milest one</w>
intro duce</w>
ne ur
sever ely</w>
up dates</w>
govern ance</w>
pip eline</w>
B h
ble w</w>
br illi
In c
insurg ency</w>
bit ter</w>
B uck
s an</w>
Regi onal</w>
al titude</w>
IS AF</w>
dr aft</w>
P R</w>
aler ted</w>
vic tories</w>
cont empor
izar re</w>
fant astic</w>
Kin dle</w>
w anting</w>
her itage</w>
datab ase</w>
or um</w>
Ur ban</w>
G lobe</w>
m atic</w>
fac tion</w>
Maj ority</w>
stun ning</w>
bl u
take off</w>
S mart</w>
Congres sional</w>
week ly</w>
Ap pe
In side</w>
bur gl
K am
competi tors</w>
resu me</w>
en voy</w>
subsi di
up dated</w>
graph y</w>
oper ational</w>
ar sen
V augh
acces sible</w>
J az
er ly</w>
f an
ra ises</w>
Peter son</w>
counter parts</w>
le ak</w>
Abdu l</w>
Medic aid</w>
b izarre</w>
ch amber</w>
1, 200</w>
Be ir
threat en</w>
Presid ential</w>
impro ving</w>
V it
Chri st</w>
G a
any body</w>
broadc aster</w>
par ks</w>
r ot
ri ages</w>
mar riages</w>
p el
S ky</w>
Financ ial</w>
sp raw
th in</w>
fi ance</w>
Let terman</w>
Jour nal
G o</w>
Gar den</w>
Haiti an</w>
L oc
photograp h</w>
h es
some where</w>
ev ed</w>
Ty ler</w>
f alls</w>
pol e</w>
Ram ad
Ramad an</w>
7 3</w>
trem end
mar king</w>
din als</w>
over come</w>
end ent</w>
de voted</w>
dr ome</w>
6 1</w>
S ad
explos ions</w>
s wee
D ays</w>
itch en</w>
particip ated</w>
S or
coun sel</w>
run ners</w>
best- selling</w>
scre ens</w>
ar di
H ot</w>
st abbed</w>
Jama ica</w>
An na</w>
Resp on
N ext</w>
li on-
Bat man</w>
Dun can</w>
stun ned</w>
15 ,000</w>
suffic ient</w>
NA SC
Par alymp
oc ol
Opr ah
anc ers</w>
Ric h
Hispan ics</w>
B ased</w>
W az
Wind sor</w>
M ental</w>
Rob </w>
hu mil
oc a
9 8</w>
re public</w>
em or
k amp</w>
- of-
per t</w>
G H
SU V</w>
C O</w>
u d</w>
attr act</w>
197 8</w>
strong est</w>
af e</w>
si zed</w>
f oster</w>
sub mitted</w>
repe at</w>
ess entially</w>
He avy</w>
Man n</w>
sec tarian</w>
in duc
se eds</w>
en emies</w>
em en</w>
Ful ton</w>
ign ore</w>
to il
ob ject</w>
B .</w>
Mediter ranean</w>
F le
p and
Rel ations</w>
Revol utionary</w>
pan els</w>
st y
N T</w>
main tains</w>
affili ated</w>
NG </w>
advis ers</w>
5 9</w>
do x</w>
new est</w>
on i</w>
A be</w>
e up</w>
accoun ted</w>
minist ers</w>
Moun tain</w>
o i</w>
prev enting</w>
eg gs</w>
teamm ates</w>
sing le-
Viol ence</w>
Ar n
198 2</w>
tr ucks</w>
har sh</w>
n est</w>
sur ren
as sets</w>
ret ail
Frank lin</w>
F ed
fle eing</w>
Uru gu
t ings</w>
Ash ley</w>
inti mid
tou ch
w ill
S lov
Krem lin</w>
bus h</w>
gen u
la sted</w>
14 -year-old</w>
Bol i
K a
Hear t</w>
de ported</w>
Mag azine</w>
y der</w>
it zer</w>
gi es</w>
Paul o</w>
horri fic</w>
Beir ut</w>
s ni
Thr ough</w>
m a
Si kh</w>
bus es</w>
w ound</w>
o GP</w>
conc eded</w>
p a
fe el
C ole</w>
T ake</w>
adop tion</w>
Hol oca
dec l
lun ch</w>
san itation</w>
Boli via</w>
ar ta</w>
Jak arta</w>
N one</w>
equ i
explan ation</w>
H app
un certainty</w>
jud gment</w>
tion ing</w>
S add
form ing</w>
swit ch</w>
bl an
ret ain</w>
cont aining</w>
Wi i</w>
super star</w>
run off</w>
eng ines</w>
sail ors</w>
Par t</w>
att led</w>
D P</w>
exhi bit</w>
Bol t</w>
agric ultural</w>
go ers</w>
ski ing</w>
hon ors</w>
I sa
Fron t</w>
por tra
T reas
b al</w>
R ah
Fall on</w>
conventi onal</w>
Sha k
journal ism</w>
R ub
bas ement</w>
S anti
Z ar
é </w>
fre sh
no where</w>
Shor tly</w>
Li brary</w>
swe et</w>
St aff</w>
dr ink</w>
T R
gu err
sl aying</w>
mor ed</w>
manu el</w>
a- based</w>
off s</w>
Environ mental</w>
25 th</w>
F C</w>
tax i</w>
r onic</w>
ant e</w>
d ust</w>
el ds</w>
2 2-year-old</w>
viol ating</w>
second- degree</w>
Ma o</w>
treat y</w>
assa ults</w>
n ob
part ments</w>
Veter ans</w>
Dar fur</w>
conver sations</w>
con dol
publ isher</w>
atri ots</w>
sil ent</w>
cous in</w>
s ors</w>
sl er</w>
9 2</w>
or row</w>
20 -year-old</w>
sou theastern</w>
amm un
ammun ition</w>
Z ambia</w>
sa iling</w>
mob il
F ro
R ig
c ott</w>
pas sports</w>
Nor we
midd le-
Mot oGP</w>
Alex and
Garri do</w>
15 0,000</w>
Mar co</w>
ar son</w>
Ch eck</w>
aff ects</w>
sophis ticated</w>
legisl ators</w>
9 6</w>
un expected</w>
l ap</w>
Hos ni</w>
Cr ow
V I</w>
transi tional</w>
pol ling</w>
rout inely</w>
So on</w>
R an
promot ed</w>
un armed</w>
cent uries</w>
z man</w>
Holoca ust</w>
business man</w>
Sc ha
war -
th ood</w>
wa ited</w>
negoti ating</w>
di oxide</w>
Fam il
e u</w>
Mar vel</w>
NASC AR</w>
Ang ola</w>
en rich
v ocal</w>
remov ing</w>
spir it
dis eases</w>
Shar ia</w>
per mit</w>
el abor
J ews</w>
det ectives</w>
Con n
Camp aign</w>
emo tions</w>
adop t</w>
F igh
tor ate</w>
pain t</w>
assu me</w>
S ah
prepar ation</w>
E p
B M
ent on</w>
trad ing</w>
i ang</w>
R C</w>
det ective</w>
Fil m</w>
W ater</w>
19 -year-old</w>
pre vented</w>
im prisoned</w>
t ear</w>
or chest
f ing
confl icts</w>
expl ore</w>
dec or
en son</w>
inaugur ation</w>
Prof essor</w>
hop eful</w>
subsi dies</w>
sub marine</w>
j unior</w>
u k</w>
Pol icy</w>
mid st</w>
house holds</w>
por no
F ather</w>
N us
iz es</w>
d ents</w>
Be at
moment um</w>
Oprah .com</w>
sc ram
arch y</w>
autom atically</w>
affili ates</w>
Bor ussia</w>
Eur o</w>
reti ring</w>
coin s</w>
counter ed</w>
z z</w>
feel ings</w>
ro ot</w>
14 th</w>
os ity</w>
f ted</w>
T err
K l
brief ly</w>
An im
v ous</w>
tre as
Cor n
str ic
per petr
wal ks</w>
Sen ior</w>
bas es</w>
Sn yder</w>
7 0
k ick
SE AL</w>
D aw
or -
Angel a</w>
l ington</w>
be aches</w>
v in
t es
h ide</w>
Jan et</w>
bi ological</w>
Si x
4 ;</w>
Mass a</w>
198 4</w>
b i</w>
z ones</w>
A ge</w>
Ci ud
A er
Govern or</w>
th ouse</w>
iti </w>
si oned</w>
18 th</w>
8 th</w>
In iti
Phil ip</w>
Inter pol</w>
develop ments</w>
inst alled</w>
N uclear</w>
o il
un anim
N at
Mov ie</w>
aut onomous</w>
Broad way</w>
k on
work place</w>
re sistant</w>
exc itement</w>
i est</w>
pros tit
Mc Gu
arg uments</w>
ti al</w>
hum or</w>
situ ations</w>
Mil ey</w>
gen e</w>
Pol ish</w>
cl ing</w>
Ciud ad</w>
gr ound
ste ady</w>
is ure</w>
y esterday</w>
12 4;</w>
&# 124;</w>
W ang</w>
mer ch
fin es</w>
b its</w>
P ur
Bol ton</w>
IC E</w>
H ul
ter nal</w>
N either</w>
7 th</w>
Abbot t</w>
l ers</w>
t wi
Tat um</w>
sha ke</w>
dis miss
compl eting</w>
const ant</w>
Mac </w>
Net fli
re actor</w>
pers ons</w>
he ight</w>
ab uses</w>
d os
Corpor ation</w>
incor por
controll er</w>
step ping</w>
testi fy</w>
O thers</w>
y ch</w>
law ful</w>
bre ad</w>
Cy rus</w>
anim ation</w>
spac ecraft</w>
B A
a f</w>
9 7</w>
ob es
Th i
ch ner</w>
f eld</w>
Su u</w>
Protest ers</w>
professi onals</w>
rup t
star red</w>
roll ing</w>
ell ers</w>
resp iratory</w>
h at-
R ol
expres sing</w>
Ma x
K ut
Ac tor</w>
dre ams</w>
Ram i
t aste</w>
worl d-
ab ol
re ll</w>
comm erce</w>
langu ages</w>
M om</w>
connec tions</w>
bar ely</w>
A 3
N H
fu eled</w>
sh ame</w>
Franc ois</w>
not orious</w>
af fir
ex ile</w>
197 1</w>
ag e
ann ually</w>
Sil va</w>
p our</w>
fe at</w>
choos ing</w>
command ers</w>
ad ju
Re eves</w>
Su n</w>
re la
s and</w>
P ap
colli sion</w>
g ays</w>
o ed</w>
har m
Li v
le en</w>
1 N
list ening</w>
proc essing</w>
EW .com.</w>
atr a</w>
recor d-
p ath
mas c
Gar ner</w>
fron t-
g al
Uzbe kistan</w>
under water</w>
Jor ge</w>
dist ress</w>
Mas hable</w>
an is</w>
e z
con sent</w>
c on</w>
Wil kins</w>
E u
Bah amas</w>
ar ized</w>
sec t</w>
K id
E ve</w>
car efully</w>
G O</w>
all- time</w>
mo tive</w>
Gold man</w>
fl es</w>
Cr icket</w>
oper ators</w>
drun ken</w>
b ands</w>
Willi am
fre e-
j oke</w>
Sha w</w>
G ill
ol ese</w>
refl ected</w>
on gh
ret ali
ett ino</w>
P irates</w>
P S
Mar riage</w>
requi rement</w>
ellow stone</w>
Y ellowstone</w>
C A
McGu ire</w>
prosecut e</w>
gar d
Netfli x</w>
ag os</w>
ti red</w>
ill as</w>
re iter
phys ically</w>
R A
M ach
ic ia</w>
li t</w>
L ate</w>
iev es</w>
tri ps</w>
infr ing
acc idents</w>
st ems</w>
run ner</w>
Sp ace
at op</w>
am endment</w>
li ked</w>
prohib ited</w>
el derly</w>
administ ered</w>
Tray von</w>
th i</w>
vig il
fru it</w>
deser ved</w>
resp ectively</w>
m on</w>
on ial</w>
ay or</w>
Black Berry</w>
Agric ulture</w>
dis pers
cha e
campaig ning</w>
Austri a</w>
re leg
b alls</w>
Co ordination</w>
R al
g ood
M e</w>
tic k</w>
Rec ords</w>
r ush</w>
desig ners</w>
F O
dign ity</w>
H 1N
top ped</w>
antibio tics</w>
for gotten</w>
R ut
regul ators</w>
ri der</w>
D V
Rober to</w>
ch er
bu reau</w>
far -
earch ers</w>
O L</w>
Ever est</w>
I -
proper ties</w>
h ap</w>
196 3</w>
Y u
N av
B E
Mar l
. g
p ill
y i
H1N 1</w>
inter ven
sh elling</w>
integr ity</w>
F ol
P ena</w>
inn ings</w>
Boy d</w>
D avi
1. 2</w>
lif ting</w>
kin ds</w>
main stream</w>
dam aging</w>
man slaughter</w>
identi fying</w>
discipl ine</w>
equi valent</w>
def ine</w>
For bes</w>
mer ely</w>
cur b</w>
str ang
w ed</w>
el der</w>
Tenn is</w>
rel uc
intercep ted</w>
si mul
sla in</w>
batt les</w>
great ly</w>
Cap t.</w>
ati vity</w>
R ock
Z an
Ch er
re viewing</w>
p ist
gen etic</w>
contr ad
k itchen</w>
D ha
negoti ate</w>
survi ving</w>
cy ber</w>
et ary</w>
argu ably</w>
dang ers</w>
Pu erto</w>
Yanukov ych</w>
Abd ul
3- 2</w>
an ning</w>
Au gu
St ars</w>
M ans
O ut</w>
roc ked</w>
Alli ance</w>
Str ateg
Play ers</w>
m i</w>
gr ace</w>
Sing er</w>
sal ary</w>
18 -year-old</w>
t ours</w>
diffic ul
road side</w>
H icks</w>
dispu tes</w>
web sites</w>
8 9</w>
E s
D ay
c ue</w>
ic ides</w>
Ne al</w>
s ity</w>
P DF</w>
Econom ic</w>
moun tains</w>
H ei
c ult</w>
Champ ionships</w>
predic t</w>
st en</w>
hal ted</w>
lu cr
g as
sam ple</w>
M om
Lab or</w>
innov ative</w>
me als</w>
Wal ter</w>
contribu tion</w>
ve to</w>
or i</w>
sw ana</w>
V anc
I N</w>
Bot swana</w>
W ade</w>
prof its</w>
f ence</w>
t on-
li ed</w>
9 00</w>
th ick</w>
P ass
Pel osi</w>
Pas o</w>
20 20</w>
Ch am
rom antic</w>
bl ocks</w>
15 th</w>
not ably</w>
Wal king</w>
kne e</w>
el t</w>
Holl ow
me ets</w>
three- year</w>
ut ers</w>
cigar ettes</w>
Sy stem</w>
p in</w>
semi- official</w>
acc use</w>
B anks</w>
r ough</w>
U y
Austri an</w>
val id</w>
gi fts</w>
n er-
f ing</w>
Bur nett</w>
l aki</w>
n ut</w>
stor y
Space X</w>
rich est</w>
arti ficial</w>
watch dog</w>
dou bled</w>
edit orial</w>
assa il
hat- trick</w>
memb ership</w>
r ab
cal cul
p ick
athle te</w>
or g</w>
. org</w>
Norwe gian</w>
les son</w>
ist er</w>
nomin ees</w>
Clim ate</w>
Com b
Sk y
Regi on</w>
J in
mist akes</w>
Brad y</w>
Muh ammad</w>
stat ue</w>
In deed</w>
appe aling</w>
13 th</w>
rec y
st ation
u tili
bo dy
agre ements</w>
teri or
F air
rel ating</w>
t est
justi fied</w>
Mc A
Rou ge</w>
doub ts</w>
wi reless</w>
determin ation</w>
ograph ic</w>
transpar ency</w>
R on
Con feder
scen ario</w>
pris oner</w>
Ad m.</w>
cl am
he alth
interven e</w>
th ous
cor rupt</w>
Plan et</w>
K en</w>
fi ghts</w>
Cra ig</w>
c entered</w>
V ick</w>
N ick
Flor es</w>
½ </w>
. 1</w>
Aw laki</w>
par ked</w>
dismiss al</w>
Min ne
c ow
mat ched</w>
K an
r ice</w>
per former</w>
condol ences</w>
ra w</w>
quarter final</w>
F our
bar rels</w>
Bon o</w>
any way</w>
bo os
in al</w>
Buil ding</w>
Tam il</w>
senti ment</w>
Ac tion</w>
C es
au ster
fer ring</w>
ar ra
ro of
Z uma</w>
t ents</w>
Hollow ay</w>
ex ecut
Bri g
Mot or</w>
clim b</w>
meas ured</w>
descri ption</w>
super b</w>
rec ession</w>
Sch ettino</w>
Vanc ou
cr ashing</w>
cru de</w>
r allied</w>
d ancer</w>
mechan ical</w>
Br un
bi ography</w>
ver sions</w>
excell ent</w>
s inc
pro jected</w>
Super man</w>
la sting</w>
endor sed</w>
G ore</w>
domin ate</w>
spraw ling</w>
bl aming</w>
C oc
C ast
hear ings</w>
Wh ich</w>
sc he</w>
C on</w>
re n</w>
b y-
pain ful</w>
Tel evision</w>
M Z</w>
smuggl ing</w>
lov es</w>
D own
M es
anc ell
swi m</w>
t att
de partments</w>
Row e</w>
Se a
now -
mid term</w>
sol o</w>
w n</w>
Det ective</w>
fl own</w>
g art</w>
lucr ative</w>
princi ple</w>
Sant orum</w>
happ iness</w>
or ange</w>
l abor
15 -year-old</w>
sol ic
Vancou ver</w>
full- time</w>
af fordable</w>
neg lig
ran kings</w>
sl ot</w>
man ip
19 th</w>
ambiti ons</w>
difficul ties</w>
fem in
Stan ford</w>
c ed</w>
K ids</w>
m ly</w>
T T
mus ician</w>
G up
m and</w>
Ch and
contempor ary</w>
ten ing</w>
shel ters</w>
Sadd am</w>
bil itation</w>
1 40</w>
tremend ous</w>
pre vention</w>
deser ves</w>
V is
ome ter</w>
employ er</w>
dis closure</w>
us eful</w>
the dr
N ar
m ess</w>
ensur ing</w>
disa bled</w>
Dre am</w>
al arm</w>
loc k
ol o</w>
it em</w>
Cong olese</w>
tri be</w>
Inter state</w>
sol ely</w>
kon en</w>
form ers</w>
Beat les</w>
p assionate</w>
ch ronic</w>
ten se</w>
al- Bashir</w>
t son</w>
land scape</w>
Am ber</w>
entr ance</w>
Li ght</w>
juven ile</w>
P ul
colle ague</w>
Lat inos</w>
ra ided</w>
Res cue</w>
asser tion</w>
s mile</w>
requi rements</w>
la under
quarant ine</w>
2 4-
id el</w>
far ms</w>
G -
dres sing</w>
ol ph</w>
Politic al</w>
Ton ight</w>
w ishes</w>
l am
Ear ly</w>
Al ber
night club</w>
pain tings</w>
manag ers</w>
d ul
nin e-
ch ef</w>
tournam ents</w>
D ick
R as
ner- up</w>
night mare</w>
Cu omo</w>
Tr afford</w>
qui etly</w>
credi ble</w>
psych ological</w>
L ong
Wei bo</w>
O il</w>
L N</w>
Kut cher</w>
Uy gh
h oo
e able</w>
dead liest</w>
auster ity</w>
accid entally</w>
il ly</w>
I van</w>
deploy ment</w>
const antly</w>
A dri
di th</w>
Stu di
min i
every day</w>
sel ect</w>
Mel issa</w>
regul ation</w>
ch ers</w>
consul ate</w>
m aster
fl owing</w>
Ky r
tr um</w>
par ach
Rand y</w>
Cl au
exp anding</w>
Lor d</w>
R avi</w>
canc el</w>
employ ers</w>
hash tag</w>
Coun try</w>
re fin
en able</w>
o ked</w>
vi an</w>
I D</w>
effic ient</w>
aler ts</w>
exemp t</w>
n aked</w>
satis fied</w>
che aper</w>
Ch annel</w>
thous and</w>
compar ison</w>
ban ning</w>
ver sus</w>
earthqu akes</w>
Loo king</w>
com promised</w>
B ook</w>
B all
chur ches</w>
br on
territ orial</w>
re j
os .</w>
chec king</w>
c and
H P</w>
Pri son</w>
domin ant</w>
hard ware</w>
f asc
Hav ana</w>
cred its</w>
D ean</w>
Bir min
Birmin gham</w>
Gup ta</w>
anx iety</w>
Char lot
Rami rez</w>
oper atives</w>
H oms</w>
warran ts</w>
our selves</w>
ri ots</w>
Yon hap</w>
Sh in
Bh ut
1 10</w>
for ests</w>
197 2</w>
gren ade</w>
restric ted</w>
declar ing</w>
An y
ing itis</w>
ad ona</w>
Mar adona</w>
secre ts</w>
Dun n</w>
in di
ag le</w>
Me tro</w>
Geor gian</w>
dispat ched</w>
T IM
g ather</w>
En d</w>
govern mental</w>
st aged</w>
i ance</w>
bul lets</w>
Med ve
le e</w>
sub jected</w>
gl ob
mon t</w>
regre t</w>
deal ers</w>
ph er
Bra d</w>
liter ally</w>
C er
Par k
20 22</w>
s inking</w>
Kh ali
Arm en
confron ted</w>
on ds</w>
cop yright</w>
N S</w>
taxpay ers</w>
L ump
oc ol</w>
Tr ust</w>
M ack
land fill</w>
int endent</w>
licen sed</w>
Bl as
v s.</w>
under stands</w>
os ev
c el</w>
erg er</w>
obes ity</w>
deal t</w>
attribu ted</w>
achiev ement</w>
bri dges</w>
Hay den</w>
Santi ago</w>
de terior
Urugu ay</w>
p ts</w>
O cc
Con su
establ ishment</w>
Bar nes</w>
ris en</w>
Nus ra</w>
st ine</w>
G os
2 1-year-old</w>
D .</w>
sp aw
inst ances</w>
bas ically</w>
198 7</w>
Techn ology</w>
hos tile</w>
tradem ark</w>
le an</w>
Waz iri
sing ly</w>
plac ing</w>
E PA</w>
pr on
Mont g
har raf</w>
speci fied</w>
bet ting</w>
disa gree</w>
Flem ing</w>
impres sion</w>
s oft</w>
I L
ancell or</w>
J an</w>
Nichol son</w>
mis deme
open er</w>
dis charged</w>
K ash
col or
197 7</w>
F un
Be th
J .
sou l</w>
5 th</w>
Mul len</w>
i ums</w>
cont est
m ir</w>
aer ial</w>
reser v
ti de</w>
m ans</w>
t ner</w>
lun ar</w>
F ashion</w>
persu ade</w>
ju ris
Mc K
es c
or ia</w>
Tru e</w>
ens ic</w>
mour ning</w>
gall ons</w>
Jaz e
t emp
ri ot</w>
Good ell</w>
boo k
regist er</w>
gen ous</w>
pros titution</w>
198 5</w>
scre aming</w>
B y
M .</w>
- day</w>
Dha ka</w>
i sion</w>
Sen eg
F at
Gr ant</w>
dis man
Car ney</w>
Hill s</w>
tou m</w>
En gin
ass ure</w>
gli mp
re conc
treat ments</w>
Bud d
Town send</w>
fi anc
Guar dian</w>
Bec k</w>
bu rial</w>
W ong</w>
robber ies</w>
lef tist</w>
spe ech
7 9</w>
us cri
entr e</w>
st ock
a e</w>
ch enko</w>
g aining</w>
don ation</w>
Gu zman</w>
Ac tress</w>
Investig ation</w>
D anny</w>
T en</w>
B ap
kn ock
With in</w>
optimis tic</w>
alleg ing</w>
F ame</w>
Treas ury</w>
m ood</w>
Democr acy</w>
je op
Khal id</w>
nor thwestern</w>
Jaze era</w>
Mu eller</w>
lau gh</w>
Be au
Montg om
tom orrow</w>
prosecu ted</w>
re igning</w>
Vic tor</w>
eng ul
under -
Al var
ad ol
cust oms</w>
c ali
W it
H S
it ted</w>
i ary</w>
str ongh
- TV</w>
conven i
ish ments</w>
Re ports</w>
eth ics</w>
h ome
Shar if</w>
foot -
Stu art</w>
pur suing</w>
b ill
J eb</w>
j ab</w>
alter n
S occ
ri pped</w>
ver i
S now</w>
threat ens</w>
Jo an</w>
Hen son</w>
e .com</w>
D mit
break through</w>
rupt cy</w>
Med ina</w>
lic enses</w>
Rober tson</w>
sp an</w>
T ob
natur ally</w>
A i</w>
sist ing</w>
gi ants</w>
run ner-up</w>
Dre am
Bas que</w>
fle x
un t
spirit ual</w>
Chry sler</w>
Jef frey</w>
myster ious</w>
S ic
expl oring</w>
off shore</w>
establ ishing</w>
bath room</w>
Waziri stan</w>
b ai
har v
pr ay</w>
Kyr gy
high light</w>
exerc ises</w>
ner vous</w>
b os
predec essor</w>
Her itage</w>
st ad
Jer emy</w>
CNN .com</w>
ec </w>
Fu rious</w>
Gar d
ru ins</w>
Andre ws</w>
in her
R aw
w ich</w>
May er</w>
Socc er</w>
su res</w>
burgl ary</w>
S ao</w>
instru ments</w>
thro at</w>
ramp age</w>
198 1</w>
educ ated</w>
h all
el e</w>
d ancing</w>
Phot os</w>
str ous</w>
ball istic</w>
aim ing</w>
h ang</w>
r ington</w>
c z
s ne
co s</w>
sa in</w>
1 60</w>
Icel and</w>
barri er</w>
appro aches</w>
As sistant</w>
Ar ound</w>
g in</w>
inter nationally</w>
6 th</w>
G ig
resp ects</w>
ap ing</w>
jum ping</w>
Mus harraf</w>
c up</w>
Abb as</w>
vir al</w>
G ay</w>
co p</w>
join s</w>
abl o</w>
B ig
Sain ts</w>
past or</w>
tur bul
gun shot</w>
tho dox</w>
lik eli
ov es</w>
Stu dies</w>
tow ers</w>
dr ill</w>
P ablo</w>
ri fle</w>
am an</w>
ic ting</w>
impl ications</w>
ali ke</w>
10 0
char ter</w>
on c
pur suit</w>
elabor ate</w>
d- be</w>
a g</w>
deci sive</w>
comp are</w>
Res idents</w>
pic ks</w>
sig nal
C ould</w>
10 0-
bi ans</w>
G ome
Juli an</w>
Gu ang
imm une</w>
ambiti ous</w>
Har bor</w>
ash i</w>
po is
ri vers</w>
extrem ism</w>
Electr ic</w>
pl ate</w>
o thy</w>
B am
Ros si</w>
w ickets</w>
sh er</w>
if f
7 0s</w>
oy le</w>
per ed</w>
Oak land</w>
he im</w>
dis gu
ri ders</w>
nob ody</w>
col leg
K agan</w>
Jef fer
Liber ation</w>
dr inks</w>
ber y</w>
g ains</w>
Ed itor</w>
Vi k
tu </w>
man uscri
oun d-
c ats</w>
F E
foc uses</w>
hol id
Pi er
G M
sub scri
Fr ench
m amm
Cri tics</w>
separ ated</w>
sav ings</w>
Domin ican</w>
L ang
surve yed</w>
ad mit</w>
shar ply</w>
c ad
M az
forec asters</w>
C ow
X X
ref use</w>
f ounding</w>
Wor l
v o</w>
Sol ar</w>
col ors</w>
F A
in tru
gre g
R h
re venues</w>
it er</w>
aik konen</w>
dr af
he els</w>
s quar
dis miss</w>
B AR
Af fordable</w>
B eg
et a</w>
re views</w>
r age</w>
Pe tr
sal monella</w>
est ation</w>
adv ances</w>
ic ating</w>
en thood</w>
e th</w>
experim ent</w>
sal v
D im
z ni
Kham ene
Khamene i</w>
In spec
mal aria</w>
ti ming</w>
re open</w>
pris ons</w>
Hon or</w>
De ath</w>
mo il</w>
Hen ning</w>
comm ented</w>
re fer</w>
enn on</w>
Se par
av </w>
che ap</w>
coun ted</w>
oul d-be</w>
at orial</w>
trium ph
sequ el</w>
sac ri
acc uses</w>
Lyn ch</w>
McCar tney</w>
Consu mer</w>
memor able</w>
sc rap
ell es</w>
mar ry</w>
E ri
guid ance</w>
Islam ists</w>
pas sport</w>
P AC</w>
Mal awi</w>
E x</w>
N E
fl owers</w>
R aikkonen</w>
sli pped</w>
For um</w>
vol ume</w>
inv ent
Medve dev</w>
weigh ed</w>
Mali k</w>
bid ding</w>
si ght
gest ure</w>
Hun ger</w>
Lot us</w>
stup id</w>
Y am
fl at</w>
Quin n</w>
Nam ib
indic ating</w>
ke e</w>
anonym ity</w>
tum or</w>
i OS</w>
Qu est</w>
1. 6</w>
Kor eans</w>
the id</w>
confid ential</w>
Wal ters</w>
me g
mos t-
humil i
al lege</w>
D oes</w>
administr ators</w>
es cor
J eff
sub mit</w>
b old</w>
s ang</w>
char ts</w>
L ah
k ri
ann on</w>
d ale</w>
cul tiv
in dex</w>
Tit anic</w>
Israel is</w>
ar ts</w>
min ster</w>
M O
ab i
L E</w>
con fusion</w>
ch ocol
Que ens</w>
P atriot</w>
tor ch</w>
um -
Mon te</w>
sh ocking</w>
un fol
bron ze</w>
j i</w>
sh aped</w>
cul min
premi er</w>
Wom an</w>
di verse</w>
ish a</w>
Re fug
Boy le</w>
inv est</w>
attr active</w>
Wo zni
Qa ed
Ku ala</w>
S ach
T V
urr ed</w>
Augu sta</w>
A OL</w>
king dom</w>
ass ur
exam ination</w>
Emil y</w>
Par ish</w>
lov ing</w>
197 6</w>
Ma ur
Ar ena</w>
Sh are</w>
An n</w>
n ar
implem enting</w>
acc ord
clim bed</w>
pres ents</w>
Boy s</w>
roll er</w>
hol y</w>
Kir chner</w>
196 1</w>
Pow er
t any</w>
st amp</w>
vi br
at ol
consul tant</w>
ment ally</w>
war m
compl iance</w>
T ak
us al</w>
Bos ni
en de
man -
initi atives</w>
ep ic</w>
under going</w>
Ru pert</w>
St utt
b and
Brit tany</w>
sen ds</w>
ak h
Mit ch</w>
men ingitis</w>
di um</w>
Red dit</w>
our ce</w>
6 ,
dec ad
end uring</w>
play off</w>
tur moil</w>
Mac au</w>
Vi enna</w>
dru g-
K i-
friend ship</w>
el ement</w>
inten do</w>
conc e
r ings</w>
exten ding</w>
boy cott</w>
El -
r aging</w>
Stutt gart</w>
el- Sisi</w>
Hon da</w>
J al
sa d
Ch ancellor</w>
tr ak</w>
C ot
frustr ation</w>
C lo
Hu ff
spar ed</w>
30 0,000</w>
John ny</w>
Di dier</w>
Am trak</w>
P il
50 0,000</w>
17 th</w>
bun ch</w>
F i</w>
N intendo</w>
Re yn
H O
dol ph
pl un
st rain</w>
end ar</w>
dest ro
ac ed</w>
I an</w>
B ever
bot tle</w>
ri val
har t</w>
Valent ine</w>
appreci ate</w>
Curr ently</w>
tr ain
6- 0</w>
mu d</w>
D awn</w>
Pri or</w>
L and</w>
settl ements</w>
high lighted</w>
un identified</w>
grand son</w>
gam bling</w>
Co alition</w>
experi encing</w>
Z en
radio active</w>
reser ve</w>
sid y</w>
i di
uni verse</w>
cab les</w>
new s
McA fee</w>
E mp
priv ately</w>
Gome z</w>
11 th</w>
mur dered</w>
exam iner</w>
ti se</w>
implem entation</w>
direc ting</w>
Win frey</w>
contribu ting</w>
Def ence</w>
rescu ers</w>
bad ly</w>
Carol ine</w>
g ard</w>
Br ow
emb ry
exist ed</w>
ah i</w>
Belgi an</w>
M oy
on ist</w>
am ent</w>
H ad
Col eman</w>
Hou thi</w>
surpri singly</w>
A FP</w>
dis appointment</w>
counsel ing</w>
cle an
Ch ambers</w>
Kash mir</w>
sp i
desper ately</w>
discipl inary</w>
E li
H od
Iraq is</w>
th anked</w>
arr ay</w>
eleph ants</w>
prot ective</w>
poll o</w>
A pollo</w>
B ran
air strike</w>
indi genous</w>
13 -year-old</w>
os pace</w>
C avi
Cavi ar</w>
evacu ate</w>
us s</w>
Y ears</w>
P oint</w>
er b
bel ong</w>
Ch ang
P R
att ara</w>
ou ster</w>
umb er</w>
con vention</w>
advis ory</w>
S ex
Sur vi
streng th
sub -
Lump ur</w>
Thir d</w>
T ol
Pic tures</w>
Ul ti
par all
dis on</w>
wh is
Ro osev
AL S</w>
S ir</w>
ali on</w>
oh a</w>
ti ous</w>
Lam bert</w>
Dani els</w>
bel oved</w>
R un
un constitutional</w>
out spoken</w>
inter v
Jeff s</w>
ch ann
K ate</w>
Mon ey</w>
spaw ned</w>
N ap
sk ep
retary- General</w>
belong ed</w>
Occ up
P at</w>
sli p</w>
emb race</w>
put t</w>
Br os.</w>
S eg
thedr al</w>
def ault</w>
sti r
avo ided</w>
NO AA</w>
3 2-year-old</w>
Cop yright</w>
Russi an-
u sive</w>
Sp id
ak ia</w>
achiev ements</w>
comm emor
colli ded</w>
construc ted</w>
- related</w>
Nic ar
Nicar agu
brief ed</w>
grand father</w>
conv ince</w>
enti a</w>
sacri fic
Re porter</w>
perc eption</w>
th ma</w>
Se th</w>
ic tion</w>
cre atures</w>
os a</w>
progr amming</w>
Mar ket</w>
z able</w>
spec trum</w>
month ly</w>
e fire</w>
PEOP LE
endor s
mar tial</w>
Namib ia</w>
Ben nett</w>
s er</w>
Sec retary-General</w>
it e-
Get ty</w>
them ed</w>
A rea</w>
Sau ber</w>
f ting</w>
Vo ice</w>
id an</w>
per -
Lyn n</w>
isol ation</w>
see kers</w>
top ic</w>
id arity</w>
pleas ure</w>
An a</w>
emb attled</w>
.g ov</w>
Afgh ans</w>
fa x</w>
cre ates</w>
ste el</w>
2- 2</w>
dynam ic</w>
S m
w ould-be</w>
asp ects</w>
ann ers</w>
tril lion</w>
Mot ors</w>
g os
ro om
j ev
cl ed</w>
pour ed</w>
Rich mond</w>
ban king</w>
ty phoon</w>
op ard</w>
N ebr
K it
Col um
197 4</w>
Sp ears</w>
Ad en</w>
c ure</w>
Hor izon</w>
provi der</w>
Con sul
B it
r ent</w>
stand off</w>
D ob
Tw ent
trail ing</w>
N as
Ster n</w>
su preme</w>
Ric a</w>
Cre ek</w>
b erger</w>
Ro om</w>
Kob ani</w>
s ar
am ate
Al bert</w>
196 5</w>
bel ongs</w>
Gin gr
b ak
re sted</w>
with drew</w>
S r.</w>
ur ge</w>
C en
D ana</w>
trans formed</w>
cont enders</w>
E SP
ESP N</w>
Pres ley</w>
end ured</w>
m m</w>
termin al</w>
replac ing</w>
med ications</w>
Roosev elt</w>
ed o</w>
D oyle</w>
sum m
Hol ly</w>
militi as</w>
Every one</w>
Ped ro</w>
9 0s</w>
masc ot</w>
insi st</w>
Lu ther</w>
scor er</w>
rem embers</w>
og y</w>
shir ts</w>
Bet ween</w>
H anks</w>
prot ested</w>
sugg estions</w>
CE F</w>
UNI CEF</w>
R est
bir d</w>
au c
t ap</w>
Bal let</w>
ar di</w>
Ch ange</w>
Wor kers</w>
coo k
genu ine</w>
sc ope</w>
i ents</w>
N un
ceas efire</w>
shar ks</w>
ser ial</w>
p atch</w>
s ch</w>
ref using</w>
shoot out</w>
electr onics</w>
5 ,
no ise</w>
H at
concer ning</w>
en ly</w>
nickn ame</w>
ap h
short age</w>
il i</w>
s ely</w>
P ad
ug ly</w>
Is sa</w>
ass ess</w>
sti g
ligh ting</w>
De ep
H aj
coun tr
ai res</w>
am e
kill ers</w>
hun ting</w>
DE NT</w>
of ol</w>
Medic are</w>
M anc
exclu sively</w>
Fl oss</w>
Ba e</w>
gam ers</w>
A zer
inst ability</w>
al- Shabaab</w>
predomin antly</w>
hol der</w>
stom ach</w>
bu yers</w>
re tained</w>
level ed</w>
any on</w>
ph ic</w>
Montgom ery</w>
w ings</w>
effic iency</w>
in y</w>
Ou attara</w>
Azer bai
arrang ements</w>
o to</w>
Happ y</w>
perman ently</w>
27 -year-old</w>
stit utes</w>
open ha
C openha
AC L
ACL U</w>
tr ash</w>
dep end</w>
si sted</w>
depend ence</w>
di ves</w>
pri x</w>
K har
es cope</w>
phenomen on</w>
open -
war k</w>
the by</w>
So theby</w>
ch op
8 ,
ti ger</w>
S earch</w>
0 7</w>
f inger</w>
ic ious</w>
un fortunately</w>
e ah</w>
bu ster</w>
fil es</w>
J acqu
part ly</w>
M A</w>
20 s</w>
C oh
ori entation</w>
Ry der</w>
box ing</w>
separ ation</w>
Bel ize</w>
Eur ov
Kir k
fil ming</w>
conver ted</w>
spe eds</w>
ad mission</w>
P ayne</w>
Colum bus</w>
har med</w>
colleg es</w>
Steph anie</w>
count less</w>
Pear l</w>
Lah ore</w>
et on</w>
Sot om
Sotom ayor</w>
B and</w>
shad ow</w>
w ire</w>
counter -
Bus ch</w>
re productive</w>
pre ferred</w>
Associ ated</w>
Play er</w>
West minster</w>
H ub
appro aching</w>
Mu j
C inc
he igh
jour nal</w>
Ren o</w>
Abra ham</w>
traffic kers</w>
gu ided</w>
Kum ar</w>
- off</w>
mit ting</w>
Offic ers</w>
B an
under go</w>
marg in</w>
z on</w>
H and
Contin ental</w>
corpor ations</w>
tel ec
near -
convic tions</w>
cler k</w>
E to</w>
el ty</w>
Mo di</w>
abor tions</w>
. 5</w>
Gingr ich</w>
Bank sy</w>
un fair</w>
sign als</w>
pilgri ms</w>
M aine</w>
Fed Ex</w>
resu med</w>
compe tent</w>
P F</w>
p el</w>
Stud ents</w>
9 1</w>
Categ ory</w>
Rel ief</w>
pro claimed</w>
monit ored</w>
pol ar</w>
ow -
eth eless</w>
sid ed</w>
Mu st
K aka</w>
ban e</w>
Stan ley</w>
crow ned</w>
motor cycle</w>
bag bo</w>
G bagbo</w>
Fif ty</w>
ste en</w>
196 4</w>
th eless</w>
ab using</w>
Ch ase</w>
Qaed a-
B in</w>
wor ries</w>
di min
bi as</w>
stri p</w>
we i</w>
quali fi
depl oy</w>
Ibra him
decre ase</w>
life- threatening</w>
pour ing</w>
T em
ha d
D own</w>
o ac
diam onds</w>
list ing</w>
recru iting</w>
Eurov ision</w>
th ieves</w>
s mil
sh ells</w>
M ill
rel oc
car ded</w>
Cen sus</w>
ou ds</w>
9 0
categ ories</w>
Reyn olds</w>
us sel
f at</w>
cab in</w>
ear y</w>
misdeme anor</w>
fit ness</w>
b ans</w>
R ain
Citi zens</w>
Hondur as</w>
collabor ation</w>
gr ati
t t
Arn old</w>
organiz ing</w>
Fin land</w>
Am an
Clo oney</w>
revol utionary</w>
Gen er
den ying</w>
he ated</w>
Wat er
Europ eans</w>
OR C</w>
Cann on</w>
H il
C emetery</w>
G and
b iting</w>
v est
bott les</w>
defin ition</w>
Tog ether</w>
AE G</w>
Be ing</w>
Bud get</w>
mo de</w>
kil ometer</w>
sum ing</w>
contribu tions</w>
U R
Nebr aska</w>
u als</w>
V el
6 0,000</w>
Ki- moon</w>
Huff ington</w>
tr ends</w>
T our
al- Awlaki</w>
ast y</w>
Kel ley</w>
reg istr
v ent</w>
F CC</w>
2 1st</w>
K ap
teen agers</w>
commun ist</w>
197 3</w>
net ted</w>
bur den</w>
ran som</w>
differ ently</w>
Cav en
bl asted</w>
exper tise</w>
Oper ations</w>
re opened</w>
Ch o</w>
Leon ard</w>
Ne ill</w>
ly r
land fall</w>
Sh ia</w>
reiter ated</w>
l ash</w>
Pri us</w>
exam ples</w>
over weight</w>
arri ves</w>
ver ify</w>
ate gies</w>
um es</w>
og n
maj ors</w>
applic ants</w>
H ours</w>
bank ruptcy</w>
b our</w>
Kay mer</w>
G mail</w>
7 8</w>
con sen
Seneg al</w>
dr ills</w>
di men
Jord anian</w>
Wal mart</w>
at able</w>
challeng er</w>
pr o</w>
concentr ation</w>
Arab ic</w>
hel p
Ful l</w>
de fl
right- wing</w>
holid ays</w>
bir ds</w>
inform ant</w>
Par enthood</w>
st ays</w>
S aid</w>
insurg ent</w>
promo tion</w>
th- placed</w>
Leon ardo</w>
or deal</w>
Khali fa</w>
sim pl
trans actions</w>
certi fic
tal g
Ex change</w>
disa strous</w>
sol ved</w>
ex- wife</w>
pres sion</w>
cha irs</w>
K r
car eful</w>
K K</w>
17 -
Sar a</w>
Fried en</w>
industri es</w>
L .</w>
198 3</w>
ad rift</w>
Tur ner</w>
Caven dish</w>
dep th</w>
9 4</w>
eval uation</w>
high- level</w>
un manned</w>
sc r
sc an</w>
Ne wark</w>
moun ted</w>
coordin ator</w>
U C
launder ing</w>
improv ement</w>
nit ure</w>
An ton</w>
R at
spr int</w>
independ ently</w>
Ibrahim ovic</w>
guaran te
Mad ison</w>
desig ns</w>
glimp se</w>
Met e
Gall ery</w>
re ven
out going</w>
Ty phoon</w>
ac es</w>
M emp
Memp his</w>
Pakist anis</w>
der by</w>
sa dd
S it
Mo der
prin ted</w>
o x</w>
likeli hood</w>
V inc
lab els</w>
enab led</w>
su rely</w>
T ev
Mo on</w>
gener ate</w>
Cr own</w>
ke en</w>
dis par
f th
el ve</w>
ul ating</w>
Minne apolis</w>
car eers</w>
Di ane</w>
J un
mun ic
R um
decl are</w>
erup tion</w>
prof essors</w>
ell ar</w>
Bes ides</w>
Aman pour</w>
prov oc
loy alty</w>
Ma o
in tr
th um
stri pped</w>
mob </w>
dest abil
pre su
Sand berg</w>
l aser</w>
t us</w>
clin ics</w>
An bar</w>
Nor ton</w>
i bility</w>
cler ic</w>
ber ry</w>
cr ushed</w>
practic al</w>
over time</w>
C o</w>
hi p-
hous ed</w>
an thro
prop ofol</w>
Plan ned</w>
Par ks</w>
Est onia</w>
lat e-
spec ially</w>
under wear</w>
ass ic</w>
Wh atever</w>
Afric ans</w>
enh anced</w>
iRe porter</w>
introduc tion</w>
fur niture</w>
st al
p age
perf ec
Jeffer son</w>
conserv ation</w>
E ast
Copenha gen</w>
St ef
Pro position</w>
show down</w>
agre es</w>
peace keeping</w>
it ations</w>
two- time</w>
laun ches</w>
N ab
Har rington</w>
Jac ob</w>
o ying</w>
Dre w</w>
5 0-
Brand on</w>
mon itors</w>
ans a</w>
declar ation</w>
counter part</w>
Den ise</w>
Th anks</w>
in ka</w>
min es</w>
ind al</w>
poc ket</w>
k ara</w>
Bil ly</w>
and er
ne ts</w>
J ay-
perfec tly</w>
trans form</w>
st ole</w>
Pear son</w>
F ish</w>
g ering</w>
W I
ab is</w>
C T</w>
occas ion</w>
Har rison</w>
three- day</w>
R et
cont ains</w>
T ac
Gl as
Bar cl
Barcl ays</w>
N ation</w>
3. 5</w>
C C
Laz io</w>
fast- moving</w>
Ham burg</w>
sp ur</w>
retali ation</w>
stre ak</w>
d ged</w>
P atter
G el
defe ating</w>
ang ir
ar et</w>
speech es</w>
u tility</w>
co in</w>
down load</w>
- American</w>
rel la</w>
l oot
si de
susp end</w>
Jay- Z</w>
gu </w>
larg e-
Spid er-
Y ang</w>
present ation</w>
Be yond</w>
Figh ting</w>
Christ ina</w>
Rang el</w>
retail ers</w>
ac ademy</w>
Studi os</w>
mour ners</w>
Cap ital</w>
til lo</w>
1. 4</w>
195 0s</w>
V ogue</w>
aster oid</w>
respon ses</w>
Bi ble</w>
Medic ine</w>
out lined</w>
hard est</w>
ri o</w>
ron ic
mer ce</w>
ment or</w>
In St
authen tic
ud ed</w>
Man ager</w>
five- year</w>
ecti ous</w>
un fortunate</w>
N y
wid ow</w>
Tev ez</w>
deal er</w>
D ig
Al most</w>
Sin ai</w>
d awn</w>
re vers
invest ments</w>
cr ush</w>
k ova</w>
Con nor</w>
N atur
an ut</w>
transpar ent</w>
Ag ainst</w>
pr oli
ro bo
dis plays</w>
Kath man
I dah
sp are</w>
V ie
l ec
Trans formers</w>
Gl ass</w>
T ul
im min
entreprene ur</w>
der land</w>
distur bing</w>
ro id</w>
Sha h
Jo y</w>
fundra ising</w>
ag ging</w>
Blas io</w>
gu ess</w>
re treat</w>
N ever
conveni ence</w>
Mon tre
ti me-
for ensic</w>
hand cu
ri an</w>
Idah o</w>
sh ine</w>
Pl us</w>
y gen</w>
B ale</w>
E sc
head line</w>
T O
Ste in</w>
Mar itime</w>
St ock
Pal mer</w>
Sn ap
conf used</w>
e over</w>
res ur
enh ance</w>
symbol ic</w>
sm ashed</w>
P ink</w>
Pi ers</w>
succeed ed</w>
oper ative</w>
de port
sec uring</w>
Mich oac
contain ers</w>
predic ts</w>
Bever ly</w>
D om
is ville</w>
D a
reven ge</w>
H LN</w>
in famous</w>
McC ul
Pic ture</w>
arre al</w>
Har t
Sh en
grad ually</w>
buc ks</w>
dir ty</w>
ah ar</w>
Dem p
yn n</w>
ag o
Co de</w>
Spec tor</w>
d ancers</w>
pip e</w>
Fin ance</w>
Laur ent</w>
Sc ore</w>
F idel</w>
r ati
cu b</w>
Juli a</w>
revi ve</w>
Fl ash</w>
stre aming</w>
stamp s</w>
r ard</w>
T ell</w>
Mus k</w>
L ak
Gl en
charg ing</w>
event ual</w>
wrec k</w>
Azerbai jan</w>
Dri ve</w>
hand -
thr illed</w>
- fi</w>
Ow en</w>
Car ol</w>
Nor man</w>
instruc tions</w>
green house</w>
Moroc co</w>
deleg ates</w>
asp ect</w>
pap er
sion ary</w>
i que</w>
f oods</w>
inv itation</w>
command os</w>
Ra qq
cli p</w>
He ad</w>
cro p</w>
k e-
P atriots</w>
gol den</w>
deliber ately</w>
oppos ing</w>
by e</w>
accompl ished</w>
ste ad
bish op</w>
hab its</w>
Hob bs</w>
eth ical</w>
le ather</w>
H TC</w>
mak eup</w>
Kathman du</w>
op poses</w>
12 ,000</w>
respon sibilities</w>
viol ate</w>
war ship</w>
Mal dives</w>
y side</w>
Hel mand</w>
Res ort</w>
Kar en</w>
def enders</w>
feed ing</w>
ti a</w>
Ex per
f ut
me al</w>
proc eed</w>
Tra vel
contr ary</w>
S ure</w>
G M</w>
rad ar</w>
Luc as</w>
x -
s ong
D ur
W er
un d
O z
inc ar
R .</w>
disc over</w>
Deep water</w>
Vill arreal</w>
Bor n</w>
r allies</w>
re viewed</w>
es on</w>
cap su
A U</w>
D ad</w>
cal endar</w>
Hung ary</w>
sp oon</w>
orph an
U -
t all
Ethiop ian</w>
rec re
Montre al</w>
Gl oria</w>
hip- hop</w>
fic tion</w>
ic o</w>
re actions</w>
renew able</w>
jok es</w>
Paralymp ic</w>
an- American</w>
ran k</w>
acad emic</w>
B ad</w>
car dinals</w>
l one</w>
inj ection</w>
ic y
fl eck</w>
Mid west</w>
Oli ver</w>
Europ a</w>
mom s</w>
mi th</w>
sa bot
Gu ill
Bri s
Bris bane</w>
Mir anda</w>
sum ably</w>
hu g
reluc tant</w>
sadd ened</w>
ac les</w>
under mine</w>
and ahar</w>
pr ince</w>
dri ves</w>
sa fe
rob ust</w>
IC C</w>
tou ching</w>
b ids</w>
And re</w>
P op</w>
Ch em
whe el
rac ially</w>
second- largest</w>
W as</w>
g y</w>
lifel ong</w>
duc k</w>
eur os</w>
L ob
ag ne</w>
commit tees</w>
ang le</w>
Car tel</w>
reck less</w>
n as
Bhut to</w>
pri est</w>
i us</w>
at roc
Tom my</w>
trou bling</w>
bran ches</w>
ut ter</w>
D arren</w>
after ward</w>
Tr in
Chil d</w>
en ni
N L</w>
gru esome</w>
Car rie</w>
Sant ana</w>
migr ant</w>
Mal aga</w>
M a</w>
u an</w>
conclud e</w>
cop y
vis ed</w>
l ou
r ack
manuscri pt</w>
ey e
execu tions</w>
adop tions</w>
br ick</w>
liz z
RI PT</w>
SC RIPT</w>
AN SCRIPT</w>
transl ation</w>
L H
elim inate</w>
ing o</w>
war ships</w>
di g</w>
large- scale</w>
ser ver</w>
tal ented</w>
f am</w>
turn out</w>
strongh old</w>
cre ativity</w>
rail way</w>
2 4-year-old</w>
T ut
sear ches</w>
def enses</w>
cr acked</w>
R ace</w>
C oo
Gill ard</w>
E F
T es
Christ ine</w>
un acceptable</w>
Ni el
st abil
doc k</w>
Mar t</w>
stun t</w>
mel t
d il
Park inson</w>
stem ming</w>
Ke ys</w>
quarter back</w>
sha king</w>
inj iang</w>
f oul</w>
jack pot</w>
esp ear
war n</w>
le .com</w>
ac ious</w>
Lou isville</w>
ab outs</w>
cr ying</w>
tri ple</w>
detain ee</w>
Lu fth
consid ers</w>
angir ai</w>
v angirai</w>
mo di
Fr ost</w>
stat e
fac tions</w>
en kamp</w>
Ste enkamp</w>
P an</w>
oo d-
dist ingu
T anz
L ook</w>
recogni zing</w>
sec ular</w>
J arre
Var iety</w>
premi um</w>
k el
cl ave</w>
hug ely</w>
os ti</w>
Nov osti</w>
bit r
gre gate</w>
Coh en</w>
ff ers</w>
war- torn</w>
le aning</w>
w is
fol k</w>
atroc ities</w>
tw in</w>
s acked</w>
ep tions</w>
ey ebr
h ack</w>
bl oc</w>
gri ev
traditi onally</w>
D O
Ob viously</w>
IT Y</w>
gu s</w>
id ity</w>
re aches</w>
hom icide</w>
sub jects</w>
cas ino</w>
sh y</w>
N ag
produc es</w>
in ating</w>
dec ree</w>
gard less</w>
Demp sey</w>
S id
Tr af
Indu stry</w>
pl o
bo ots</w>
four- year</w>
kidn app
Ed win</w>
up held</w>
stic king</w>
ro ver</w>
off ender</w>
compl y</w>
ver age</w>
H i
ounc ing</w>
struggl es</w>
in stitute</w>
Gram my</w>
integr ated</w>
over see</w>
cour thouse</w>
den ial</w>
ol eum</w>
ell ec
12 -year-old</w>
ev angel
Vir gin</w>
vit ova</w>
plat forms</w>
Concor dia</w>
pl ain</w>
ech oed</w>
ame work</w>
immin ent</w>
3 0s</w>
experim ental</w>
car pet</w>
K andahar</w>
Bl ues</w>
Serb ian</w>
as so</w>
recip ients</w>
gre eted</w>
J a
K vitova</w>
ox ygen</w>
Mor si</w>
accommod ate</w>
Stri p</w>
196 7</w>
coordin ated</w>
Ox fam</w>
Appe als</w>
Meg an</w>
t ations</w>
TR ANSCRIPT</w>
Ethiop ia</w>
Franc o</w>
Res earchers</w>
h tt
Mc In
enti tled</w>
Tibet ans</w>
glob ally</w>
d owns</w>
May weather</w>
p atri
catastro phic</w>
Rom ero</w>
ri er</w>
L ennon</w>
c ept</w>
Some times</w>
A guil
agric ulture</w>
. J.</w>
7 87</w>
Tun es</w>
i Tunes</w>
Wi -
R oyce</w>
Re gardless</w>
ha ir
station ed</w>
tro oper</w>
occup ation</w>
gl ory</w>
Niel sen</w>
oblig ation</w>
ri eu</w>
Land rieu</w>
Bas eball</w>
Bro thers</w>
th y
har ds</w>
p y
B ac
help ful</w>
mo dest</w>
F argo</w>
ag les</w>
refu ge</w>
cop y</w>
kil o
Sum mit</w>
Ste el</w>
I NG</w>
od a</w>
ic ing</w>
ex tor
pros per
Dam on</w>
diffic ulty</w>
fa ult</w>
intenti onally</w>
rec eption</w>
ali zes</w>
Ger mans</w>
Lufth ansa</w>
N or</w>
inf eld</w>
exp elled</w>
Shak espear
ingredi ents</w>
appl au
trib es</w>
al g
os oph
diver ted</w>
emb ar
Moy es</w>
er able</w>
h amm
w oods</w>
Ru iz</w>
roll ment</w>
for th</w>
H ook</w>
U.S.- based</w>
ran g</w>
Hen derson</w>
Croati an</w>
Z et
A id</w>
Ni ke</w>
en force</w>
St ory</w>
m al</w>
Elec toral</w>
ke ted</w>
Z ard
sp in</w>
Tha k
s ells</w>
P .</w>
pack ages</w>
aspir ations</w>
dec ides</w>
o ids</w>
ret t</w>
blood shed</w>
Avi v</w>
en ever</w>
emp ire</w>
un doub
Bel fast</w>
H ir
Sy n
contin ental</w>
Ger rard</w>
bo ot</w>
ing ent</w>
Wy oming</w>
prin table</w>
s ounded</w>
recomm end</w>
ne u
Af fleck</w>
T as
free ze</w>
sc are</w>
K ey
G S</w>
public ity</w>
ep ic
financ ing</w>
Commit tees</w>
Em my</w>
go -
Fre d
E igh
coll ecting</w>
predic table</w>
re build</w>
gun ned</w>
activ ated</w>
inten ds</w>
Tro pical</w>
Kh mer</w>
releg ation</w>
squ e
lit zer</w>
D el</w>
inf ant</w>
Li p
Ad ministr
des k</w>
re act</w>
Sh annon</w>
sm ok
be tr
vide ot
convinc ing</w>
man sion</w>
H ak
X injiang</w>
Haw king</w>
N a
I V
fail ures</w>
o ath</w>
A Q
G ross</w>
M S
insp iring</w>
sal aries</w>
o ples</w>
f itting</w>
C anyon</w>
pro- democracy</w>
dis qualified</w>
C ay
buc ket</w>
rele ases</w>
fam ed</w>
impres sed</w>
Tim othy</w>
hot test</w>
blog ger</w>
Com merce</w>
HS BC</w>
St op</w>
18 0</w>
se ated</w>
star t-
cap ability</w>
at re</w>
Wol f
no tion</w>
Nor theast</w>
divi de</w>
T MZ</w>
cl ot</w>
Nichol s</w>
gol fer</w>
y en</w>
Tim eline</w>
sl ated</w>
Tig ers</w>
C oul
over sight</w>
re fr
coun ters</w>
rav aged</w>
B att
ac ute</w>
infl ation</w>
Moder n</w>
over haul</w>
tor tured</w>
gr ab</w>
bul ls</w>
acknowle dge</w>
fro zen</w>
196 2</w>
guarante ed</w>
ou tri
outri ght</w>
ide ology</w>
F ans</w>
imm unity</w>
bil lionaire</w>
gr ass
H ick
er men</w>
Mete or
self- defense</w>
Se y
WI RE
WIRE D</w>
Bec ker</w>
Cas sidy</w>
htt p</w>
Fi or
dum ped</w>
deep er</w>
May o</w>
s eller</w>
er ad
one- day</w>
Par agu
phr ase</w>
deliver ing</w>
pharm acy</w>
op ted</w>
canc ell
e house</w>
inv ested</w>
inclu sion</w>
any e</w>
ob st
bel t</w>
Ric hards</w>
re d-
l ery</w>
Du gard</w>
direc tive</w>
30 -year-old</w>
Famil ies</w>
Sal t</w>
But ton</w>
Bagh d
V oting</w>
not ori
M all</w>
t ability</w>
connec ting</w>
Sou theast</w>
T el</w>
K ings</w>
surg ical</w>
pi vot
umm ings</w>
Fal ca
frau dul
shi eld</w>
tru ce</w>
P ick
contribu tor</w>
man if
Zard ari</w>
H anna</w>
Sch mid
cen sor
S ne
p ants</w>
n ist</w>
H it
1 ,0
U sher</w>
S event
debu ted</w>
Mar tha</w>
C lif
R ather</w>
bl ings</w>
Dmit ry</w>
I E
ul tr
Pier re</w>
tab lo
mor t
accep ting</w>
exc eed
medic ines</w>
bus h
poss essing</w>
av a</w>
os is</w>
Ts vangirai</w>
cor oner</w>
M oss</w>
insp ected</w>
en acted</w>
reg im
Greg ory</w>
tis tic</w>
R acing</w>
Bul lock</w>
Cham ber
Sh u
ro d</w>
doub le-
M att
patter ns</w>
an n</w>
In dependent</w>
mp ing</w>
la st-
u sage</w>
de struc
st ones</w>
Under wood</w>
dro ps</w>
ex trad
our ke</w>
du ardo</w>
E duardo</w>
co aster</w>
meteor ologist</w>
th less</w>
air -
ch unk</w>
G aga</w>
C ummings</w>
rela x
C A</w>
stor ed</w>
al arming</w>
Falca o</w>
Tw elve</w>
L ef
S iro</w>
am ine</w>
loc als</w>
pros thetic</w>
Mc G
sanc tioned</w>
Hum ph
ab sor
excep tional</w>
Spider- Man</w>
undoub tedly</w>
thre sh
thresh old</w>
amate ur</w>
tu be</w>
as thma</w>
Bro oke</w>
acqu ired</w>
mag ic</w>
Ric o</w>
en countered</w>
Rid ge</w>
Sh ore</w>
bo oming</w>
A la
ous ness</w>
cri p
heav y
ri que</w>
H err
juris diction</w>
porno graphy</w>
negoti ated</w>
pol y
consider able</w>
veget ables</w>
favor able</w>
cr ashes</w>
assu med</w>
Wi- Fi</w>
G as</w>
peac efully</w>
N C</w>
Mans our</w>
ar ena</w>
def un
exten ds</w>
I V</w>
Ten sions</w>
d owned</w>
B orders</w>
S erg
p he
Carac as</w>
life boat</w>
K os
Bl anc
as ive</w>
Th or
where abouts</w>
197 5</w>
wal d</w>
Se infeld</w>
dr owned</w>
Rig by</w>
Ti kri
Pun jab</w>
Hung arian</w>
lo g</w>
L ower</w>
intensi fied</w>
g ad
sor ts</w>
be heading</w>
bu si
G B</w>
gradu ated</w>
el ka</w>
char t</w>
im per
practic ing</w>
t asks</w>
anti- Sem
ref usal</w>
suppl ements</w>
deliber ate</w>
Th ings</w>
Kur ds</w>
B ed
cr iter
param ed
es hi
ex ternal</w>
W oo
i ano</w>
li ver</w>
Patter son</w>
Stand ard</w>
M H
Sic hu
Min t</w>
en rollment</w>
K om
em atic</w>
trav ag
12 .
legisl ature</w>
Chen g</w>
ash a</w>
L is
rel ate</w>
Occup y</w>
plan ted</w>
ri dic
10 .
se d
ic idal</w>
Coul son</w>
Glas g
be aring</w>
lion aires</w>
R ourke</w>
all o</w>
s ance</w>
Ab del
Kim ber
st aging</w>
car ing</w>
Pot ro</w>
mus icians</w>
f on
wh ist
R az
Tikri t</w>
C entre</w>
bol ster</w>
ide al</w>
8 00-
O val</w>
al o</w>
battle field</w>
Bl u
195 3</w>
class ical</w>
far mer</w>
I P</w>
D i</w>
Or thodox</w>
over ished</w>
Paragu ay</w>
mountain ous</w>
ous se
Per u
f ecture</w>
Star bucks</w>
amph i
Eur os
harm ful</w>
Den g</w>
Arsen e</w>
F on
Au tos</w>
ro iled</w>
tw ist</w>
et ti</w>
co operate</w>
on- based</w>
si sts</w>
Bl ake</w>
M ain
is ms</w>
- time</w>
e tr
cro ps</w>
spac es</w>
nos talg
ex ams</w>
f ashi
E cc
un successful</w>
4- 2</w>
dict ator</w>
anticip ation</w>
es a</w>
Spring steen</w>
par aly
tri gu
ra d</w>
tro op</w>
sh ook</w>
sh ocks</w>
Wal ton</w>
im a</w>
narr owly</w>
inf ectious</w>
au d
Har l
bu m
compon ents</w>
h ang
Br ussel
gas ol
H an</w>
m ic</w>
P i</w>
competi tions</w>
Michoac an</w>
m aps</w>
ir us</w>
es is</w>
gu a</w>
mor tality</w>
Viet nam
form at</w>
Pe tra</w>
mag az
phys ician</w>
Stat ue</w>
grap h</w>
cann abis</w>
big -
Chamber lain</w>
e ter</w>
t ful</w>
appropri ately</w>
uc lear
Sichu an</w>
ti pped</w>
tr acked</w>
Cor m
Ben z
direc tions</w>
Ex p
pan ic</w>
tis sue</w>
ensur ed</w>
DV D</w>
li ti
po dium</w>
but ter</w>
jer sey</w>
l oud</w>
Lan za</w>
ack i</w>
No thing</w>
Mon ica</w>
mon arch</w>
ton ight</w>
controll ing</w>
c enter
ch icken</w>
law ed</w>
B e</w>
off in</w>
ong a</w>
suppor ter</w>
favor ites</w>
ad j
3 4-year-old</w>
John ston</w>
Conserv ation</w>
shoul ders</w>
dis ruption</w>
apar theid</w>
Sea World</w>
Sp a</w>
Vik tor</w>
War wick</w>
A P
fli es</w>
mis leading</w>
le stone</w>
ster e
anti- gay</w>
horri ble</w>
Nic ole</w>
confir ms</w>
epic enter</w>
sid ents</w>
y mar</w>
Ne ymar</w>
ow ning</w>
administr ator</w>
Lev ine</w>
7 7
El le</w>
St on
Du chess</w>
imp overished</w>
evacu ations</w>
lay er</w>
with drawn</w>
S NL</w>
fire fighter</w>
b ach</w>
per taining</w>
Twent y-
Cli ff</w>
color ful</w>
fam ously</w>
contr ac
Sou th
back lash</w>
patr oll
c ent</w>
imag ined</w>
fr amework</w>
N ot
cru el</w>
fix ture</w>
k ell</w>
Has kell</w>
st ellar</w>
sid ers</w>
urric an
ot ype</w>
Ab id
dist an</w>
Kur distan</w>
17 0</w>
l on</w>
Por sche</w>
bu zz</w>
g ates</w>
Presid ent-elect</w>
Osc ars</w>
C T
Inspec tor</w>
Davi es</w>
Mot or
Bar bie</w>
Prosecut or</w>
ur ry</w>
W ould</w>
par d
recru it</w>
sad ness</w>
eshi ft</w>
mak eshift</w>
Rel ig
L agos</w>
thri tis</w>
liqu id</w>
Ox ford</w>
at ment</w>
Hod g
pres sur
nurs es</w>
tain ted</w>
ev il</w>
pun ished</w>
West wood</w>
Ulti mately</w>
uni forms</w>
stra igh
amp ton</w>
parti ally</w>
oil -
Bosni an</w>
arre l</w>
de en</w>
Cl em
re building</w>
Tay y
Car r
nutri tion</w>
quar ium</w>
criter ia</w>
destro ying</w>
astronau ts</w>
equ ali
Or der</w>
ex travag
arti facts</w>
Harl em</w>
bau m</w>
twe eting</w>
dec ent</w>
W rit
At t
disa sters</w>
phil osoph
Sil ver</w>
bu </w>
Esp a
30 th</w>
1 4-
Hal f</w>
40 0,000</w>
Humph ries</w>
territ ories</w>
com pos
narr ative</w>
cardi ac</w>
Man son</w>
ch a</w>
My Space</w>
seiz ure</w>
fig ured</w>
advent ure</w>
0 0
w ages</w>
sh all</w>
pu p
av er</w>
T win</w>
reha bilitation</w>
it ate</w>
c t</w>
Fl ag
Pol l</w>
reli eved</w>
comm u
re vo
compan ion</w>
Fl ynn</w>
wel comes</w>
1 3-
k is
S of
di oc
gu es</w>
Oli via</w>
cl ock</w>
insp ire</w>
D ai
not able</w>
adv ancing</w>
min ded</w>
warran ty</w>
un g-
Sev ens</w>
Thak sin</w>
brea the</w>
publ ishing</w>
r ounded</w>
gl as</w>
Gu itar</w>
il ia</w>
mean time</w>
f ati
separati st</w>
em i</w>
main taining</w>
dr agged</w>
en er
e- to-
J up
W en</w>
cover y</w>
Nob le</w>
gr ades</w>
proceed s</w>
di sts</w>
Chem ical</w>
Ash raf</w>
celebr ates</w>
ji had</w>
gl am
traditi ons</w>
Fu ture</w>
N aval</w>
escal ated</w>
am mo
Con rad</w>
G at
Brussel s</w>
pit cher</w>
min i</w>
valu ed</w>
re tri
econom ist</w>
West ern
Napol i</w>
L ever
ti res</w>
Kath leen</w>
Chil ean</w>
pre mis
shi pped</w>
neu tr
respon ders</w>
bon us</w>
prostit utes</w>
20 50</w>
Z el
Ang el</w>
athle tics</w>
ass em
capsu le</w>
int act</w>
err ors</w>
at titude</w>
Glen n</w>
Ar lington</w>
set t</w>
spec ify</w>
ch est</w>
Bar kley</w>
ur o</w>
desc ent</w>
ent ative</w>
wi ves</w>
fish ermen</w>
Dis covery</w>
mon wealth</w>
stad iums</w>
ri dge</w>
tr ic</w>
al- Nusra</w>
P am
7 0,000</w>
Mag ic</w>
Mal don
occ urs</w>
Lever kus
M DC</w>
arr </w>
atter ing</w>
ag as
hun g</w>
mud slides</w>
tri o</w>
F ish
initi ated</w>
ali ans</w>
H ague</w>
Muj ah
endors ement</w>
c offin</w>
lov ers</w>
recor dings</w>
qu ities</w>
Cel tic</w>
Gard ner</w>
Di am
uc c
H ope</w>
P roc
anc he</w>
Ral ph</w>
regre ts</w>
Ber dy
expl icit</w>
revo ked</w>
Glasg ow</w>
ac he</w>
Tor onto</w>
high est-
recip ient</w>
lion- dollar</w>
Lu h
Glob es</w>
Mc Corm
revol u
revolu tion
D oe</w>
str ategies</w>
ou trag
Fif th</w>
end angered</w>
lyr ics</w>
reg ain</w>
4 50</w>
gasol ine</w>
sustain ability</w>
197 0</w>
Er n
c ease</w>
heigh tened</w>
Prof essi
al- Mart</w>
4- 1</w>
pist ol</w>
pre m
in- flight</w>
Ram sey</w>
ren ov
pl ess</w>
p ills</w>
year -
si ghts</w>
Her man</w>
L im</w>
Ay man</w>
U L</w>
fore front</w>
ag gregate</w>
frag ile</w>
Har ris
m ingly</w>
al igned</w>
ais sance</w>
bl owing</w>
evol ution</w>
G DP</w>
O d
W al-Mart</w>
month -old</w>
G .</w>
cl oud</w>
pen sion</w>
2 6-year-old</w>
p a</w>
h yp
Pass engers</w>
Le isure</w>
4 0-
ain t</w>
t ling</w>
free zing</w>
spr in
ob sc
Des ign</w>
infl icted</w>
B aja</w>
Ros en
as ia</w>
un ite</w>
di ans</w>
An kara</w>
justi fy</w>
40 -year-old</w>
su icidal</w>
Indu stri
c apped</w>
techn ically</w>
Marg aret</w>
bl ocking</w>
film maker</w>
s way</w>
volunt ary</w>
- r
chocol ate</w>
J oker</w>
Shakespear e</w>
un named</w>
gl ad</w>
Get ting</w>
l as
am pu
Com monwealth</w>
reser ves</w>
bor ne</w>
fant asy</w>
broad band</w>
8 0,000</w>
exam ining</w>
al yp
Fried man</w>
K ent</w>
clu es</w>
An ast
integr ation</w>
install ation</w>
dar kness</w>
diplom acy</w>
Wa wr
Wawr inka</w>
st ina</w>
arti cles</w>
O man</w>
ff ol
overwhel mingly</w>
ste ep</w>
3 1-year-old</w>
mean ing
cros ses</w>
u sted</w>
Di az</w>
Sh an
N ug
Leverkus en</w>
enter prise</w>
eb re
W ay</w>
C ec
. .</w>
W id
Lab our</w>
Al ready</w>
y ans</w>
gr ants</w>
loc ally</w>
M ake</w>
aband on</w>
instru ment</w>
N ow
C af
incenti ve</w>
Dou glas</w>
navi gate</w>
an ism</w>
an ovic</w>
suppor tive</w>
Ge e</w>
spe akers</w>
Di sa
K E
cycl ist</w>
accoun tability</w>
inev itable</w>
Liv ing
wild fires</w>
Pl ace</w>
negoti ators</w>
engul fed</w>
es e-
rel ation</w>
star k</w>
spon sor</w>
employ s</w>
Pri v
dra ws</w>
j o</w>
Cla ire</w>
b in
un comfortable</w>
B ish
Hit ler</w>
z stan</w>
Kyrgy zstan</w>
well- being</w>
ov irus</w>
Min i</w>
con grat
in equality</w>
elim inated</w>
roll out</w>
gr os
reli able</w>
h il
ph et</w>
IB N</w>
Ad di
US A
embry os</w>
Su ffol
Suffol k</w>
dis sidents</w>
NAT O
6 0s</w>
motiv ation</w>
resp ective</w>
air planes</w>
p anc
respon dents</w>
half way</w>
I T</w>
colum nist</w>
aun t</w>
pay ment</w>
con version</w>
pra ise</w>
roc ky</w>
contain er</w>
fath ers</w>
Aut onomous</w>
2 9-year-old</w>
credi bility</w>
Oper a</w>
K enny</w>
for -
fab r
ov an</w>
D onna</w>
stret ched</w>
st abbing</w>
vic e-
knock out</w>
registr ation</w>
Com ic-
pre sumably</w>
var i
M acy</w>
portra it</w>
Nicaragu a</w>
T .</w>
purch ases</w>
q i</w>
recru ited</w>
Cat al
critic izing</w>
D AD</w>
Comic- Con</w>
AI G</w>
equali zer</w>
Sup port</w>
W W
tin ational</w>
I L</w>
PEOPLE .com</w>
L og
ot ting</w>
Ap pro
Pr om
appoin tments</w>
liti gation</w>
Ecc lestone</w>
Su z
D uck</w>
th ful</w>
F K</w>
az ar</w>
Thr oughout</w>
ha un
comment ator</w>
ep p</w>
. A.</w>
correc tions</w>
Car ey</w>
rand om</w>
govern ors</w>
d ear</w>
fin alist</w>
Fil ner</w>
homosex uality</w>
M up
over throw</w>
T rad
extrad ited</w>
t sman</w>
athle tic</w>
Br y
Sha des</w>
P ep
lob by</w>
trans formation</w>
blan ket</w>
magaz ines</w>
Mad agas
Madagas car</w>
ot ted</w>
over y</w>
ish- language</w>
Super storm</w>
hy dr
el ly</w>
thy roid</w>
de grad
sol idarity</w>
concer ts</w>
G T</w>
Refug ees</w>
pow ering</w>
s essions</w>
met ro
ch anted</w>
Tom as</w>
cor d</w>
exp ec
photograph ed</w>
Maldon ado</w>
out reach</w>
nurs ing</w>
th am</w>
fortun es</w>
b lizz
Berdy ch</w>
busi est</w>
ex us</w>
cir cle</w>
grand children</w>
Holl and</w>
Midd leton</w>
benef ited</w>
y stal</w>
brilli ant</w>
week ends</w>
Gu ide</w>
do or
consol id
Re form</w>
Expl or
25 -
op ium</w>
Bar bour</w>
weigh s</w>
lan es</w>
Ry an
Peru vian</w>
fer tility</w>
nex t-
pro por
out -of-
w oes</w>
E TA</w>
O M</w>
sk ins</w>
won dered</w>
o k</w>
El len</w>
li bal
sc ary</w>
be e</w>
es man</w>
Stra it</w>
N aj
end y</w>
Shar ma</w>
be headed</w>
trou bles</w>
h em
j ockey</w>
Tanz ania</w>
iv ory</w>
Roll ing
satis faction</w>
D in
libal y</w>
St ap
arsen al</w>
Bri de</w>
Ah mad</w>
out e</w>
po ols</w>
influ enced</w>
ex am</w>
J indal</w>
innoc ence</w>
S et
M ig
Wo ol
w ashed</w>
in trigu
Sal azar</w>
ar us</w>
Dai ichi</w>
D y
19 60</w>
T aj</w>
an za</w>
Rec overy</w>
de fi
Over all</w>
fin alists</w>
196 9</w>
tru ste
sec tions</w>
en sen</w>
toil et</w>
Red skins</w>
sponsor ship</w>
gre gation</w>
liter ature</w>
heavy weight</w>
B -
check points</w>
cycl es</w>
NATO -led</w>
d is</w>
Exper ts</w>
inten sity</w>
primar ies</w>
br ains</w>
ill -
cre ators</w>
ri ad</w>
en erg
V ent
ad ul
El lis</w>
pivot al</w>
care gi
Di allo</w>
ne phe
st ain</w>
fl ared</w>
j ay</w>
us -
anc a</w>
cap s</w>
un il
need ing</w>
le ve
Rolling Ston
sp ree</w>
l ord</w>
chi p</w>
rum p</w>
vis ual</w>
sk et
dis pos
counsel ors</w>
Ern st</w>
succ ession</w>
c ents</w>
orphan age</w>
Gabri elle</w>
Angel s</w>
Ug andan</w>
privil eg
mar ched</w>
i ers</w>
J ay
prin ting</w>
outrag eous</w>
hop efully</w>
F itz
bal anced</w>
af ia</w>
vi dence</w>
ar bitr
Nic o</w>
over- the-
N RA</w>
Mo tion</w>
prof ound</w>
dos es</w>
Me et</w>
ro ok
deal ership</w>
af fl
sp ear
enthusi as
mete or</w>
ot ers</w>
ch efs</w>
con front</w>
year -old</w>
publ ish</w>
Correc tions</w>
tim ely</w>
Ad dison</w>
me tro</w>
Rud olph</w>
st all</w>
Gre y</w>
D og</w>
schol ar
augh lin</w>
Alex is</w>
Budd h
disagre ed</w>
Hill s
wh ipped</w>
p ic</w>
Cros s
is ers</w>
S aw
fic a</w>
ain es</w>
ic z</w>
b ou
Survi v
un le
C lear
Rol and</w>
L I
fl ame</w>
emb argo</w>
ist on</w>
Ryan air</w>
cycl one</w>
as sign
festi vals</w>
arra igned</w>
Hav en</w>
cr ane</w>
L ub
speci alists</w>
B ax
im pe
j az
Ben fica</w>
surve ys</w>
explo it</w>
sc attered</w>
under lying</w>
Kir k</w>
bl essing</w>
t apped</w>
ref ers</w>
U K
Bur t</w>
-year -
TIM E</w>
fin ement</w>
perform ers</w>
ti on-
Mar ri
Marri ott</w>
Am id</w>
proc essed</w>
Charlot te</w>
floo d
ir d</w>
Pe ñ
tan kers</w>
seiz ures</w>
K ati
M ad</w>
super -
sm all-
r ental</w>
Cou libaly</w>
is tics</w>
depar ted</w>
Mar t
P ir
ou n</w>
th and</w>
import antly</w>
appreci ation</w>
Sun derland</w>
Champ ion</w>
max im
Iv anovic</w>
1, 300</w>
insi ght</w>
Hou se
ap est</w>
Ge o</w>
cu ers</w>
Col in</w>
Every thing</w>
pe anut</w>
Bar ney</w>
lin king</w>
CL A</w>
U CLA</w>
sub po
por n</w>
im prison
imprison ment</w>
S cre
Ver mont</w>
as a</w>
th ered</w>
st alled</w>
neglig ence</w>
ne ver
Soci alist</w>
i as</w>
is -
res em
out breaks</w>
scand als</w>
h em</w>
prohi bit</w>
thr iller</w>
B litzer</w>
qu it
g ig
pharm ac
b at</w>
J FK</w>
terri fied</w>
Spec i
enter tain
Ap par
im ported</w>
dispers ants</w>
S ay
Cri me</w>
Def ending</w>
ul ations</w>
reconc ili
coun ting</w>
ha k
dr a</w>
bul k</w>
co operating</w>
stir red</w>
det ection</w>
sa il</w>
impro per</w>
West on</w>
y m</w>
BAR T</w>
en ez</w>
Kar l</w>
tall est</w>
Al bu
gu m</w>
ing le</w>
four- day</w>
ar t
f os
con finement</w>
gri ef</w>
br ush</w>
clos ures</w>
S S</w>
J aw
Civ il
forec los
T ask</w>
z e
g el</w>
graph ic</w>
football er</w>
McL aughlin</w>
cl eric
ev ille</w>
ay al</w>
back pack</w>
oblig ations</w>
19 0
Emp ire</w>
L AN
d azz
W es
reconcili ation</w>
ish ers</w>
nam ing</w>
f old</w>
A K
evol ved</w>
Nis san</w>
uni versal</w>
flag ship</w>
pen etr
fac ial</w>
for th
regul ate</w>
Man ila</w>
re war
C al</w>
attr actions</w>
pro ves</w>
l acks</w>
van ished</w>
Chi efs</w>
cl ick</w>
vi able</w>
DH S</w>
Bur ke</w>
bl in</w>
author ization</w>
K anye</w>
ill icit</w>
Gu y</w>
F ah
t ators</w>
quot es</w>
k its</w>
accord ance</w>
G ro
back drop</w>
201 7</w>
Mau i</w>
pos ter</w>
less ly</w>
Simp sons</w>
batter ed</w>
prof iles</w>
LE GO</w>
Moun tains</w>
Lon d
vol ley</w>
presid ent-elect</w>
Frank el</w>
ic ked</w>
On line</w>
refin ery</w>
Lu ke</w>
B ond</w>
D ah
al ter</w>
op es</w>
real istic</w>
dis per
Carol yn</w>
pro ving</w>
Republic an-
J avier</w>
pri orities</w>
bag gage</w>
chann els</w>
ST U
Anti gua</w>
mat ch-
accept ance</w>
hon est
per mitted</w>
destruc tive</w>
polic emen</w>
min erals</w>
gren ades</w>
M ist
gh ted</w>
tatt oo</w>
dep ends</w>
condem n</w>
cl ouds</w>
Fal con</w>
u i</w>
sp in
P ay
Franc es
Res cuers</w>
fi e</w>
re- elected</w>
st int</w>
Boo ks</w>
Benz ema</w>
recogni zes</w>
B R
che ating</w>
dis h
on ies</w>
Mon ro
S H
associ ates</w>
6 0-
C S
vis as</w>
ass ing</w>
recru its</w>
Green peace</w>
Tal k</w>
en to</w>
mal ware</w>
aggres sively</w>
go all
em a
olog ically</w>
Kati e</w>
pr aying</w>
ec k
Hus sain</w>
ellec tual</w>
op t</w>
N ever</w>
aff ecting</w>
U.S </w>
p ink</w>
Engin eers</w>
om on</w>
won dering</w>
EW S</w>
Her z
u plo
sp ate</w>
GH DAD</w>
M M
hand gun</w>
Pre viously</w>
A gu
Z lat
E manuel</w>
STU DENT</w>
I ri
sur fing</w>
C all
man eu
dioc ese</w>
au tob
1. 1</w>
optimis m</w>
Hur ley</w>
AC OR
ke- Petit</w>
Haw ke-Petit</w>
S oll
R icky</w>
dem entia</w>
Alber to</w>
hab ited</w>
recor der</w>
St anding</w>
SA G</w>
compe ted</w>
out door</w>
Tru man</w>
ah ua</w>
set back</w>
ro v</w>
H ai
i k
N a</w>
clin ical</w>
plainti ffs</w>
PS G</w>
Pr ice</w>
hu ahua</w>
Lind sey</w>
L en
co con
any time</w>
I ce</w>
expl ic
subscri bers</w>
v end
S ni
t ops</w>
first- ever</w>
ess ler</w>
tablo id</w>
in e-
war ns</w>
ad dic
B uc
Cri stina</w>
imag in
Kor man</w>
p ill</w>
dd ler</w>
mistak en</w>
rook ie</w>
Harris -
pl ight</w>
il itary</w>
ai th</w>
J ude</w>
bri g
far ming</w>
Lond on-based</w>
Sch u
Ali en</w>
un conscious</w>
tor -
or ah</w>
4 S</w>
ou st</w>
tr ick
tos sed</w>
pen ned</w>
P lat
C ar</w>
Th us</w>
messa ging</w>
exc use</w>
un lawful</w>
ACOR N</w>
circ us</w>
analy zed</w>
Ash ton</w>
Br yan</w>
inter action</w>
dep ending</w>
Sand ers</w>
inc t</w>
Tra il</w>
Car roll</w>
great -
simil arly</w>
intenti ons</w>
lim bs</w>
laugh s</w>
H ale</w>
flag ged</w>
sh ower</w>
Commun ications</w>
au x</w>
jiha dists</w>
y og
F ow
Ste in
sol itary</w>
nam ely</w>
mus sen</w>
Nug ent</w>
Wit nesses</w>
Schwar zen
bl own</w>
B og
Lead ers</w>
isi tion</w>
enti ty</w>
Wat ers</w>
mon ster</w>
pur sued</w>
un certain</w>
acc um
Ter esa</w>
Worl dwide</w>
F ru
melt down</w>
cont ention</w>
ous ing</w>
si on-
Fre eman</w>
ch elles</w>
Sey chelles</w>
authentic ity</w>
bri gh
advis e</w>
surren der</w>
ov ich</w>
Sp irit</w>
meaning ful</w>
minim ize</w>
Ras mussen</w>
inst ant</w>
Y outh</w>
fur l
Rev .</w>
Ren ault</w>
haw aja</w>
Philli p</w>
St ac
b icy
success es</w>
y elling</w>
D oha</w>
predic ting</w>
symp athy</w>
tran sporting</w>
divor ced</w>
bomb ed</w>
Ch est
h our
re au
inst ated</w>
deport ation</w>
ch anting</w>
Mar ty</w>
fu eling</w>
execut e</w>
ren owned</w>
e in</w>
Bay er</w>
mul tinational</w>
o om</w>
Valent ino</w>
m ere</w>
r ential</w>
st res
Harris- Moore</w>
si e</w>
no d</w>
g arn
p pard</w>
She ppard</w>
attr action</w>
fil tr
con science</w>
Moh ler</w>
sk ip
top pled</w>
ter rain</w>
Chi huahua</w>
Ru th</w>
X VI</w>
pe dition</w>
G oma</w>
shel ves</w>
am bition</w>
plan tation</w>
S .
Ed die</w>
Rec ord</w>
Ch ang</w>
cul tures</w>
B our
subur bs</w>
Y ard</w>
jaz z</w>
draf ted</w>
O f
Chest nut</w>
F arrell</w>
Br as
Al- Ah
organiz e</w>
all oc
sen iors</w>
Bax ter</w>
rec oun
param ilitary</w>
L ines</w>
Mc Donnell</w>
R ich</w>
r in
T B</w>
dest inations</w>
7 ,
cu b
Pan ama</w>
tw ins</w>
S ong</w>
func tions</w>
Cre w</w>
cont acts</w>
hum an-
mem o
ing e</w>
signific ance</w>
Mas ha
Vie ira</w>
incar cer
sp a</w>
inj un
Thor n
wor sen
E than</w>
O h
S we
Schwarzen eg
Schwarzeneg ger</w>
Sav age</w>
gr ain</w>
fu rious</w>
jun gle</w>
thor oughly</w>
Sh am
cur tain</w>
et al</w>
S aving</w>
mon archy</w>
consen sus</w>
h urrican
commis sioned</w>
determin ing</w>
t end
sp urred</w>
stamp ede</w>
mistak enly</w>
in habited</w>
sight ings</w>
Tou rism</w>
inspec tions</w>
br own</w>
ans en</w>
Tam my</w>
fat alities</w>
em on</w>
ans k</w>
H az
recei ves</w>
of- the-
St am
ol d-
adequ ately</w>
Ros berg</w>
Car s</w>
c ov
long- running</w>
Car son</w>
Ecu ador
for um</w>
m ons</w>
eyebr ows</w>
Daw son</w>
Deb bie</w>
k owski</w>
O m
L ap
stag gering</w>
H ank</w>
War saw</w>
P s</w>
cour ses</w>
rep airs</w>
fraudul ent</w>
w ells</w>
ani el</w>
Hal le</w>
str icken</w>
ne o-
d itch</w>
A sc
Wol ff</w>
high- tech</w>
J ail</w>
rail road</w>
10 -year-old</w>
Tes la</w>
Peñ a</w>
sa ti
dor m</w>
El ton</w>
legiti m
bl ues</w>
T rump</w>
sec tors</w>
Mar se
sh eer</w>
Mar ion</w>
popul ous</w>
Dr agon</w>
trans mission</w>
reve aling</w>
Lu k
resid ency</w>
su </w>
Op ening</w>
P ac
Y ale</w>
Mc N
oo s</w>
Dem onstr
C alling</w>
Co .</w>
moder n
An elka</w>
Vaugh an</w>
R IA</w>
con fined</w>
D og
inter fer
to ddler</w>
p ig
wat ches</w>
hy bri
.... ....
Hut ch
inter n
circul ating</w>
Manc ini</w>
uck land</w>
A uckland</w>
tough est</w>
Raqq a</w>
short ages</w>
bru tality</w>
Dun ham</w>
p per</w>
we igh</w>
Will ingham</w>
c attle</w>
id ence</w>
veget arian</w>
sc al
col ony</w>
E qu
defin ite</w>
break fast</w>
L AM
L ine</w>
dec eased</w>
ali er</w>
pion eer</w>
invol unt
ignor ing</w>
sm ell</w>
St ore</w>
surg eon</w>
k iss</w>
Mil it
fer ences</w>
AN C
Zlat an</w>
we t</w>
discover ing</w>
Sk ype</w>
contrac eption</w>
cool ing</w>
S ir
mil d</w>
al om</w>
ab usive</w>
anti- corruption</w>
Hop kins</w>
En rique</w>
Indi ans</w>
fre ed
qu er
T ab
hon or
ex pedition</w>
BA GHDAD</w>
war fare</w>
empl oy</w>
Ju lie</w>
fir mly</w>
compar able</w>
emphas ized</w>
t les</w>
you ths</w>
ill nesses</w>
C D</w>
ud a</w>
K w
bu sters</w>
gr ounded</w>
S ons</w>
M s.</w>
th ank
T ata</w>
acknowled ges</w>
Fle et</w>
flu id</w>
ple ad</w>
Analy sts</w>
san ity</w>
196 8</w>
short- term</w>
train er</w>
Ces ar</w>
paper work</w>
cur few</w>
Rec ently</w>
Bap tist</w>
Every where</w>
prepar es</w>
signal ed</w>
Kor e
res ear
fre el
gro cer
S on
Jud ic
Slov akia</w>
Disa ster</w>
ne ath</w>
ste er</w>
un authorized</w>
imp ending</w>
fl ash
improv ements</w>
Val des</w>
Be h
Car tag
Bur k
de an</w>
one- year</w>
decre ased</w>
en counters</w>
en clave</w>
T ate</w>
Lad ies</w>
s ville</w>
cin ema</w>
Bri d
onom y</w>
T rain</w>
att acker</w>
Roll s-
Cartag ena</w>
G I</w>
T ree</w>
W S
kidnapp ings</w>
disa bility</w>
C offee</w>
loc h</w>
Compl ete</w>
p ile</w>
E P
b arrel</w>
or n</w>
marg in
bra ve</w>
IS LAM
an ity</w>
bor o</w>
t actic
Sh o
regul ated</w>
G w
cor n</w>
Asc ot</w>
exp ired</w>
over dose</w>
Un it</w>
K essler</w>
syn thetic</w>
IS OM</w>
13 .
H ash
A ber
pl in</w>
mot or</w>
par as
ch ol
st ol</w>
Tar ant
T ow
Fior ent
ran o</w>
g ary</w>
L omb
re alizing</w>
l ace</w>
I M</w>
le v
tr um
Gall up</w>
disrup ted</w>
divi sions</w>
Aj ax</w>
Patr icia</w>
sav vy</w>
p ac
P ut
guerr illa</w>
Baghd adi</w>
censor ship</w>
cat ching</w>
prosp ects</w>
v et
N em
bu ll</w>
ant as</w>
op in
itic </w>
st um
Mc Bride</w>
C ris
en za</w>
re united</w>
US GS</w>
distribu te</w>
Bab y</w>
H ans</w>
know ingly</w>
fail s</w>
clear ing</w>
Y u</w>
sub committee</w>
hi kers</w>
Dav os</w>
st ap
T- Mobile</w>
Rolls- Royce</w>
state- owned</w>
sw ir
bro k
decor ated</w>
new ly-
ac id</w>
Califor ni
injun ction</w>
dis gr
1. 8</w>
c entr
bish ops</w>
m ou
favor ed</w>
Bel arus</w>
fu ri
m ph
Co ch
int ol
freed oms</w>
Re ad
ass er</w>
best- known</w>
Au burn</w>
obj ective</w>
k ar
Motor ola</w>
B oul
C ah
wor st-
indic ations</w>
V il
wh it
vi o</w>
T ina</w>
s ob
ther -
but ton</w>
fri ed</w>
dolph in</w>
accu sation</w>
ch ill</w>
enti ous</w>
H ed
Kenne th</w>
cont ends</w>
id ers</w>
m ango</w>
ac ent</w>
polic eman</w>
portr ayed</w>
secre tly</w>
Zh ou</w>
d ary</w>
ob s
ud ge</w>
ir re
Ca thedral</w>
hom icides</w>
Sal im</w>
leg alization</w>
t t</w>
Gin sburg</w>
privil ege</w>
hat red</w>
awa ited</w>
Kar im</w>
Poll ard</w>
Health .com</w>
Politic s</w>
av en
h anding</w>
kid neys</w>
meth od</w>
symp ath
marsh als</w>
C ass
ion ally</w>
le opard</w>
Sw an
M ous
ste am</w>
S ang
Hor n</w>
pick up</w>
woo den</w>
Buddh ist</w>
Mil lions</w>
M ove</w>
Far lane</w>
Ger ard</w>
hil ar
K O
m ati
shel f</w>
S ac
moun ting</w>
bi ous</w>
attend ance</w>
Vietnam ese</w>
non violent</w>
le ep</w>
electr ical</w>
Ty son</w>
In sp
zh ou</w>
G H</w>
tr ine</w>
Eri k</w>
b ounced</w>
qualifi er</w>
cau cus</w>
techni que</w>
C R</w>
AM I</w>
Vis itors</w>
pon ents</w>
Mor mon</w>
ar mored</w>
en rolled</w>
progres sive</w>
Mig uel</w>
be it</w>
tur b
c us
trans fers</w>
Kh y
Shar k</w>
inc ts</w>
Max well</w>
D ul
Euros tar</w>
ML S</w>
M all
plan ets</w>
2 1-
A st
assur ances</w>
recomm ends</w>
Der by</w>
call er</w>
su ffers</w>
mar ket
I DF</w>
m ask</w>
ak ening</w>
em bed
comp ati
bes ides</w>
gi ance</w>
k ar</w>
or ical</w>
pre ference</w>
inti mate</w>
Bur ma</w>
c ites</w>
un aware</w>
4 0s</w>
hi de
RollingSton e.com</w>
P KK</w>
progres sed</w>
Pr ab
sett ings</w>
r ors</w>
TE D
Ros enberg</w>
per sist
end ments</w>
rem ot
Lou ise</w>
psychi atric</w>
Sal ary</w>
R and</w>
Bur n
Al am
phil anthro
ing .com</w>
sust ain</w>
autob i
reli es</w>
gener als</w>
French man</w>
pr as</w>
sum mon
lob b
to y</w>
ri fles</w>
be st
si blings</w>
li p</w>
br ain
sk ill</w>
conspir ing</w>
R av
kic king</w>
ter ly</w>
rain fall</w>
V as
Terr or
Haj j</w>
F ig
Kid d</w>
or dering</w>
stat ues</w>
imp acts</w>
us a</w>
de pos
out let</w>
travel er</w>
an king</w>
Q antas</w>
bo died</w>
An chor
cerem onial</w>
F aith</w>
Tel e
record- breaking</w>
cap tive</w>
Power ball</w>
gl ing</w>
bur ns</w>
inj ected</w>
Lun d
r aged</w>
good bye</w>
Ron nie</w>
un disclosed</w>
hand written</w>
sp ends</w>
syn drome</w>
Sc out</w>
b ay</w>
prescri bed</w>
gar age</w>
and ro</w>
May a</w>
Kir by</w>
ough s</w>
rad ic
3 3-year-old</w>
revel ation</w>
ti gers</w>
Curr ent</w>
Kaz akh
ber n
ra ids</w>
we ed</w>
in form</w>
P A
AM ISOM</w>
G PS</w>
cab inet</w>
Com edy</w>
He in
ge on</w>
Napol it
Napolit ano</w>
trav els</w>
environ ment
to ys</w>
McCul loch</w>
El ena</w>
bec k</w>
ship ments</w>
Hei ghts</w>
Her bert</w>
A cross</w>
evalu ate</w>
Ch ern
per sec
shi fted</w>
bu reau
sugg estion</w>
body guard</w>
Uni versal</w>
lun gs</w>
L in
ul ing</w>
er ected</w>
pe oples</w>
q ing</w>
Khar toum</w>
bl ind
k it
explo itation</w>
il ey</w>
C ord
accid ental</w>
del icate</w>
T ests</w>
ak o</w>
enthusi asts</w>
4 9
Americ as</w>
regul atory</w>
merc ury</w>
acknowled ging</w>
D es</w>
Vic tor
Ch es
c ation</w>
histor ically</w>
Par ente</w>
ISLAM AB
she et</w>
h an
Key stone</w>
Lun ar</w>
Stam ford</w>
v oy
form ula</w>
Lev in</w>
Mil i
enti als</w>
Row ling</w>
lo os
super market</w>
2, 500</w>
El ementary</w>
defin es</w>
ISLAMAB AD</w>
A venue</w>
ver ing</w>
B F
Appar ently</w>
Pan ther</w>
Deb orah</w>
rest ing</w>
si p</w>
kilo grams</w>
Y os
1, 400</w>
c raw
mir acle</w>
t ably</w>
Ele ven</w>
comm anding</w>
pher ic</w>
Re illy</w>
patr ols</w>
gen es</w>
Marse ille</w>
Sp ok
sla ve</w>
S usp
fianc ee</w>
Hub ble</w>
E D
Ro th</w>
pul sion</w>
in coming</w>
pres sures</w>
sh outed</w>
m one</w>
frac tured</w>
proli fer
bat sman</w>
sl ogan</w>
sa ves</w>
Tarant ino</w>
tril ogy</w>
b ones</w>
Consul ate</w>
Schul tz</w>
oin es</w>
pu zz
oo th
Fin als</w>
Eth ics</w>
Fiorent ina</w>
coo king</w>
R is
r ance</w>
Cor nell</w>
prec ip
spir its</w>
IS S</w>
ign ant</w>
Sha d
as suming</w>
k out</w>
v on
character ized</w>
4 7-
B O
w ak
a throw</w>
Web ster</w>
emb le</w>
lobb ying</w>
attr acting</w>
V ance</w>
ar thritis</w>
Vill age</w>
reduc tions</w>
e- commerce</w>
photograph ers</w>
Scho ols</w>
par cel</w>
pri ests</w>
preci ous</w>
c ade</w>
aniz ed</w>
M r</w>
S mall</w>
es i</w>
pip es</w>
jun ta</w>
econom ics</w>
elec torate</w>
manufac tured</w>
M ir</w>
sl og
respon sive</w>
di vers</w>
pres enting</w>
ator ium</w>
evacu ating</w>
Re ady</w>
volunt arily</w>
Rad w
M ason</w>
tot aling</w>
Pro -
tr ace</w>
incor rec
as sion</w>
d ham</w>
ag li
wi el
ne d-
sa ke</w>
left- wing</w>
Kimber ly</w>
ans ka</w>
id able</w>
enti ve</w>
acqu isition</w>
2 2nd</w>
Str ong</w>
as co</w>
S U</w>
gal v
ick i</w>
econom ically</w>
Zet as</w>
cap tivity</w>
acqu itted</w>
prin ts</w>
boos ted</w>
cr ushing</w>
avo iding</w>
NA AC
J et
J ab
M od
Cambo dian</w>
nostalg ia</w>
consul ted</w>
att y</w>
phys ics</w>
Ecuador ian</w>
cru elty</w>
l ing
Cru ises</w>
L am</w>
ch im
ot yp
BM W</w>
umb rella</w>
ep s</w>
hor mone</w>
lap top</w>
disa bilities</w>
M ail</w>
acqu ain
pun ching</w>
su m</w>
arr ow</w>
le aks</w>
gl oves</w>
Berg en</w>
orig ins</w>
L eary</w>
He athrow</w>
L abor
pr ank</w>
Snap chat</w>
ob struc
escal ating</w>
ur u</w>
emb roiled</w>
princ ip
de posed</w>
Oc e
pl u
Sy l
Kas em</w>
ti sh
t man</w>
om nia</w>
co- star</w>
comp ounding</w>
P ast
La un
ed ad</w>
Khy ber</w>
iti vely</w>
comp ens
le aking</w>
ti z</w>
en ched</w>
3 5,000</w>
are well</w>
de stri
frequ ency</w>
port edly</w>
13 ,000</w>
tar c
An tarc
Sul eman</w>
P owers</w>
Kur t</w>
am bush
vi ties</w>
V -
Jarre tt</w>
im ports</w>
dec k</w>
Rec ent</w>
aggres sion</w>
t res
advoc ating</w>
imp aired</w>
abe u</w>
G ot
7 3
unanim ously</w>
Co ach</w>
Lund berg</w>
ow -up</w>
comp iled</w>
pat ents</w>
en z
ag e-
le ap</w>
A M</w>
d a
3 50</w>
Alexand ria</w>
T OM
N on
Ex tra</w>
schol ars</w>
dist ant</w>
can v
th an-
th- minute</w>
Z ak
top ics</w>
S ina</w>
Tob acco</w>
w ay
ap ple</w>
condem ning</w>
Ex am
L es</w>
Radw anska</w>
N D</w>
pil es</w>
Dor sey</w>
Ty mos
Mic k
ac on</w>
din al</w>
F air</w>
involunt ary</w>
pe er</w>
Tymos henko</w>
ur ges</w>
G old</w>
Sur ve
L ed
n els</w>
s- long</w>
inclu sive</w>
C AR
Aer ospace</w>
C H
Wi reless</w>
enc e-
Li ght
out post</w>
- like</w>
Dou g</w>
Bau er</w>
Jo plin</w>
er ta</w>
po ison</w>
ed d
Tur in</w>
hel m</w>
sac red</w>
Clar ence</w>
Brow ne</w>
Bri stol</w>
W inst
mem os</w>
certific ate</w>
SA T</w>
boo king</w>
1 25</w>
Bar ber</w>
Cent ury</w>
b oun
third- party</w>
origin ated</w>
p en</w>
form erly</w>
F enton</w>
B ET</w>
bar red</w>
sa iled</w>
ic king</w>
jo ying</w>
al og</w>
ff le</w>
ti fy</w>
sh u
tre ats</w>
en roll</w>
ak u</w>
Hor se</w>
1. 7</w>
all y-
over came</w>
ind a</w>
over sees</w>
A ri</w>
ak e-
o ever</w>
p he</w>
se is
pre cau
din ing</w>
down loaded</w>
2 40</w>
Natur al</w>
ti liz
hy per
D w
trans plants</w>
Bron x</w>
Le h
7 50</w>
pic tured</w>
dispat cher</w>
suppl ier</w>
p ays</w>
she ets</w>
fav ors</w>
barg ain</w>
1 24</w>
N ation
st airs</w>
Sav ile</w>
exha us
b anner</w>
instruc ted</w>
St arr</w>
s ers</w>
Sev illa</w>
pum m
fac tories</w>
recogni zable</w>
ag round</w>
spec tators</w>
Indones ian</w>
bir dies</w>
ar ities</w>
Rob b
Ch oi</w>
ti mel
G ina</w>
vibr ant</w>
Ab bey</w>
All -
lad en</w>
Tuni sian</w>
Ver de</w>
T arg
le gr
cas ual</w>
sover eign</w>
inter act</w>
hy th
inc ur
gall on</w>
str om</w>
em aker</w>
uni qu
Jet Blue</w>
Har old</w>
bri de</w>
ud din</w>
Os wald</w>
wrong doing</w>
min ors</w>
Cob b</w>
Bill board</w>
tic ism</w>
so ap</w>
Clif ford</w>
spr ay</w>
ath em
dict ator
P av
Michel e</w>
assem bled</w>
arr anged</w>
deterior ating</w>
sa ble</w>
Pre toria</w>
re bu
t am
tax -
ar chae
Sa eed</w>
Ren zi</w>
un happy</w>
R ip
Ep is
S print</w>
in quest</w>
CNN -
poor est</w>
the or
ultr a-
sex uality</w>
suppl ied</w>
Diam ond</w>
cocon ut</w>
C US</w>
lim iting</w>
wh ol
end ra</w>
law suits</w>
Cin dy</w>
Rh ode</w>
ear nings</w>
end ang
con sci
pre ten
fem ales</w>
Sim il
trac es</w>
res ource</w>
j ani</w>
enthusias m</w>
D ir
back up</w>
pro j
Meg a</w>
bu mp
Buff alo</w>
merch and
fin est</w>
Tran si
salv age</w>
ing a</w>
vo id</w>
ong -
es el</w>
Rub en</w>
pron ounced</w>
Sher idan</w>
King ston</w>
goall ess</w>
SE C</w>
popul ated</w>
Black burn</w>
dec om
n uclear
pow der</w>
Sit uation</w>
be ar
Americ an-
Z ah
DE A</w>
an ned</w>
Buff ett</w>
intimid ation</w>
P ati
sa vi</w>
co aching</w>
men u</w>
ais le</w>
parach ute</w>
Or tiz</w>
Ab del</w>
lo ading</w>
en joying</w>
en ers</w>
u um</w>
Lev inson</w>
D urban</w>
fu </w>
two- day</w>
pun ish</w>
Mc Cl
ha zing</w>
Sal man</w>
Christi ane</w>
Bern abeu</w>
identi ties</w>
liber ty</w>
comp assion</w>
em in
cap turing</w>
N k
tr icky</w>
promot er</w>
F D
contain ment</w>
dr unk</w>
T all
ten ure</w>
jeop ardi
re boot</w>
t ails</w>
im an</w>
sky scrap
public ized</w>
harv est</w>
astr onom
desc ended</w>
de terr
Eu gene</w>
seas on-
str anger</w>
prec ise</w>
CNN Money</w>
N EWS</w>
it ly</w>
four- time</w>
196 6</w>
prosp ective</w>
persec ution</w>
el ementary</w>
Ad vis
bl essed</w>
navi gation</w>
sk ate</w>
Abid jan</w>
r yp
es -old</w>
Sha wn</w>
we ird</w>
leve e</w>
ank le</w>
val ley</w>
tur key</w>
pop py</w>
ym nas
Shel don</w>
s thand</w>
revers ed</w>
Rut gers</w>
w rist</w>
s ick
Pr ad
weak ened</w>
Luc y</w>
swee p</w>
out cry</w>
Ros a</w>
stric ter</w>
bicy cle</w>
NAAC P</w>
ad mitting</w>
re v
ed itors</w>
Sci ences</w>
gen re</w>
Wozni acki</w>
avail ability</w>
Par t
Bl ood</w>
S TE
tion ality</w>
long- standing</w>
revi val</w>
r all
Me yer</w>
plainti ff</w>
est a</w>
appoin t</w>
Sc and
Nu ri</w>
rup ted</w>
inv esting</w>
bos ses</w>
Ku wait</w>
In quiry</w>
adj acent</w>
soci al-
M aking</w>
Lit er
Sp ie
ign ited</w>
star ter</w>
sp illed</w>
N ath
p its</w>
recommend ation</w>
thr ashing</w>
represent ation</w>
haz ard</w>
reserv ation</w>
w aged</w>
barr ic
block ade</w>
adul tery</w>
Rec ep</w>
a qu
extor tion</w>
O ff</w>
B and
anc est
CN A</w>
De ad
MI T</w>
accoun ting</w>
e ums</w>
s op
Veter an</w>
asser ted</w>
I g
Jam ie</w>
us her</w>
Ot t
DE LH
blog ging</w>
believ ing</w>
ogn itive</w>
S lack</w>
Pul itzer</w>
appl ying</w>
Ru gby</w>
Of ten</w>
M ans</w>
philosoph y</w>
c am</w>
sc o</w>
mo ons</w>
C ul
Li eb
Lieb erman</w>
ast on
Op position</w>
Bish op</w>
mur dering</w>
Catal onia</w>
Sher lock</w>
Cel ebr
sh op
un specified</w>
archit ect</w>
Luh ansk</w>
L ess</w>
ess ence</w>
K ou
Ru n</w>
He ath</w>
Cah ill</w>
ar dy</w>
f oss
foss il</w>
demonstr ating</w>
gri m</w>
fr ay</w>
appl ause</w>
O sman</w>
elev ator</w>
fug itive</w>
A m</w>
C at</w>
ti ff</w>
Bo x
Steph ens</w>
asc ent</w>
Val erie</w>
We i</w>
Ay atol
Mar il
g az
tun nels</w>
cont ested</w>
judic iary</w>
su f
Up per</w>
N ak
i onal</w>
w aging</w>
one- third</w>
E S
Suz anne</w>
s ic</w>
long standing</w>
destabil ize</w>
trigg er</w>
Inter fax</w>
Fil ip
inter ference</w>
moder ni
t ude</w>
ec ito</w>
Soll ecito</w>
sculp ture</w>
Z oo</w>
defl ected</w>
lo ads</w>
om ic</w>
Sh ane</w>
embed ded</w>
G as
ren amed</w>
ha bit</w>
5- 1</w>
cru sa
ab a</w>
GM T</w>
ins omnia</w>
non- profit</w>
Cros by</w>
class -
por tions</w>
Reg gie</w>
R ising</w>
es ha</w>
Ab y
back grounds</w>
Li thu
E h
To o</w>
R ac
de pri
mist re
day light</w>
ro s</w>
3, 500</w>
so oner</w>
bro ker</w>
in filtr
L er
wak e-up</w>
ser ge
K ol
K is
i di</w>
rob ber</w>
dedic ation</w>
par enting</w>
recy cled</w>
discrimin atory</w>
patroll ing</w>
H uck
ty- five</w>
m ammo
Con sider</w>
Kazakh stan</w>
assist ing</w>
av or</w>
er no</w>
second- half</w>
Winst on</w>
DELH I</w>
man ual</w>
gr oss</w>
turbul ence</w>
wel coming</w>
ov le
s ic
opin ions</w>
Re h
id -
ten th</w>
health care</w>
Sp enc
K now
al y</w>
pe dia</w>
prop elled</w>
Bil ba
Bilba o</w>
E agle</w>
p act</w>
ok a</w>
le y
in um</w>
Out side</w>
Tayy ip</w>
bo k</w>
d ay-
super ior</w>
St enson</w>
k not</w>
ri sky</w>
syn dic
insul ting</w>
d ads</w>
bal con
Mil k</w>
commun icated</w>
hy dro
im posing</w>
exp enses</w>
loy alists</w>
certi fied</w>
The atre</w>
Brit ney</w>
confir ming</w>
medi um</w>
r ammed</w>
Iran ians</w>
d ire</w>
ir ate</w>
-year- olds</w>
2 12</w>
sk el
Gram mer</w>
Ga al</w>
sub tle</w>
Sp i
ER S</w>
- down</w>
re mind</w>
Hills borough</w>
emb assi
roof s</w>
bu yer</w>
Wor th</w>
C age</w>
A br
Batt alion</w>
he a</w>
hybri d</w>
K ag
cor ri
atic s</w>
att ende
exac erb
mor atorium</w>
sh outing</w>
ne yland</w>
Mc Co
Mon ument</w>
Bu zz
ograp her</w>
ch en
tax- exempt</w>
Salv ation</w>
back -to-
l lery</w>
arti llery</w>
Av engers</w>
Guatem alan</w>
ex changed</w>
cell ular</w>
H ey</w>
vis itor</w>
cl an</w>
sl ice</w>
InSt y
pun k</w>
p ine</w>
ec asters</w>
bud gets</w>
An ders</w>
Kit ty</w>
under age</w>
reg ained</w>
hi k
H em
ener gi
amp ed</w>
repe ating</w>
che on</w>
low ered</w>
milit ary-
it ure</w>
contam ination</w>
H .
ham mer</w>
E aster</w>
ay ings</w>
sl ayings</w>
H ad</w>
br ow
studi os</w>
out fits</w>
unanim ous</w>
in accurate</w>
Cin ema
po ised</w>
Strateg ic</w>
Anast asia</w>
Yor kers</w>
Al ps</w>
d led</w>
ver tical</w>
pressur ed</w>
We eks</w>
carto ons</w>
tu ary</w>
estr anged</w>
v and
Gr ound</w>
pir ate</w>
slog ans</w>
Dis neyland</w>
shor es</w>
plun ged</w>
Cinema Score</w>
swi f
Clar ke</w>
gr ay</w>
gr ows</w>
car riage</w>
smuggl ers</w>
Mon te
Marl ise</w>
ec os
ecos y
achiev ing</w>
he ir</w>
clim bing</w>
ham pered</w>
Mil lion</w>
cru ised</w>
spon sors</w>
state wide</w>
super intendent</w>
Al- Assad</w>
accompan ying</w>
Ch ur
premi ered</w>
ur n</w>
sic kness</w>
arm ac</w>
competi tor</w>
E L
70 0,000</w>
STE M</w>
enrich ment</w>
at ched</w>
Shin aw
advertis ers</w>
m ming</w>
vo iced</w>
satell ites</w>
Bl acks</w>
dec lining</w>
cali ber</w>
Al ert</w>
im ent</w>
some time</w>
Cas tillo</w>
ne um
wor rying</w>
2 1
Gi ve</w>
Buck ingham</w>
lap se</w>
promo tional</w>
W P
ov ia</w>
hand les</w>
Sh ow
Cl ash</w>
NH L</w>
Conserv ative</w>
Sil vio</w>
der gar
T elec
cust om</w>
For ecasters</w>
con qu
LA PD</w>
Le gi
War hol</w>
Smi th
t asked</w>
Bern ard</w>
Am man</w>
ac ron
patr ick</w>
T us
Spenc er</w>
P ill
st ad</w>
z ier</w>
Frances co</w>
authen tic</w>
high- end</w>
Mar cel
16 ,000</w>
He ather</w>
ji ang</w>
Rel ated</w>
histor ian</w>
Sim ple</w>
t ore</w>
Bas ketball</w>
spr ayed</w>
hij ackers</w>
William son</w>
cu rious</w>
X i
pe destri
shor ter</w>
Shel ly</w>
d t</w>
ear liest</w>
blizz ard</w>
org anic</w>
trans ferring</w>
h acked</w>
Fri end
adap ted</w>
Sal a
Bol ivi
re fund</w>
revel ations</w>
uc ked</w>
w icket</w>
t ear
S ources</w>
embassi es</w>
sn ake</w>
er es</w>
ab y</w>
nuclear -
tellig ent</w>
sh elled</w>
Ayatol lah</w>
F arn
en ne</w>
ster oids</w>
ind ul
absol ute</w>
Y ing
bul l
bo o</w>
Ferr is</w>
Ch all
Sch i
B ates</w>
so aring</w>
Hum ane</w>
Shinaw atra</w>
mon ks</w>
ob taining</w>
On t
Ont ario</w>
mus cle</w>
tab les</w>
summ ary</w>
sk ull</w>
Engl ish
qu anti
Mujah id</w>
em ails</w>
al together</w>
Qu estions</w>
col ored</w>
c afe</w>
Wel come</w>
bu g</w>
integr ate</w>
cov eted</w>
lim itations</w>
bureau cr
over head</w>
i k</w>
under neath</w>
K ad
Min ority</w>
fing er
intru der</w>
prob able</w>
int end</w>
Tran sport</w>
Cat alan</w>
InSty le.com</w>
Mil ton</w>
vic ious</w>
Mad uro</w>
ant es</w>
W yn
clos et</w>
g owns</w>
e ously</w>
f ec
st le</w>
duc t</w>
anti-Sem itic</w>
t ast
U d
he al</w>
Vic ti
dres ses</w>
sm ooth</w>
smil ing</w>
U BS</w>
V s</w>
Su gar</w>
mel ting</w>
B uck</w>
pur portedly</w>
remin ded</w>
fir sthand</w>
thor n</w>
g ases</w>
p tions</w>
Bam ako</w>
Meh di</w>
Up on</w>
Trin id
sn ap</w>
be ds</w>
Peter sburg</w>
Flor ence</w>
G an
Ker cher</w>
mar ching</w>
Ev ent
pun ishments</w>
ow icz</w>
Rah man</w>
psychi atri
eg g</w>
war ehouse</w>
al beit</w>
lo dged</w>
occurr ing</w>
at e-
m asked</w>
Me ade</w>
McCorm ick</w>
Rw andan</w>
defin ing</w>
weigh ing</w>
an ship</w>
cont emp
Sen ator</w>
screen play</w>
h ell</w>
Le y
om bie</w>
frustr ating</w>
Led ger</w>
tel escope</w>
Electr onic</w>
re instated</w>
dru m</w>
head -to-
Ch erry</w>
compe t
bank rupt</w>
vi ous</w>
r amp</w>
sli m</w>
b is
ur y-
Bir d</w>
inv aded</w>
ther- in-law</w>
M ash
Tour e</w>
H ake
n an</w>
uph old</w>
in adequate</w>
J o</w>
cat ering</w>
oph ob
distribu ting</w>
Im ages</w>
Boo ker</w>
ap i
tr ap</w>
Chry stal</w>
spar k</w>
Leg isl
am endments</w>
t apes</w>
Her tha</w>
comment ators</w>
part -time</w>
Sh irts</w>
exha usted</w>
J ared</w>
rac le</w>
Or bit
UN C</w>
out age</w>
les bians</w>
conf isc
k an</w>
loc king</w>
bl unt</w>
C le
- controlled</w>
entertain er</w>
Eg g</w>
compl aining</w>
tou ted</w>
experim ents</w>
Ke ep</w>
Cl assic</w>
9 0-
compati ble</w>
h ill
C au
si ding</w>
hur ting</w>
near ing</w>
re opening</w>
vest on</w>
si bling</w>
propor tion
5 4-year-old</w>
Tuc ker</w>
der ail</w>
publ ishers</w>
Ag ent</w>
che ese</w>
sh am
reg ards</w>
for b
nec k
Ying luck</w>
Presid ents</w>
broad casting</w>
B ear</w>
E is
acron ym</w>
Khal ed</w>
char is
gl it
Prot ocol</w>
Anchor age</w>
J ar
embarrass ing</w>
recru it
astronau t</w>
W ig
N oda</w>
ar tistic</w>
cau tious</w>
prot ocol</w>
Bo as</w>
secon dary</w>
dis content</w>
Alvar o</w>
iz en</w>
i ved</w>
bl er</w>
E ff
An iston</w>
un stable</w>
A rub
Cli j
exclu sion</w>
Nath aniel</w>
Ped ros
com a</w>
Col bert</w>
ad io</w>
Schwar tz</w>
H .</w>
B ush
far ther</w>
us sion</w>
Ar pa
ic e-
wrest ling</w>
conclud es</w>
Cinc inn
Cincinn ati</w>
O racle</w>
assail ants</w>
dum p</w>
leg alize</w>
fre ely</w>
affir med</w>
cir cles</w>
legitim acy</w>
- style</w>
Hart ford</w>
loc ate</w>
An field</w>
si zes</w>
che ered</w>
ent ers</w>
M atch</w>
w and
e ze</w>
occas ionally</w>
P AC
stitu tional</w>
U sing</w>
bern atorial</w>
Han son</w>
Y ang
ac ier</w>
outr aged</w>
bloo d-
techn ological</w>
prepar ations</w>
categ or
Trinid ad</w>
Mu k
ol ive</w>
cru ci
discre tion</w>
handcu ffed</w>
con sists</w>
H ath
deci sion-
Caf fer
ous es</w>
ex clud
scram bling</w>
pr ou
7. 8</w>
Clear ly</w>
Rom ania</w>
ul es</w>
Ch o
S la
Alger ian</w>
g or
cancell ation</w>
Prad esh</w>
sl alom</w>
S O
Sim s</w>
N olen</w>
UN H
Hake em
fl ower</w>
cr acking</w>
prom pt</w>
co ordination</w>
frag ments</w>
S per
drug- related</w>
guerr illas</w>
Ch ev
Fol ey</w>
where as</w>
r anger</w>
su es</w>
L D</w>
Wor king</w>
install ations</w>
pun ch</w>
Maril yn</w>
al ous</w>
R ally</w>
notori ously</w>
grati tude</w>
J et</w>
Arub a</w>
Mon fil
d den</w>
a ar</w>
ro de</w>
hand writing</w>
aspir ing</w>
sha ken</w>
one- time</w>
as simil
as set</w>
10- year</w>
restr ict</w>
b ore</w>
summon ed</w>
fut u
commis sions</w>
Day light</w>
Surve illance</w>
R iley</w>
W endy</w>
co operated</w>
W ow</w>
p neum
sa m</w>
Sil icon</w>
contest ants</w>
ML B</w>
ar in</w>
Inv est
Pop ulation</w>
pedi atr
c ook</w>
gu bernatorial</w>
Pres by
sou p</w>
Law yers</w>
Ha as</w>
squar e-
c enti
K CNA</w>
gr aded</w>
he e</w>
a thetic</w>
f el</w>
f arewell</w>
St oke</w>
M el</w>
ground breaking</w>
f laws</w>
A ch
ran i</w>
equ alized</w>
Mon a</w>
rem or
Carl ton</w>
ov en</w>
17 5</w>
Ch a</w>
co tics</w>
C ell</w>
ath er
AC K</w>
Four th</w>
f in</w>
Fe instein</w>
re ate</w>
Cor ruption</w>
roll s</w>
alco hol
depres sed</w>
du al</w>
Atlan tis</w>
re acted</w>
Targ et</w>
UN E
prot ein</w>
hom em
specific s</w>
bro oke</w>
e tically</w>
w inger</w>
S ue</w>
pass words</w>
Bar tol
ridic ulous</w>
out fit</w>
inf ants</w>
Arpa io</w>
Re in</w>
Mad off</w>
li able</w>
fl urry</w>
op ed</w>
man ship</w>
cre ek</w>
st ered</w>
bo asts</w>
un successfully</w>
Play ing</w>
g onna</w>
Labor atory</w>
Z AN
M use</w>
Al ban
Indi an-
u ous</w>
ab i</w>
w aved</w>
alle giance</w>
T a
sl aves</w>
autom ated</w>
un do</w>
Paul a</w>
Sil ver
c ognitive</w>
din os
se ize</w>
wh enever</w>
play offs</w>
10 1</w>
M oines</w>
di gging</w>
com posed</w>
oll er</w>
S pl
dep icted</w>
four th-
op -
tou ches</w>
Pedros a</w>
real- time</w>
Swan sea</w>
5- 4</w>
G- 20</w>
diver t</w>
Ran ch</w>
stead ily</w>
autobi ography</w>
pol ar
la via</w>
in sider</w>
Aby ei</w>
Asi ans</w>
trac ed</w>
broadc asts</w>
pre fecture</w>
i b</w>
Dream liner</w>
block buster</w>
con vey</w>
over seeing</w>
sc anning</w>
A bor
panc re
po et</w>
comm uters</w>
boun ty</w>
he ed</w>
hi e</w>
K P
SC O</w>
UNE SCO</w>
fi erc
de ter</w>
UNH CR</w>
B lan
cont ender</w>
ie ties</w>
lin ers</w>
s ink</w>
4 4-
quali fication</w>
Cop tic</w>
gu l</w>
conc ussion</w>
Napol eon</w>
im port</w>
c ake</w>
Dani elle</w>
bil ateral</w>
m athem
memo ir</w>
s son</w>
battle ground</w>
resp ect
portr ayal</w>
AM C</w>
ough lin</w>
McL oughlin</w>
Ap p</w>
fic ations</w>
Bern stein</w>
stu ffed</w>
FA CE
Chap man</w>
D am</w>
other apy</w>
dis pen
TED .com</w>
B is
show case</w>
McCo y</w>
St ing</w>
ebr a</w>
d ong</w>
compl e
comple tion</w>
Cop a</w>
rej ection</w>
Coch ran</w>
integr al</w>
Mor rison</w>
San ford</w>
debu ts</w>
sail or</w>
P O</w>
ar es</w>
B ail
Berg er</w>
scru tin
f om
Bur ns</w>
power house</w>
ar en
oc ols</w>
unfol ded</w>
SA NA</w>
mos ques</w>
ad missions</w>
Gam al</w>
D oll
ti en</w>
D ist
Thorn ton</w>
Cop eland</w>
Con cer
inv al
mis use</w>
Bar z
cos tum
ff etz</w>
Cha ffetz</w>
prec incts</w>
practic ally</w>
H indu
j a
G are
Gare th</w>
tru sted</w>
hol m</w>
introduc ing</w>
Uygh ur</w>
forth coming</w>
Hul u</w>
H R</w>
Clij sters</w>
F u</w>
Bri tish
K lan</w>
im i</w>
re ign</w>
com ics</w>
Gu st
inst all</w>
Lub itz</w>
vi sibility</w>
[...]
