s </w>
e </w>
n </w>
d </w>
t </w>
e r
t h
i n
y </w>
o r
a n
a r
; </w>
e d</w>
o </w>
a l
e n
a </w>
r e
t i
er </w>
o n
g </w>
, </w>
th e</w>
o n</w>
o u
o t
o s
in g</w>
i n</w>
e s</w>
o f
t o</w>
q u
a p
i l
i c
s t
qu ot
& quot
&quot ;</w>
of </w>
a t
o m
s a
a n</w>
i s</w>
ap os
apos ;</w>
& apos;</w>
e l
a c
a s</w>
r i
an d</w>
h e</w>
o l
or </w>
al </w>
a m
i t
a s
c h
y s</w>
e s
u r
l </w>
sa ys</w>
e c
i s
th </w>
e n</w>
o w
l e
i r
s i
a t</w>
en t</w>
k </w>
t s</w>
o p
u s
v e</w>
: </w>
er s</w>
a ti
f or</w>
T he</w>
a d
l i
g h
u n
e m
o v
a g
l e</w>
e ar
a y</w>
s h
p r
d i
h a
d e
w i
b e
t r
c e</w>
p </w>
. </w>
a b
w as</w>
ar e</w>
l y</w>
n e
c on
ou n
p l
f r
t er</w>
wi th</w>
m </w>
s e
s u
c om
0 </w>
h as</w>
a k
s p
o c
ou r
om </w>
w h
w </w>
i t</w>
u l
f or
il l</w>
on s</w>
e x
t ed</w>
i d
h </w>
ati on</w>
l d</w>
o t</w>
at e</w>
e d
ou t</w>
ti on</w>
a f
fr om</w>
of f
h is</w>
er e</w>
b e</w>
o o
g r
ha ve</w>
w ill</w>
ow </w>
p or
b y</w>
t er
p re
A </w>
i m
r a
l a
i </w>
b u
p e
si d
d s</w>
ar </w>
d ay</w>
e y</w>
w or
s t</w>
e v
i gh
ch </w>
C h
y ear
v i
ic e</w>
th er</w>
w e
U .
W </w>
el </w>
N E
o b
NE W</w>
u d
a in
it y</w>
2 0
ic </w>
th at</w>
p ar
es t</w>
i st
as t</w>
on e</w>
il l
H e</w>
al l
f </w>
sa y</w>
ov er
c l
U. S
m ent</w>
or e</w>
k s</w>
r u
i ti
g e</w>
e t</w>
a d</w>
b l
t e
n ot</w>
p er
ou ld</w>
U.S .</w>
i d</w>
ir </w>
af ter</w>
t y</w>
an d
f ir
T h
re c
a u
om e</w>
at t
an s</w>
s e</w>
en ts</w>
ar y</w>
i g
in g
m il
p ol
en t
ic i
m e</w>
op le</w>
be en</w>
h er</w>
m an</w>
al l</w>
ac k</w>
w ere</w>
s c
i a</w>
a y
ow n</w>
i v
pe ople</w>
in e</w>
al s</w>
o d
S t
a v
e p
s on</w>
it s</w>
ag e</w>
our </w>
am </w>
u p</w>
e st
t ing</w>
1 </w>
d er</w>
ti c
h el
m e
r o
th e
t ur
ac e</w>
u c
at ed</w>
il </w>
0 0</w>
u m
ab out</w>
h e
sid ent</w>
an y</w>
I n
oun d</w>
am a</w>
or s</w>
r an
i es</w>
ar g
i z
N e
w o</w>
os t</w>
es s</w>
O b
en ce</w>
en d
m ore</w>
2 </w>
a in</w>
f f
ol d</w>
A m
on g</w>
d is
k ill
f in
p os
o ther</w>
s o</w>
ov er</w>
u t
bu t</w>
ac c
off ici
Ob ama</w>
m in
ak e</w>
on al</w>
re s
o g
at es</w>
am p
st r
x </w>
b o
gh t</w>
f e
k e</w>
h i
s ec
ne w</w>
th an</w>
the ir</w>
m on
5 </w>
an t</w>
re e</w>
ha d</w>
ar d</w>
em b
ac k
re por
f i
ati ons</w>
ap p
s er
ti ons</w>
c ri
over n
A n
p h
t ri
u e</w>
m ar
t wo</w>
c an</w>
an n
fir st</w>
com m
al ly</w>
i on</w>
th ey</w>
s he</w>
wh o</w>
it e</w>
20 1
i an</w>
ol </w>
1 9
$ </w>
M ar
c r
en d</w>
I </w>
e b
as e</w>
year </w>
we e
sa id</w>
t on</w>
er ic
v er
p ec
en ti
c oun
igh t</w>
3 </w>
us e</w>
f l
us t</w>
le g
for m
an c
Am eric
c re
4 </w>
s ti
is t</w>
el l
P re
en c
li on</w>
p ri
u s</w>
an ce</w>
ol l
le ad
th is</w>
in ce</w>
ou s</w>
f e</w>
w om
l in
us ed</w>
p u
g overn
k ing</w>
v ic
in v
I t</w>
s ur
a il
an g
e t
si on</w>
oo d</w>
year s</w>
am e</w>
al so</w>
d ec
c all
oo k</w>
m is
kill ed</w>
U n
n ow</w>
A r
f u
a w
20 0
, 0
S he</w>
k ed</w>
op </w>
ti me</w>
in a</w>
or y</w>
A l
ad e</w>
N </w>
8 </w>
y ing</w>
as s
p o
pol ice</w>
el l</w>
,0 00</w>
g l
es ti
on g
l ast</w>
em </w>
d ing</w>
7 </w>
Ne w</w>
ab le</w>
in to</w>
c ould</w>
ing s</w>
C N
m s</w>
6 </w>
com p
it ed</w>
g u
gr ou
sh i
iti es</w>
pr o
in ter
am il
r y</w>
c ar
al i
a ir
Pre sident</w>
d re
os e</w>
ati onal</w>
n ing</w>
i al</w>
CN N</w>
b ec
n ed</w>
ou gh
a ys</w>
d er
R e
ear </w>
ain st</w>
ur r
z </w>
el y</w>
d o
e -
ag ainst</w>
mil lion</w>
re m
ch il
w in
i e
govern ment</w>
an ts</w>
es s
A u
il e</w>
wor ld</w>
por t</w>
de a
cl ud
at ing</w>
d es
n o</w>
o h
o k
di a</w>
pr ot
I s
s ince</w>
9 </w>
in clud
s ch
ar re
sh ow</w>
D e
a st
be t
as h
L e
p s</w>
t al
m ost</w>
u b
ou </w>
g o
re s</w>
f ound</w>
v e
ow s</w>
re g
ne y</w>
f ac
u ri
b le</w>
mil it
en g
er al</w>
f amil
d on</w>
offici al</w>
ec t</w>
u t</w>
su p
es e</w>
pre s
w s</w>
h igh
is h</w>
w ar
pr ov
u m</w>
ac h</w>
o s</w>
l l</w>
t ers</w>
n s</w>
ough </w>
on d</w>
con t
st s</w>
c o
off </w>
tr y</w>
n er</w>
ch arg
hel p</w>
emb er</w>
er n</w>
v is
o ot
w ould</w>
ou se</w>
our t</w>
ri v
W h
P ol
wh en</w>
be ing</w>
er g
as ed</w>
P r
c ap
hi m</w>
S h
ur ing</w>
er ed</w>
t or</w>
m any</w>
h os
W or
s us
t ak
pl ay
b el
offici als</w>
S ou
or e
th or
t o
d r
s ome</w>
S y
m ak
f il
b r
pre sident</w>
g et</w>
st ud
om b
d own</w>
S </w>
em ent</w>
in c
ig n</w>
st ar
grou p</w>
shi p</w>
o th
wee k</w>
con tr
n ational</w>
b ack</w>
year -
th ree</w>
ser v
v ot
re sp
B ri
R us
dea th</w>
s y
d ed</w>
es day</w>
re l
ac h
si g
el ec
at er</w>
- year-
an e</w>
C on
h ome</w>
Ch ina</w>
E n
st ate</w>
M on
at s</w>
am es</w>
n e</w>
wom en</w>
ou s
w in</w>
sh ould</w>
th r
-year- old</w>
di ed</w>
f a
i e</w>
in j
C </w>
K ore
fr ic
ur e</w>
N or
ic al</w>
m ade</w>
p p
A fric
for e</w>
k e
d uring</w>
v es</w>
i f
ou t
res s</w>
ic h</w>
w ay</w>
famil y</w>
m ay</w>
F or
o ve</w>
Rus si
- </w>
wor k</w>
Un ited</w>
it al</w>
P ar
Wor ld</w>
o y
L i
d o</w>
pu bl
Sy ri
I n</w>
en s</w>
is h
st ri
t u
p t</w>
g en
esti g
s ol
st ed</w>
m en</w>
Pol ice</w>
dre n</w>
C ar
id e</w>
tur e</w>
tic </w>
li fe</w>
be fore</w>
m i
m ov
A f
M ic
is su
Sou th</w>
li ke</w>
ist an</w>
S u
re le
milit ary</w>
s el
a use</w>
op e</w>
sch o
b er
iti c
an ds</w>
vi ol
m ake</w>
min ist
m p
call s</w>
l and</w>
S p
d em
P </w>
in d
w on</w>
th ere</w>
sti ll</w>
u </w>
thor ities</w>
as h</w>
la w
we en</w>
t re
l ine</w>
th s</w>
a z
Americ an</w>
k n
- -</w>
att ack</w>
chil dren</w>
se t</w>
coun try</w>
ti ve</w>
as sa
b il
y ou</w>
de f
B ar
ol og
bet ween</w>
r an</w>
pol itic
c es</w>
S ome</w>
form er</w>
g o</w>
c la
al leg
s ing</w>
t en
t ake</w>
al th</w>
E ur
Th ey</w>
enc y</w>
m er</w>
uri ty</w>
um b
os s</w>
J oh
M c
sh </w>
l es</w>
st or
ac ks</w>
fu l</w>
F ran
vi e
a th
t or
S un
ati ve</w>
c amp
inv estig
a k</w>
i f</w>
gh ts</w>
tr an
f t</w>
pec ted</w>
or g
m at
pl ace</w>
ex per
m a
R ep
m y</w>
t e</w>
ear ly</w>
th em</w>
th re
b or
e f
W e</w>
po in
H ouse</w>
as on</w>
li ght</w>
O </w>
d e</w>
sid e</w>
e g
iz ed</w>
ar e
ac t</w>
B r
iv er
c u
c ourt</w>
c er
od uc
a ve</w>
g re
la w</w>
op er
ow er</w>
l ed</w>
wom an</w>
P h
m an
i tion</w>
re ad
el s</w>
C om
resp on
i m</w>
b omb
te am</w>
re tur
m ust</w>
wi th
sp e
b an</w>
repor t</w>
b re
ou ght</w>
g i
S en
e p</w>
r e</w>
od y</w>
s m
f ri
s en
pr ob
f our</w>
st ru
E x
T u
wh at</w>
bu il
ic k</w>
O ne</w>
a h
F ri
T his</w>
sec ond</w>
r ul
sp ok
G r
hos p
un der</w>
d oc
w it
c ase</w>
s oc
w e</w>
J u
fir e</w>
P ak
at ur
p ed</w>
sp ec
ra q
% </w>
on ly</w>
ow ing</w>
I raq
b ro
t le</w>
k er</w>
rec or
ag es</w>
V </w>
e ts</w>
am s</w>
w ri
W il
ac y</w>
c urr
he ad</w>
par t</w>
j ust</w>
al e</w>
an t
le ar</w>
ne x
ter r
oc r
Nor th</w>
y our</w>
vi de
enti al</w>
P e
an ge</w>
t ain</w>
t op</w>
de ad</w>
sh ows</w>
est s</w>
1 0</w>
di d
af f
k ey</w>
ell s</w>
u bl
Is ra
spok es
publ ic</w>
cri tic
ti es</w>
oth ers</w>
nex t</w>
le ast</w>
li m
m ed</w>
0 ,000</w>
ain s</w>
b i
Th ere</w>
In ter
B ut</w>
lead er</w>
on om
? </w>
p ass
r en
op ul
i p
camp a
d ru
s k
En gl
un der
Sun day</w>
s l
id ent</w>
Af gh
off ic
h ow</w>
f ace</w>
f igh
as s</w>
l y
an a</w>
c an
c c
me dia</w>
op s</w>
si ve</w>
f un
c el
G er
in s</w>
sh ot</w>
call ed</w>
C lin
u res</w>
Joh n</w>
s es</w>
mon th</w>
sec urity</w>
C ol
thr ough</w>
v ed</w>
d el
h ar
ent ly</w>
pr oduc
app ear
h om
A t</w>
wh ich</w>
ch ar
h u
Ch ri
C up</w>
de v
R ob
us es</w>
scho ol</w>
l oc
in d</w>
g ir
Mon day</w>
si ble</w>
ur y</w>
e an</w>
ec onom
ist s</w>
D em
c ity</w>
w ar</w>
v er</w>
I ran</w>
par t
j o
as es</w>
end ing</w>
on y</w>
fin al</w>
comp any</w>
n or
B o
ph ot
H is</w>
ch ange</w>
hel d</w>
g iv
di ff
pec t</w>
a il</w>
is e</w>
h ol
re qu
u p
ic s</w>
a vi
vic ti
t ors</w>
h ear
d en
le y</w>
on es</w>
2 0</w>
p opul
he alth</w>
com e</w>
i o</w>
re t
m es</w>
ex pected</w>
B l
u al</w>
a id</w>
er y</w>
bec ause</w>
ic ul
arre sted</w>
k id
pr om
A b
fi ve</w>
th ir
de t
at ors</w>
G re
n ear</w>
Rep ubl
cla im
our n
S c
emb ers</w>
us h</w>
se ason</w>
charg es</w>
p en
Fri day</w>
sy st
N .</w>
is m</w>
ie f</w>
T wo</w>
f oll
s ed</w>
stud ents</w>
Syri a</w>
ne ed
be g
r un
n umb
prob le
p le
pr of
acc used</w>
J ap
Clin ton</w>
G u
Kore a</w>
Tu esday</w>
a ir</w>
vide o</w>
R om
charg ed</w>
v ing</w>
H e
pl ay</w>
os ec
ann oun
end ed</w>
St ates</w>
en ed</w>
m ur
sp or
ti n</w>
B e
ag ue</w>
is ion</w>
su cc
Americ ans</w>
M us
H ar
tr o
g g
k et</w>
er r
sup port</w>
U. N.</w>
Q u
repor ts</w>
de al</w>
e ther</w>
A t
Y or
en se</w>
wh ere</w>
ex pl
sh oot
i ons</w>
A n</w>
l ess</w>
se e
ic t</w>
d ays</w>
b ur
M il
d ra
am ong</w>
j ob
v en
M e
ch es</w>
k ers</w>
Russi a</w>
ed ly</w>
c ar</w>
s ite</w>
1 1</w>
S er
dis c
ud ge</w>
ear ch</w>
ec ted</w>
wh ile</w>
G O
O ff
en ds</w>
ur ed</w>
F ac
h al
S ch
mon ey</w>
t ook</w>
I S
le ft</w>
t en</w>
w ant</w>
M an
cont in
ti sh</w>
r ac
tri es</w>
c or
c </w>
d uc
ri ghts</w>
ma j
se e</w>
M in
ag o</w>
c anc
su ff
Iraq </w>
ev er</w>
d riv
fa ther</w>
b all</w>
c ol
com es</w>
l ar
GO P</w>
t ells</w>
ex ic
hosp ital</w>
G e
t arg
F l
Yor k</w>
M exic
m embers</w>
Th ur
en ing</w>
w ants</w>
sel f</w>
ne ed</w>
e e</w>
con sid
m ed
oc k</w>
l s</w>
inv ol
includ ing</w>
T ur
ch ang
la un
Dem ocr
li k
S atur
h ist
m u
h app
ain ed</w>
an other</w>
c ed</w>
Bri tish</w>
am ed</w>
i ans</w>
Afric a</w>
o -
u tion</w>
tr av
K </w>
w at
ed eral</w>
g y
M ore</w>
ac ti
lead ers</w>
Satur day</w>
z e</w>
er ing</w>
t es</w>
syst em</w>
Ch in
campa ign</w>
T V</w>
ch amp
spokes man</w>
pl ane</w>
ow ed</w>
y er</w>
th ose</w>
b us
oun ded</w>
rele ased</w>
comm un
au thorities</w>
19 9
A ir
su l
thir d</w>
f re
Thur s
high </w>
att acks</w>
al y
pr op
sc or
it es</w>
W ed
Republ ic
w ater</w>
3 0</w>
st at
kn own</w>
Thurs day</w>
wi fe</w>
politic al</w>
su m
o on</w>
de b
fi ed</w>
minist er</w>
di rec
ev en</w>
st ar</w>
- 0</w>
m other</w>
C ong
ru n</w>
S ec
di es</w>
at or</w>
n ia</w>
ir e</w>
viol ence</w>
C ity</w>
sc ri
y oun
t ory</w>
i ous</w>
c en
g er</w>
5 0</w>
u es</w>
per c
Pak istan</w>
d -
201 2</w>
ol e</w>
h it</w>
le ad</w>
1 0
c are</w>
l oo
A c
l ong</w>
ar ound</w>
tr ying</w>
ver y</w>
iver s
c a
n esday</w>
Wed nesday</w>
t a
stru c
r ap
om in
ot s</w>
pro gr
for m</w>
elec tion</w>
b ody</w>
ati on
Chin ese</w>
Mic ha
or d
C ali
y a</w>
p ower</w>
J an
- 1</w>
pl oy
pl ans</w>
su b
coun tries</w>
pl ac
t -
t w
Cali for
O ly
Wh ite</w>
Oly mp
v ir
con vic
c iv
lin es</w>
L on
b est</w>
pri son</w>
ri s
an ti
on a</w>
ch ief</w>
op pos
mon ths</w>
ing ton</w>
r ace</w>
g es</w>
e es</w>
B ra
d en</w>
issu es</w>
Wil li
avi d</w>
ri ed</w>
er n
N ov
osec ut
in t
ri ght</w>
i ev
D </w>
gr ap
th in
i de
Micha el</w>
J ack
N o</w>
M al
bus in
he ad
win s</w>
tak en</w>
chil d</w>
f ail
on ed</w>
om e
in cre
T e
cl os
st er</w>
di d</w>
j ect</w>
Califor nia</w>
to o</w>
l ing</w>
t a</w>
I S</w>
al ity</w>
ac tion</w>
pre sid
mur der</w>
terr or
P ri
T ran
a i</w>
D avid</w>
Lon don</w>
w ell</w>
g ame</w>
er ry</w>
grou ps</w>
an i</w>
th ing</w>
fil m</w>
por t
pr oc
gh ter</w>
si ons</w>
repor ted</w>
be at</w>
IS IS</w>
su ch</w>
m us
kill ing</w>
with out</w>
E gy
p le</w>
f oot
e ff
al -
s ent
bo th</w>
Fran ce</w>
am b
lik ely</w>
Au str
g ood</w>
Americ a</w>
Is l
ag ed</w>
bec ome</w>
l and
c ul
se en</w>
ati c</w>
st and
n ight</w>
numb er</w>
r oss</w>
p ing</w>
e qu
St ate</w>
ar ds</w>
re f
par ty</w>
M ad
U k
b and</w>
inj ured</w>
si x</w>
p age</w>
0 s</w>
c oll
w an
h er
Austr al
n ess</w>
m od
vot e</w>
st re
n ec
h ot
s our
ch ed</w>
es tions</w>
ain ing</w>
S te
aw ay</w>
v ol
T </w>
l d
id enti
pos sible</w>
f ood</w>
Uk ra
at r
mi gr
tri al</w>
Jack son</w>
inter national</w>
S e
ti l</w>
an g</w>
Eur op
le v
D ay</w>
ap pe
vie w</w>
h op
l ong
l o
d ge</w>
ec ts</w>
s ing
it ing</w>
cr ash</w>
B ush</w>
f ree</w>
ow n
ch n
ab </w>
t old</w>
gu il
part ment</w>
dev el
c ou
Afgh an
l arg
h ind</w>
g un
In dia</w>
sus pect</w>
in es</w>
W est</w>
o il</w>
Rom ney</w>
go ing</w>
F ren
w ent</w>
m ove</w>
b </w>
d u
Afghan istan</w>
an y
read y</w>
scri pt</w>
For mer</w>
leg al</w>
O p
en n
bil lion</w>
wor king</w>
com pe
m ent
poin ts</w>
rec e
ub </w>
ad v
k now</w>
us ti
b att
b ack
tro ops</w>
em ploy
w ays</w>
claim s</w>
un til</w>
I tal
se x
av y</w>
f ederal</w>
S A</w>
us ing</w>
m id
eb ook</w>
retur n</w>
l ost</w>
A d
bel iev
O r
est ers</w>
Au thorities</w>
P al
d ic
s w
ch all
le ar
diff er
m ul
C ourt</w>
st e
C o
Isra el</w>
o grap
Fac ebook</w>
con cer
ic k
ail y</w>
h un
iz e</w>
be hind</w>
ti mes</w>
for ces</w>
n ation</w>
N A
Le ague</w>
f oc
se x</w>
f ul
en e</w>
C oun
f ight</w>
1 2</w>
rec ent</w>
con di
W ash
Afric an</w>
id a</w>
ut e</w>
our s</w>
progr am</w>
Russi an</w>
K en
W i
ex ec
b ased</w>
sol di
olog y</w>
pass eng
1 5</w>
C ri
d am
mu ch</w>
ul t</w>
E l
mis sing</w>
op en</w>
De f
th ern</w>
Fl or
m ents</w>
sup por
id ence</w>
con f
D i
mis sion</w>
ph one</w>
Wash ington</w>
ne ws</w>
wh ether</w>
ol s</w>
s ou
fac es</w>
d y</w>
a ther</w>
Sen ate</w>
contr ol</w>
Bra z
li er</w>
sur vi
c all</w>
off ice</w>
dec ision</w>
ol a</w>
est er</w>
R es
for e
perc ent</w>
inc ident</w>
m it
de fe
se ver
r ed</w>
Chri sti
d ue</w>
usti ce</w>
Europ ean</w>
icul um</w>
oun ds</w>
ne ver</w>
tr ad
shoot ing</w>
att or
tran s
g ed</w>
T ali
pu t</w>
fri end</w>
Th ree</w>
/ </w>
p an
T ex
Off ici
ef for
p ast</w>
guil ty</w>
an k</w>
Kore an</w>
dru g</w>
per s
au l</w>
s ome
M any</w>
h and
an iz
victi ms</w>
Jap an</w>
In di
includ e</w>
con fir
u str
h um
Tali ban</w>
il ity</w>
Rob er
soc ial</w>
ir ed</w>
e ting</w>
u ary</w>
re li
qu ar
t own</w>
youn g</w>
c lear</w>
H er</w>
recor d</w>
maj or</w>
am ent</w>
g ot</w>
Jan uary</w>
is c
ap </w>
tak es</w>
did n</w>
ev er
hist ory</w>
gi ve</w>
s la
Fren ch</w>
Mus li
d au
M </w>
ep t
c ame</w>
c ases</w>
A pp
ous ly</w>
ac ross</w>
Engl and</w>
vic tory</w>
19 8
ay or</w>
ra in</w>
Eur ope</w>
Flor ida</w>
investig ation</w>
w r
tal ks</w>
st ates</w>
i ve</w>
su it</w>
l ist</w>
g s</w>
se a</w>
li ve</w>
I f</w>
C an
j udge</w>
are a</w>
es sa
v o
t ly</w>
T wit
Mexic o</w>
v en</w>
ur </w>
Tex as</w>
1 4</w>
ous ands</w>
ic ide</w>
on -
h im
convic ted</w>
wor kers</w>
at est</w>
ish ed</w>
Twit ter</w>
devel op
wee k
r ad
au di
t est</w>
comp le
C l
Min ist
serv ice</w>
h ouse</w>
poin t</w>
te chn
need s</w>
im migr
Li b
ser ies</w>
de p
N o
uc lear</w>
Cong ress</w>
th en</w>
le t</w>
sh ar
comm it
o es</w>
1 3</w>
includ es</w>
gr ound</w>
mat ch</w>
em s</w>
er a</w>
G oo
Tran script</w>
in form
c am
r ation</w>
sever al</w>
fin d</w>
R ic
am m
d on
Mar ch</w>
An g
di sa
hu man</w>
im p
reg ion</w>
s is</w>
e ch</w>
t ou
n uclear</w>
App le</w>
sm all</w>
m essa
presid ential</w>
ag re
b ri
sc i
play ed</w>
em p
De partment</w>
N ational</w>
re sid
i j
is es</w>
H u
pl an</w>
l ater</w>
4 0</w>
w ard</w>
issu e</w>
la h</w>
ev ent</w>
O c
vis it</w>
m or
h ard</w>
Syri an</w>
y -
1 6</w>
ne w
we ap
f our
ti tle</w>
or ding</w>
l it
i on
over ed</w>
b ot
tic s</w>
ol l</w>
f light</w>
S i
d ou
bor der</w>
s ent</w>
es n</w>
A s
ne t
law yer</w>
do esn</w>
L </w>
gu n</w>
Sp ain</w>
F B
ke ep</w>
Nov ember</w>
1 00</w>
e ach</w>
e z</w>
re sul
an -
ad d
W om
rem ains</w>
sa me</w>
ot e</w>
can did
v al
Ger many</w>
offic ers</w>
prot ests</w>
B os
Ukra ine</w>
des cri
on line</w>
Ne ws</w>
201 0</w>
se y</w>
fore ign</w>
St ud
oo ds</w>
U </w>
wi de</w>
gen er
bi g</w>
fr on
l er</w>
af t</w>
wee ks</w>
popul ar</w>
ag ency</w>
P aul</w>
at a</w>
C urr
con c
attor ney</w>
ourn al
kid s</w>
b ab
busin ess</w>
in t</w>
S al
is ed</w>
W al
e as
ack ed</w>
li g
ri d</w>
p ite</w>
f y</w>
rul ing</w>
J o
sh or
FB I</w>
pol ic
enc es</w>
pri v
play ers</w>
sur e</w>
e er</w>
ed uc
p il
y an</w>
al ready</w>
I ran
Ch ar
a h</w>
Re port</w>
Ju ly</w>
hel ped</w>
Sc ot
201 4</w>
dea ths</w>
Isl am
s y</w>
com pl
ne t</w>
off ers</w>
n ame</w>
un e</w>
in f
b ig
com ing</w>
ter m</w>
offic er</w>
se t
ret ary</w>
wan ted</w>
econom y</w>
r ole</w>
b ir
201 1</w>
star ted</w>
te e</w>
M is
C E
mov ie</w>
Isra el
ann ed</w>
el d</w>
k a</w>
19 7
g et
cel eb
Republic ans</w>
D ec
p ic
Ex per
b ed</w>
cu st
U K</w>
Inter national</w>
D aily</w>
Op en</w>
E m
gre at</w>
par ents</w>
H a
ev idence</w>
U se</w>
h ours</w>
ch ester</w>
des ig
dau ghter</w>
qu e</w>
w al
. .</w>
as si
of ten</w>
h am</w>
thin k</w>
as ks</w>
sh are</w>
ap er</w>
c lim
1 5
200 9</w>
201 3</w>
hal f</w>
acc ording</w>
er c
. ..</w>
job </w>
ex t
mak es</w>
bo y</w>
me as
reg ul
B en
pr il</w>
A pril</w>
g le</w>
Q a
foot ball</w>
Qa ed
em erg
Man chester</w>
P or
r .</w>
id ed</w>
re al</w>
rece iv
per son</w>
proble m</w>
ob al</w>
us ers</w>
G h
a head</w>
D on
su icide</w>
uri es</w>
doc um
P l
ess es</w>
b ook</w>
ear s</w>
on ce</w>
an ese</w>
C or
G en
thre at
S om
deb ate</w>
z ens</w>
le t
1 8</w>
om s</w>
re sc
f av
en tion</w>
p er</w>
bil ity</w>
de st
stri ke</w>
gir l</w>
or ity</w>
l ad
cl ose</w>
ivers ity</w>
proble ms</w>
A le
cri min
st op</w>
w a
ut es</w>
r ob
ch ec
mar ri
anti -
ri </w>
C en
w ounded</w>
ch ing</w>
st ay</w>
Re al</w>
a im
ept ember</w>
S eptember</w>
2 5</w>
oppos ition</w>
t ob
ar ti
str ong</w>
go al</w>
j ail</w>
s al
Ph il
M i
bet ter</w>
in n
wor ks</w>
Br own</w>
for ce</w>
wri tes</w>
b en
M or
sch ed
ar t</w>
mak ers</w>
do es</w>
tak ing</w>
Engl ish</w>
vic es</w>
sp ace</w>
E r
ak ing</w>
re ve
R o
l ate</w>
bre ak</w>
phot os</w>
sa w</w>
enc ed</w>
h or
at ures</w>
Democr ats</w>
mak ing</w>
sus p
rele ase</w>
Willi ams</w>
n ow
ear lier</w>
gen eral</w>
a -
l ook</w>
H er
us band</w>
bo ard</w>
Mad rid</w>
ever y
p ul
app ed</w>
ep t</w>
c ut</w>
commun ity</w>
alleg ed</w>
beg an</w>
Israel i</w>
re pres
canc er</w>
M a
c our
re ach</w>
en ted</w>
polic y</w>
tre at
E b
h en
200 8</w>
cri me</w>
rul es</w>
champ ion</w>
hop es</w>
ec tion</w>
F our</w>
el ed</w>
b as
ag er</w>
s it
exper i
p ay</w>
st and</w>
ash ed</w>
Qaed a</w>
el a</w>
inj uries</w>
id es</w>
loc al</w>
in sp
g est</w>
qu estions</w>
inform ation</w>
rem ain</w>
exec u
def ense</w>
h on
o ke</w>
o ti
Ch el
pre me</w>
n early</w>
u ation</w>
B </w>
1 8
ad o</w>
or ge</w>
figh ting</w>
pec ts</w>
h ic
an i
p ati
J ames</w>
Y ou</w>
c ause</w>
him self</w>
invol ved</w>
osecut ors</w>
M ay</w>
Goo gle</w>
ati ves</w>
g ames</w>
le ave</w>
h usband</w>
cel ona</w>
sig n
st ory</w>
) </w>
m os
b ill</w>
out side</w>
fe w</w>
econom ic</w>
n amed</w>
scor es</w>
f ans</w>
es tion</w>
ail s</w>
J er
cri sis</w>
di v
A s</w>
pre vi
( </w>
compe ti
stud y</w>
Bar celona</w>
L ou
Sen .</w>
stor m</w>
r ound</w>
ab use</w>
k es</w>
an aly
re bel
m ag
l os
ch e
v ice</w>
sched ul
li es</w>
larg est</w>
ustr y</w>
ind ustry</w>
prot esters</w>
hot el</w>
r is</w>
G overn
s earch</w>
K ar
p ot
Ne w
Egy pt</w>
d ers</w>
m ain
V i
arre st</w>
win ner</w>
on str
star t</w>
T ra
ak s</w>
week end</w>
te en</w>
sur g
m ember</w>
v oc
fail ed</w>
ve hic
b er</w>
marri age</w>
op ped</w>
gir ls</w>
i or</w>
ic es</w>
ad es</w>
Ch amp
s qu
soldi ers</w>
li ghts</w>
all s</w>
weap ons</w>
ca used</w>
u ally</w>
buil ding</w>
fu g
No .</w>
sp ent</w>
per form
bel ie
giv en</w>
ad minist
m a</w>
j ournal
direc tor</w>
le av
in fl
mar ket</w>
Chel sea</w>
bot t
Tur key</w>
Som al
ograp h
appe al</w>
su gg
dep end
im port
a th</w>
loo king</w>
exper t</w>
sa fe
hom es</w>
p ur
W e
l ove</w>
sig n</w>
2 2</w>
org aniz
dra w</w>
sour ce</w>
f ar</w>
n ers</w>
Pr ot
po ol</w>
as ked</w>
cl ub</w>
comp an
L aw
in ed</w>
y p
g ave</w>
in o</w>
rebel s</w>
N ig
B C</w>
cre w</w>
if f</w>
anc es</w>
comm ents</w>
6 0</w>
civ il
is l
co -
M an</w>
th ese</w>
bl ack</w>
L a
e ase</w>
ad s</w>
uc k</w>
tr al</w>
Mar tin</w>
le ge</w>
t edly</w>
contin ue</w>
re st
B i
ev ery</w>
med ical</w>
ld n</w>
S ha
f em
y le</w>
Chri st
J une</w>
Iran ian</w>
20 0</w>
f -
w ood</w>
e ight</w>
at eg
d ang
prop os
u ed</w>
B el
ash es</w>
Gr ou
f all</w>
li ves</w>
200 7</w>
W eb
Curr iculum</w>
m .</w>
P u
contr over
s anc
C ha
plac ed</w>
H un
der ed</w>
h ur
differ ent</w>
b ar
ex c
Can ad
h ope</w>
acti v
schedul ed</w>
ne igh
li ons</w>
dre ds</w>
c os
Au g
gl obal</w>
si bility</w>
bomb </w>
A si
pen al
h old</w>
repor tedly</w>
y et</w>
m em
l atest</w>
sp ar
iv er</w>
th ousands</w>
defe at</w>
prot est</w>
and er</w>
cen ter</w>
1 .
c y
c ement</w>
Su preme</w>
den ies</w>
me eting</w>
i ation</w>
driv er</w>
bec ame</w>
sex ual</w>
b ul
Eb ola</w>
Mil an</w>
appear ed</w>
car eer</w>
erg y</w>
G l
g gl
air port</w>
ob </w>
stud ent</w>
me di
er ship</w>
sa ying</w>
ke ep
g ay</w>
K ong</w>
P er
tob er</w>
P ro
us h
K ing</w>
Oc tober</w>
c au
en e
g in
famil ies</w>
at ch</w>
es si
acc ess</w>
f oun
. m.</w>
im e</w>
as n</w>
terr or</w>
pro ject</w>
safe ty</w>
F </w>
st ep
al ized</w>
H ong</w>
consid ered</w>
ap prov
p ow
ag ain</w>
acc oun
educ ation</w>
F eb
victi m</w>
rec ently</w>
pos iti
m ing</w>
bu s</w>
el ing</w>
ch ance</w>
por ts</w>
0 -
C am
S w
announ ced</w>
m it</w>
o d</w>
en a</w>
1 7</w>
c ent
r oc
se ven</w>
Aug ust</w>
play er</w>
e ful</w>
figh ters</w>
char ge</w>
alleg ations</w>
f i</w>
trav el</w>
ev ents</w>
succ ess</w>
d le</w>
Grou p</w>
H am
B er
di e</w>
S ud
Ar my</w>
dru gs</w>
chall eng
Dec ember</w>
2 4</w>
disc us
read ing</w>
pres s</w>
p un
co ach</w>
resid ents</w>
S and
for d</w>
get ting</w>
th or</w>
treat ment</w>
Pak ist
al th
ru p
1 ,
pro ve</w>
M ed
st ation</w>
s li
win ning</w>
m et</w>
fin ds</w>
Feb ru
Febru ary</w>
Ang el
fin anc
Pe ople</w>
ann ing</w>
dem onstr
li f
at ure</w>
p i
tur ed</w>
lead ing</w>
laun ch</w>
tr aff
or der</w>
Ital y</w>
br ing</w>
Indi an</w>
s il
c iti
n omin
op ening</w>
5 00</w>
th ought</w>
A ir</w>
O n
ti an</w>
alleg edly</w>
C ap
compan ies</w>
st age</w>
c ru
S an</w>
V al
t op
ind ic
rel ated</w>
exper ts</w>
tr aining</w>
shi ps</w>
mus ic</w>
f er</w>
job s</w>
er iff</w>
t ow
t em
oc curr
Ge orge</w>
M ost</w>
ab ility</w>
cla im</w>
D es
se ts</w>
mil es</w>
th er
rel ation
st ance</w>
spor t</w>
y n
belie ve</w>
w el
r a</w>
h ood</w>
suff ered</w>
tur ned</w>
s em
scho ols</w>
ar ian</w>
Nig er
gr owing</w>
Bar ack</w>
b es</w>
y ers</w>
cre ated</w>
fu ture</w>
tri ed</w>
import ant</w>
an ks</w>
four th</w>
ar riv
e y
Al -
pre hen
ch o
G ar
Ab out</w>
ur ch</w>
t ourn
re ad</w>
passeng ers</w>
mak er</w>
Austral ia</w>
B ill</w>
pl an
spe ech</w>
tri p</w>
happ ened</w>
f le
d ad</w>
E ast</w>
m er
g n
we b
a i
E ar
sc re
N ic
messa ge</w>
Afgh an</w>
t able</w>
Austral ian</w>
se par
M id
n ine</w>
p aid</w>
Wom en</w>
At l
e f</w>
f ar
ap par
7 0</w>
thre at</w>
lit tle</w>
W est
o x</w>
stor ies</w>
ben ef
bott om</w>
kid n
condi tion</w>
ac tor</w>
Musli m</w>
sti tu
iz es</w>
ell ing</w>
ex p
con fl
vot ers</w>
T i
uc k
bu d
s n
b a
fir ed</w>
pre v
ac tions</w>
me et</w>
ach es</w>
ro om</w>
ter ed</w>
Jap anese</w>
vie w
Braz il</w>
st on</w>
Bos ton</w>
Rober t</w>
sci enti
ev ac
proc ess</w>
l oss</w>
for ced</w>
V ic
esti m
cou ple</w>
F or</w>
K h
Olymp ics</w>
con serv
hosp it
occurr ed</w>
Af ter</w>
milit ants</w>
foc us</w>
H ol
spec ial</w>
n ot
f ear</w>
po or</w>
g as</w>
ed y</w>
need ed</w>
b oo
2 5
vie ws</w>
ke ts</w>
ment al</w>
st ep</w>
n ations</w>
ris k</w>
and a</w>
Fran c
ol f</w>
li </w>
Al l</w>
Inter net</w>
survi v
M o
hel ps</w>
is n</w>
d ata</w>
techn ology</w>
com prehen
Par is</w>
re fug
w est</w>
mar ks</w>
sanc tions</w>
Govern ment</w>
st -
st ing</w>
C os
d own
Ge org
Offici als</w>
immigr ation</w>
Un iversity</w>
th em
T our</w>
r os
bo at</w>
celeb r
chang es</w>
wh y</w>
govern or</w>
sig ns</w>
d ings</w>
in depend
es sion</w>
p ain
com </w>
bor n</w>
do ing</w>
em ents</w>
cr aft</w>
st er
ar s</w>
Def ense</w>
cap ital</w>
Th om
an im
ak er</w>
F A
fron t</w>
buil d</w>
V ir
civ il</w>
imp act</w>
ab ul
pot ential</w>
mar k</w>
requ est</w>
pos ted</w>
ser ve</w>
respon sibility</w>
Stud ent</w>
are as</w>
tre ated</w>
in ian</w>
fem ale</w>
S ur
pl ant</w>
tal k</w>
m un
er -
assa ult</w>
I I</w>
run ning</w>
believ ed</w>
og n
il y</w>
S ev
an ish</w>
tr ain</w>
amp ;</w>
F A</w>
abul ary</w>
l ov
H ill
concer ns</w>
F ed
E </w>
voc abulary</w>
R ed</w>
& amp;</w>
br ought</w>
D oc
ber g</w>
S ing
oth ing</w>
r </w>
sig ned</w>
CE O</w>
su per
6 -
g ets</w>
sa fe</w>
bo dies</w>
e en</w>
rap e</w>
bomb ing</w>
fi eld</w>
ie ty</w>
am i</w>
an ia</w>
receiv ed</w>
tourn ament</w>
dec lar
C ub
ro ad</w>
ser ious</w>
Lib ya</w>
to day</w>
ast ern</w>
k en</w>
as k</w>
NA T
terror ism</w>
sec on
s oon</w>
as hi
R ec
ful l</w>
ath le
Olymp ic</w>
ec e</w>
F ir
s le
Un ion</w>
Ha iti
B ay
h ost</w>
cre ate</w>
it ors</w>
ti s
vir on
Minist er</w>
bab y</w>
f el
r ying</w>
H oll
ov ic</w>
t og
Mar k</w>
er ence</w>
lar ge</w>
al ways</w>
min utes</w>
o id</w>
R </w>
D u
high -
Sec urity</w>
D A</w>
pe ace</w>
p at
t ress</w>
b ad</w>
en ge</w>
t el</w>
m om
B al
G ames</w>
effor ts</w>
g ent
er ous</w>
priv ate</w>
B a
Jer sey</w>
T ri
cap tain</w>
fri ends</w>
G ov
S am
cu ts</w>
appear s</w>
elec tions</w>
th ers</w>
comprehen sion</w>
pri s
tri bu
W in
Bri tain</w>
off er</w>
an o</w>
re form</w>
on er</w>
if ic
Mc C
is ing</w>
ar en</w>
Republic an</w>
v ely</w>
ad ha
M u
play ing</w>
Pakist ani</w>
pe ac
ou d</w>
de ad
g res
li ving</w>
si mil
des pite</w>
com b
c ur
j ury</w>
c al
m ight</w>
Pri me</w>
fav or
j ects</w>
N avy</w>
H en
pil ot</w>
chang ed</w>
Ger man</w>
ph ones</w>
sup p
con duc
infl u
on ic</w>
ac her</w>
tu res</w>
R og
res earch</w>
F il
le ts</w>
tw o-
financ ial</w>
char ac
st ra
adha fi</w>
2 1</w>
assa d
K ey</w>
ar i</w>
cul ture</w>
giv ing</w>
respon se</w>
y s
G adhafi</w>
p .m.</w>
s or
f ell</w>
Ser vice</w>
be ha
3 -
Coun ty</w>
ill ing</w>
wor ked</w>
big gest</w>
tur n</w>
el lig
att ention</w>
av ail
pos ed</w>
c il</w>
E d
lead s</w>
batt le</w>
clos ed</w>
sent enced</w>
ta x</w>
i pp
administ ration</w>
i er</w>
par ts</w>
stri kes</w>
Georg ia</w>
Pal est
iz </w>
ack ing</w>
y l
dra w
tog ether</w>
bec om
g ing</w>
star s</w>
pri me</w>
sit uation</w>
ant a</w>
tr a
stat ement</w>
af f</w>
dis ease</w>
ti onal</w>
or ig
elec tr
re ti
with in</w>
D el
Car ol
foll owing</w>
c le
Th at</w>
I m
cl ass
Egy p
es cap
u ce</w>
m ayor</w>
od e</w>
pl om
M it
relation ship</w>
sus pected</w>
Gov .</w>
f ur
ob ile</w>
com ment</w>
hum an
ar med</w>
J ustice</w>
sel f-
expl os
en ergy</w>
in iti
we ight</w>
l ack</w>
Pr ince</w>
tr ou
c ast</w>
fe el</w>
over y</w>
bud get</w>
op h
1 4
g ar
ar ch
i us</w>
e k</w>
qu ali
att emp
identi fied</w>
succ ess
id ents</w>
op ping</w>
di str
g old</w>
c ir
Wh en</w>
believ es</w>
L iver
. com</w>
J udge</w>
p ay
j ok
s pr
or dered</w>
e ted</w>
ta x
fin als</w>
s old</w>
Ar gent
D r.</w>
ve ter
emerg ency</w>
in e
confir med</w>
ch er</w>
B ul
L it
An other</w>
k ill</w>
B ur
in ation</w>
j ud
M os
en viron
J ord
Bo e
2 3</w>
g ri
lin ked</w>
popul ation</w>
car rying</w>
S ar
200 5</w>
igh ts</w>
cer em
assad or</w>
avail able</w>
can not</w>
spor ts</w>
all ow</w>
19 6
I A</w>
Air lines</w>
B ob</w>
mi er</w>
Ital ian</w>
penal ty</w>
F amil
D isc
ide a</w>
B erg
lev el</w>
audi </w>
effor t</w>
dem ocr
NAT O</w>
sp ending</w>
o z
al ed</w>
jo in</w>
t wee
ang u
p ir
doc tor</w>
Th e
am id</w>
inter view</w>
inj ury</w>
ac ted</w>
pr oper
ter n
M at
on al
s un
urr ic
ach ing</w>
targ et</w>
cr os
! </w>
man ager</w>
al bu
pass ed</w>
stru ggl
in tr
ec tive</w>
Gr and</w>
Col omb
m ain</w>
ach ed</w>
Le e</w>
Me dia</w>
al a</w>
Liver pool</w>
ic a</w>
c ost</w>
Sud an</w>
re st</w>
A ri
o o</w>
sent ence</w>
Rep .</w>
S audi</w>
c ities</w>
t our</w>
employ ees</w>
au thor
la ws</w>
ad vis
g ree</w>
s ear
clim ate</w>
Pu tin</w>
hear ing</w>
simil ar</w>
mod el</w>
Thom as</w>
In v
ap e</w>
n ation
ac ts</w>
ab or
cl u
j ustice</w>
L os</w>
cr ow
19 </w>
fi re
s ites</w>
i ed</w>
osecut or</w>
curr ent</w>
hear t</w>
en ough</w>
ag on</w>
O n</w>
2 -1</w>
web site</w>
me -
in -
H igh
Scot t</w>
att acked</w>
giv es</w>
h ous
Ph one</w>
serv ed</w>
Co ast</w>
e w
N ad
beha vi
E ver
at ory</w>
di plom
2 7</w>
on n
ou ldn</w>
cl in
maj ority</w>
F err
Fir st</w>
mil lions</w>
critic al</w>
em pt</w>
incre ase</w>
Sp anish</w>
T im
R iver</w>
ay ed</w>
diff icul
pos ition</w>
sec retary</w>
o g</w>
u l</w>
rem ov
1 6
acc ident</w>
n on
ri ve</w>
v ar
G </w>
D en
re as
P M</w>
t un
app o
fe ed
ru le</w>
te ams</w>
3 00</w>
op p
tw ice</w>
dest ro
Democr atic</w>
de ter
vi a</w>
descri bes</w>
car s</w>
Ar sen
D C</w>
ha ving</w>
ser vices</w>
inv est
stand ing</w>
S us
struc tion</w>
S oc
ivers ary</w>
h its</w>
o ot</w>
chall enge</w>
appear ance</w>
is si
rec ogn
il ed</w>
r ic
ut ting</w>
ap p</w>
campa ig
I l
oc k
laun ched</w>
law suit</w>
off en
see k</w>
Web </w>
W ar</w>
ab duc
H os
An dre
ul ts</w>
passeng er</w>
e um</w>
cl ass</w>
cerem ony</w>
let ter</w>
si x
ar r
iz er</w>
Ne t
investig ating</w>
Offici al</w>
cr ashed</w>
hist or
set t
He alth</w>
Ale x
Pr osecutors</w>
urr ay</w>
qu ake</w>
E U</w>
pl es</w>
t ain
hur t</w>
ag ing</w>
wat ch</w>
do g</w>
con nec
sa n</w>
v ill
di </w>
pr os
claim ed</w>
P la
ish ing</w>
al ing</w>
Z </w>
d ro
. 5</w>
ran ge</w>
M urray</w>
b al
ex -
positi ve</w>
Vir gin
d om
par ties</w>
ap olog
on e-
i th</w>
Z im
m ine</w>
D av
e th
mar ried</w>
iti s</w>
viol ent</w>
im prov
see king</w>
rup tion</w>
im medi
Hill ary</w>
T r
F re
evac u
li e</w>
Somal ia</w>
f am
7 -
Ken ne
Virgin ia</w>
Y ou
wor ds</w>
K im</w>
F light</w>
ellig ence</w>
C ru
an sw
sem i
Al l
sus pects</w>
buil t</w>
ack ers</w>
n esses</w>
at ely</w>
Iraq i</w>
al most</w>
candid ates</w>
tr ade</w>
sc and
ord ers</w>
ti t
k o</w>
sing er</w>
pr og
in al</w>
l ow</w>
N F
war ns</w>
Pe ter</w>
Islam ic</w>
s mar
wh ite</w>
confl ict</w>
pr a
behavi or</w>
el and</w>
th -
B ang
ma il</w>
pers onal</w>
coll ap
we ather</w>
sc ene</w>
hos t
d one</w>
Ric hard</w>
land ing</w>
arre t
sa me-
ann iversary</w>
O sc
spokes woman</w>
bro ther</w>
M el
bo x</w>
go ti
Z e
2 -
t ell</w>
id ing</w>
Y em
mov ies</w>
aff ected</w>
c er</w>
Tur k
ast ers</w>
E v
i um</w>
A l</w>
civil ians</w>
Ar ab
c ell</w>
same- sex</w>
oper ation</w>
an k
v ey</w>
add ress</w>
wor st</w>
th ony</w>
An thony</w>
O hi
NF L</w>
sum mer</w>
l angu
st aff</w>
ch air
hu ge</w>
new sp
wor th</w>
foun der</w>
. -
of t</w>
at tr
fe atures</w>
Mexic an</w>
doc tors</w>
d og
M y
Angel es</w>
l ands</w>
is i
T ha
vi sts</w>
res ol
sp read</w>
O ther</w>
wr ong</w>
challeng es</w>
reg ime</w>
J ones</w>
B u
ic ations</w>
sur pri
ass y</w>
albu m</w>
Mic hel
ri se</w>
se qu
y wood</w>
v al</w>
Willi am</w>
gi ous</w>
am ing</w>
s -
col lege</w>
n ames</w>
al ong</w>
te sts</w>
ver sion</w>
i ri
high est</w>
ann ual</w>
mul ti
200 4</w>
A C
de z</w>
disa ster</w>
retur ned</w>
bir th</w>
prov ide</w>
M ay
competi tion</w>
dam age</w>
id s</w>
Ohi o</w>
hi b
dis p
T or
P an
Sh ow</w>
recor ds</w>
att empt</w>
t esti
h our</w>
in side</w>
ov a</w>
z en</w>
tic ip
conf erence</w>
Ch ris</w>
ing ly</w>
war ning</w>
A g
i Phone</w>
fl oo
ern an
T ay
z ed</w>
G i
8 0</w>
wor ker</w>
p air</w>
a str
Joh n
ap s</w>
mit ted</w>
c over
Arsen al</w>
se es</w>
2 8</w>
Wi th</w>
in ten
hel ping</w>
f all
prot ect</w>
L ast</w>
R od
coun ts</w>
condi tions</w>
az ine</w>
200 6</w>
produc ts</w>
f ig
fe et</w>
cap tured</w>
L u
cust ody</w>
l in</w>
S im
m ar</w>
M and
high er</w>
hol ds</w>
b ase</w>
bu y</w>
fil ed</w>
G ir
ab or</w>
ch urch</w>
amb assador</w>
L ad
urric ane</w>
M ur
and ed</w>
pol l</w>
l ot</w>
Ch il
1 -0</w>
cam p</w>
G az
R el
hun dreds</w>
R onal
Jord an</w>
ic ally</w>
sh eriff</w>
ch ers</w>
Col or
comm on</w>
ic ago</w>
el ess</w>
d ate</w>
politic s</w>
terror ist</w>
curr ently</w>
b id</w>
go als</w>
ill er</w>
b ra
od uce</w>
net work</w>
m as
m ass</w>
app ear</w>
A p
f lights</w>
Niger ia</w>
cos ts</w>
m al
Ch icago</w>
Minist ry</w>
R u
F I
ot a</w>
ap pro
d in
prov ince</w>
pl ays</w>
kill s</w>
R af
o ol</w>
ak es</w>
ig n
S ol
if ic</w>
he avy</w>
Turk ish</w>
te ch</w>
st yle</w>
l ose</w>
some thing</w>
sign ific
re pe
m ate</w>
air craft</w>
Ob am
h ere</w>
neigh bor
w il
resul t</w>
Musli ms</w>
F r
ti on
le ague</w>
dec ades</w>
ac tors</w>
t ough</w>
m ist
th ings</w>
oc ked</w>
go es</w>
ch em
execu tive</w>
previ ously</w>
leg isl
ne goti
Canad a</w>
commit tee</w>
2 6</w>
Fed er
spe ed</w>
ent ary</w>
Gre ene</w>
Exper ts</w>
e di
ag s</w>
resc ue</w>
or ing</w>
er acy</w>
R os
h and</w>
Be ij
off ered</w>
th west</w>
experi ence</w>
W ri
ud e</w>
respon sible</w>
J os
dom es
be ats</w>
201 6</w>
issu ed</w>
re vol
str ateg
re -
con ver
us sion</w>
suppor ters</w>
C r
g if
sid es</w>
re fl
n on-
phot o</w>
1 3
Ze al
aw a
gr and
c ep
W oods</w>
At tor
ag n
N av
C ath
ill ed</w>
Mid dle</w>
i ate</w>
ed s</w>
Sec retary</w>
r are</w>
vehic le</w>
Beij ing</w>
fun ding</w>
Bay ern</w>
o ard</w>
Wh at</w>
M er
tic al</w>
b la
ar k</w>
r ing</w>
ow ner</w>
det ained</w>
candid ate</w>
av er
fl ed</w>
Pre mier</w>
ernan dez</w>
A h
qu i
sour ces</w>
sa d</w>
sum mit</w>
ld wide</w>
difficul t</w>
st u
Par k</w>
m o
mov ed</w>
long er</w>
av oid</w>
form s</w>
B re
mat er
ra ise</w>
M un
loo ks</w>
targ ets</w>
sp oke</w>
p ost</w>
fi res</w>
all owed</w>
struc k</w>
prov ides</w>
mag azine</w>
ab oard</w>
i h
N ations</w>
V ide
Sh ar
citi zens</w>
Egyp tian</w>
l ow
mor ning</w>
ow ned</w>
re b
ri es</w>
P ac
t ot
St .</w>
activ ist</w>
Famil y</w>
K e
Le ad
i ally</w>
t el
law makers</w>
me ans</w>
ic ation</w>
m oun
r out
T y
f ast
ist or
re t</w>
ail ed</w>
fa ir</w>
ep is
P en
war ds</w>
C .</w>
St an
pati ents</w>
Sev eral</w>
re comm
ste ad</w>
con n
Qu estions</w>
numb ers</w>
Christi an</w>
est ed</w>
U.S .-
C lar
cust om
s end</w>
Inv estig
ess or</w>
t ab
domes tic</w>
ra ised</w>
long -
iz ing</w>
Gen eral</w>
run s</w>
alth y</w>
ul f</w>
plac es</w>
controver si
Gaz a</w>
par k</w>
susp ended</w>
sa s</w>
pre c
li ament</w>
rel ations</w>
stre et</w>
h asn</w>
n ear
Jo e</w>
dis play</w>
t oll</w>
ell ow</w>
targ eted</w>
p ounds</w>
i que</w>
a el</w>
m as</w>
fam ous</w>
or ies</w>
u el</w>
ex pres
S eb
r oll
surg ery</w>
dang erous</w>
beg in</w>
ur s</w>
Color ado</w>
2 -year-old</w>
K ur
Champ ions</w>
fil ms</w>
N ow</w>
Ju li
refug ees</w>
bri dge</w>
to -
ter ri
contin ues</w>
stra ight</w>
for cement</w>
bl es</w>
leav ing</w>
gh </w>
Disc ussion</w>
B ec
pro be</w>
cri mes</w>
are z</w>
Ar m
threat ened</w>
st ant</w>
ow th</w>
c li
announ ces</w>
au d</w>
pre par
Ab d
pre dic
Holl ywood</w>
newsp aper</w>
crimin al</w>
Haiti </w>
di t</w>
se ed</w>
b in</w>
soc cer</w>
z z
vot ed</w>
prev ent</w>
tr ack</w>
Rog er</w>
hol id
pl anned</w>
Christ mas</w>
le dge</w>
d ation</w>
B or
adv oc
dam aged</w>
Coun cil</w>
M oh
Gh itis</w>
f f</w>
c as
vo ice</w>
Exper t</w>
sh owed</w>
Tay l
traff ic</w>
ex tr
Christi e</w>
W ar
C as
N early</w>
nor th</w>
bl ast</w>
critic ized</w>
c le</w>
il legal</w>
wi d
j um
N i
dec ade</w>
gr ad
dec ide</w>
F i
V er
op ened</w>
call ing</w>
Argent ina</w>
prog ress</w>
ill s</w>
Ac t</w>
C IA</w>
pres sure</w>
sh ut
Zeal and</w>
H ou
McC ain</w>
de but</w>
r ate</w>
Mic h
chair man</w>
ow ers</w>
is land</w>
au thor</w>
perform ance</w>
C DC</w>
bl ed</w>
ac tive</w>
Osc ar</w>
ple ase</w>
wor d</w>
oo k
ear th
ag ent</w>
t ac
b rain</w>
ot or
ca uses</w>
le -
agre ement</w>
Hu man</w>
Z el
ur ges</w>
cau ght</w>
con dem
T ig
Ari z
B ah
den ied</w>
R am
sk i</w>
Par ty</w>
insp ired</w>
disc overed</w>
de gree</w>
i ther</w>
b all
n othing</w>
K erry</w>
t ation</w>
Carol ina</w>
il le</w>
S a
produc tion</w>
s man</w>
D ut
B ro
FI FA</w>
docum ents</w>
ion ship</w>
lear n</w>
Si x</w>
min ute</w>
ec tions</w>
Nad al</w>
discus s</w>
and o</w>
t ment</w>
2 ,000</w>
B ol
S an
cent ury</w>
cour se</w>
0 0,000</w>
Cen ter</w>
eng ine</w>
wat ers</w>
tic es</w>
L at
fi f
p ush
fir m</w>
vir us</w>
il ing</w>
. C.</w>
ol der</w>
ac </w>
Des pite</w>
scand al</w>
i res</w>
ass oc
w er</w>
att le</w>
critic ism</w>
lead ership</w>
bro ad
f at
c ites</w>
2 9</w>
m obile</w>
s ell</w>
t al</w>
Lit eracy</w>
iz ation</w>
trad iti
p as
out break</w>
e h</w>
Char les</w>
cor ruption</w>
dou ble</w>
canc eled</w>
Michel le</w>
i ent</w>
Bl ack
nor thern</w>
Mic ros
y ond</w>
S hi
3 5</w>
declar ed</w>
S B</w>
ashi on</w>
s ong
enc our
H on
b ran
acc uses</w>
ay si
aim ed</w>
Micros oft</w>
ac tress</w>
commit ted</w>
Sw ed
Is land</w>
c ast
gen der</w>
T om</w>
N T
be at
or ial</w>
A sh
con gres
9 0</w>
Kenne dy</w>
er t</w>
fac ing</w>
it arian</w>
bro ke</w>
al lah</w>
R a
Prot esters</w>
sa ve</w>
NA SA</w>
C y
E T</w>
success ful</w>
inter est</w>
be ating</w>
T o
concer ned</w>
au </w>
d ges</w>
t in
foll ows</w>
gener ation</w>
curr iculum</w>
D ani
rad io</w>
journal ist</w>
cl ashes</w>
ap ar
be yond</w>
cen tral</w>
E P
ic op
ha b
feed back</w>
Qu estion</w>
fri end
champ ions</w>
di g
plan es</w>
G ulf</w>
pr ices</w>
ar my</w>
Mal aysi
ve z</w>
P at
par ti
Bo th</w>
Ken ya</w>
P i
fif th</w>
favor ite</w>
t yp
Attor ney</w>
meas ure</w>
em y</w>
se ems</w>
ed om</w>
we igh
ne g
con su
m al</w>
1 ,000</w>
M asters</w>
fac ed</w>
f ish</w>
previ ous</w>
R ev
sa tions</w>
S pe
im prove</w>
ro g
ov ers</w>
c us</w>
vis itors</w>
sa tion</w>
S k
B A</w>
agre ed</w>
an tic</w>
qu estion</w>
fac ility</w>
driv ers</w>
fun ds</w>
F 1</w>
Tayl or</w>
jo ined</w>
3 1</w>
se at</w>
lev els</w>
T al
prof it</w>
Vide o</w>
resp ond</w>
benef its</w>
5 ,000</w>
bu ried</w>
wor ldwide</w>
im ages</w>
West ern</w>
R S</w>
tow ard</w>
sp ot
every one</w>
Cri tics</w>
gr and</w>
O be
S o
co ast</w>
thre e-
it ation</w>
in k</w>
st y</w>
gr owth</w>
reb el</w>
ex tre
ec ti
Ariz ona</w>
dem and</w>
ad ds</w>
controversi al</w>
tur al</w>
Ronal do</w>
St re
Mil it
m ach
le g</w>
F u
Mc Car
esti val</w>
int elligence</w>
Feder er</w>
wri ter</w>
pos ts</w>
th ough</w>
pos e</w>
er son</w>
reli gious</w>
Bl ack</w>
al d</w>
ph ys
ok o</w>
tr u
desig ned</w>
pow er
Phil ipp
si onal</w>
in st
pre gn
F ast</w>
dev ice</w>
ul lah</w>
I V</w>
Yem en</w>
Ex -
ar m</w>
Asi a</w>
resul ts</w>
sum ers</w>
1 7
ent al</w>
O k
democr acy</w>
d omin
ill a</w>
P atr
suff ering</w>
d oll
her o</w>
I v
vehic les</w>
un ion</w>
scor ed</w>
vot es</w>
Ba gh
organiz ation</w>
John son</w>
ru b
Sch ool</w>
Har am</w>
soldi er</w>
n is</w>
wri t
en forcement</w>
ene z
ac are</w>
Obam acare</w>
dr opped</w>
Lou is</w>
n ell</w>
ex am
z er
An aly
bro ken</w>
b s</w>
mas sive</w>
sh own</w>
appo in
B ay</w>
An dy</w>
jok ovic</w>
NT SB</w>
mov ing</w>
ad m
det ails</w>
quar ter
dou b
Sc i
x ed</w>
S our
A C</w>
Car l
B oko</w>
- up</w>
Cha vez</w>
P ope</w>
P erry</w>
s ong</w>
H ot
Li ber
trad ition</w>
D jokovic</w>
com for
consid er</w>
D ev
oun t</w>
requ ired</w>
f ears</w>
end ers</w>
f are</w>
Mi ke</w>
op en
V eg
F DA</w>
e ter
te acher</w>
abduc ted</w>
sh el
mi th</w>
FA A</w>
rul ed</w>
Er ic</w>
ici es</w>
pol icies</w>
ext rem
ear ing</w>
M en</w>
ad mitted</w>
z a</w>
pati ent</w>
in spec
val ue</w>
sp ot</w>
pri ze</w>
ell ed</w>
re ally</w>
ol en</w>
contr act</w>
k ept</w>
incre as
rec alls</w>
ab l
av es</w>
b anned</w>
g e
for ward</w>
Har ry</w>
re p
ograph y</w>
lead ed</w>
us tin</w>
ig an</w>
chang ing</w>
am p</w>
200 3</w>
los ing</w>
org an</w>
stri ker</w>
ti </w>
W at
di st
fu el</w>
all -
D is
R ad
An der
p h</w>
di ver
si ster</w>
an sas</w>
S in
form ed</w>
proc ed
air s</w>
D N
eff ect</w>
At t
sc ore</w>
c at
z a
pro -
stat us</w>
re ality</w>
de pu
k ind</w>
some one</w>
p leaded</w>
bur g</w>
ti ed</w>
te sting</w>
ac ting</w>
T SA</w>
fr aud</w>
su e</w>
power ful</w>
de fin
L a</w>
essi </w>
or ed</w>
Cam er
incre ased</w>
Colomb ia</w>
p ass</w>
d a</w>
langu age</w>
Zel izer</w>
st ers</w>
i ously</w>
pp ed</w>
on so</w>
op port
pr ice</w>
c lear
h i</w>
w ast
includ ed</w>
nec ess
C ou
li ed</w>
V enez
Venez u
s a</w>
ti v
tu al</w>
ag ents</w>
ab ove</w>
0 th</w>
thre ats</w>
t om
com par
200 1</w>
az i</w>
opport un
n y</w>
Com mit
ac hi
C A
te sted</w>
conc ern</w>
olog ical</w>
mul a</w>
For mula</w>
aim s</w>
ow a</w>
appar ently</w>
in i</w>
foll ow</w>
sp on
retur ning</w>
rece ive</w>
P o
Ar ab</w>
f al
R ub
D ub
b le
Gre ece</w>
N BC</w>
ear chers</w>
mis s
sk y</w>
F ern
u ment</w>
pul led</w>
writ ten</w>
F ederal</w>
m y
au c
Dav is</w>
cep ts</w>
her self</w>
C re
figh ter</w>
bl ood</w>
analy st</w>
leav es</w>
opp on
M ayor</w>
Cub a</w>
bo ys</w>
H ernandez</w>
cle an</w>
charac ter</w>
vot ing</w>
ograp her</w>
pl o
des ign</w>
op tions</w>
1 -1</w>
P ent
The ir</w>
f oot</w>
foll owed</w>
c o</w>
controver sy</w>
Or g
n ov
ir ing</w>
ref er
s now</w>
in sur
H ay
Dut ch</w>
D on</w>
I owa</w>
fir st-
w ell
spar ked</w>
Obe id
U S
k ins</w>
sou thern</w>
Ser b
for ec
Pent agon</w>
ob s</w>
ar m
i ble</w>
ar ms</w>
Berg en</w>
is on</w>
conduc t</w>
l ic
compl ain
def en
Mand ela</w>
P istor
f ast</w>
con stitu
gr y</w>
at -
proper ty</w>
Lou isi
Louisi ana</w>
Air port</w>
meas ures</w>
all ows</w>
Obeid allah</w>
k il
Mis s
ev </w>
R yan</w>
inn ov
z er</w>
Palest inian</w>
com edy</w>
deb t</w>
R ights</w>
pan el</w>
we st
west ern</w>
driv ing</w>
arriv ed</w>
k new</w>
il s</w>
a ur
mat ches</w>
Bagh dad</w>
Raf ael</w>
M ub
re ached</w>
st un
2 .
Boe h
Boeh ner</w>
Pistor ius</w>
secon d-
d ict</w>
Cen tral</w>
bl ame</w>
op ens</w>
Con cepts</w>
gun s</w>
ri st</w>
per i
stre ets</w>
ici ous</w>
do or</w>
re su
retur ns</w>
b ank</w>
in ing</w>
beat en</w>
add res
fur ther</w>
Atl anta</w>
aw ard</w>
r ock</w>
Mi ami</w>
C u
kn ow
u ana</w>
Cri sti
tr ue</w>
erg us
H al
est -
DN A</w>
F ive</w>
E li
Commit tee</w>
dr op</w>
on to</w>
reve als</w>
Scot land</w>
har d
develop ing</w>
sp iri
19 5
l u
sy ch
A v
agn os
ali ve</w>
ba ab</w>
ergus on</w>
c eas
h y
Ander son</w>
k y</w>
rac ial</w>
Mit t</w>
i P
si ze</w>
X </w>
por ary</w>
Tu be</w>
St ar</w>
ad ed</w>
Arm strong</w>
arret te</w>
ber t</w>
c over</w>
un ve
J e
F oun
ab ly</w>
Org aniz
m otor
hospit alized</w>
N Y
spe aks</w>
human itarian</w>
Sha baab</w>
app ing</w>
Mich igan</w>
r ow</w>
riv er</w>
tr apped</w>
ur a</w>
connec tion</w>
f ine</w>
strateg y</w>
D re
y o</w>
orig inal</w>
S pec
hor se</w>
op er</w>
pris on
lim ited</w>
D r
see ks</w>
As sad</w>
ful ly</w>
S pr
ou ts</w>
est ing</w>
Nav arrette</w>
sugg ests</w>
wr ote</w>
5 -
Pri x</w>
pr osecutors</w>
On ly</w>
d es</w>
R C</w>
oo d
Th ousands</w>
journal ists</w>
influ ence</w>
c oh
cover age</w>
S now
propos ed</w>
own ers</w>
Fac ts</w>
rac es</w>
In c
ap ers</w>
af fil
dr one</w>
el son</w>
pl anning</w>
in si
b ol
Wom an</w>
repres ent
y ach
st opped</w>
M essi</w>
F erguson</w>
head ed</w>
n a</w>
j et</w>
oh an</w>
ter ms</w>
c overed</w>
hear d</w>
pr osecutor</w>
pres sion</w>
Sing ap
T w
gu ard</w>
dead ly</w>
pp i</w>
pr oduce</w>
di stri
distri bu
ar on</w>
k et
happ y</w>
on ing</w>
fel t</w>
Am az
m oti
well -
L uc
em an</w>
ran t</w>
Dub ai</w>
St at
elec ted</w>
Di rec
g ang</w>
m oon</w>
iv e-
rest aur
r o</w>
y m
shor t</w>
n ur
ish es</w>
4 9</w>
fun d</w>
Snow den</w>
Fern ando</w>
# 9
independ ent</w>
v el
s ons</w>
prom ises</w>
P D</w>
st ore</w>
vo y</w>
conserv ative</w>
floo ding</w>
P enn
le ans</w>
politic ians</w>
H aw
g al</w>
G od</w>
Ferr ari</w>
Her oes</w>
histor ic</w>
Gir l</w>
L ar
Doc tors</w>
Mub ar
Mubar ak</w>
v ent
prom ot
3 -0</w>
& #9
prof essor</w>
F ire</w>
ten nis</w>
ann a</w>
sen se</w>
du ce</w>
t ains</w>
j ected</w>
F el
f ies</w>
y ed</w>
H el
3 3</w>
buil dings</w>
Gu ard</w>
aw ar
bl ing</w>
consid ering</w>
riv als</w>
w asn</w>
rec ru
2 -0</w>
ij uana</w>
ex ten
I ri
dec ided</w>
c op
G ol
acti vists</w>
sh ots</w>
fl u</w>
e ating</w>
in fr
critic s</w>
e astern</w>
as tic</w>
Mun ich</w>
bl amed</w>
ra ham</w>
ven tion</w>
fre ed</w>
enc ies</w>
r ates</w>
An dro
s ought</w>
employ ee</w>
hel icop
m om</w>
l a</w>
acc u
distr ict</w>
pr osec
p aper</w>
s wi
K n
div id
ne ys</w>
ish ment</w>
Lib yan</w>
D ie
p it
Th ose</w>
remov ed</w>
pu ts</w>
b al</w>
f ashion</w>
l v
isc o</w>
lear ned</w>
Au thor</w>
athle tes</w>
mis sed</w>
m and
in ated</w>
i p</w>
am med</w>
al ist</w>
sel ves</w>
B ank</w>
vide os</w>
mov es</w>
o ing</w>
a o</w>
b an
re ven
anc y</w>
terror ists</w>
er up
You Tube</w>
fun eral</w>
sla u
Ham as</w>
ali tion</w>
be au
Sus pect</w>
des er
Republ ic</w>
z one</w>
li gh
sus pen
oper ations</w>
Ale x</w>
immigr ants</w>
m ale</w>
hol ding</w>
Wh ile</w>
hi j
l ower</w>
re ha
in sul
neigh b
step s</w>
se ats</w>
tot al</w>
know ledge</w>
di agnos
Al onso</w>
di vis
identi fy</w>
smar t
S mith</w>
resc ued</w>
un clear</w>
serv ing</w>
riv al</w>
en ess</w>
con struction</w>
g one</w>
bl ames</w>
Re por
wor k
Miss issi
re duce</w>
sh owing</w>
in divid
Don ald</w>
Alex ander</w>
near by</w>
it or</w>
Mississi ppi</w>
bre aking</w>
investig ators</w>
comm ander</w>
air ed</w>
ne sty</w>
e- mail</w>
str ong
offen sive</w>
announ ce</w>
Cristi ano</w>
ad ium</w>
n a
s we
J im</w>
pr inc
wit ness</w>
announ cement</w>
approv ed</w>
um s</w>
comb at</w>
signific ant</w>
Nic ol
ain e</w>
id en</w>
ack now
ur al</w>
3 2</w>
fi el
C z
un g</w>
fa ith</w>
star ting</w>
over ty</w>
D ar
G A</w>
lv ania</w>
ath on</w>
mis s</w>
soc iation</w>
sing le</w>
contr oll
fl ying</w>
estim ated</w>
Or leans</w>
A aron</w>
ad a</w>
ap pl
T ony</w>
str eng
S ince</w>
depu ty</w>
M ot
c a</w>
ch i</w>
W atch</w>
sh ock</w>
Wh it
mos tly</w>
d ged</w>
D or
c ab
prof essi
10 -
att end</w>
re marks</w>
p ack
As sociation</w>
revol ution</w>
Ear th</w>
me th
Hun dreds</w>
F oot
S tr
Gh ana</w>
ad ults</w>
wal k</w>
Y ear</w>
and ing</w>
disp ute</w>
is s</w>
gre en</w>
sur vey</w>
per f
Sci enti
s s
explos ion</w>
traff ic
inc idents</w>
Stre et</w>
M ah
ag ree</w>
ol er
Veg as</w>
de vices</w>
D .C.</w>
pri m
at ell
g ers</w>
aw are</w>
all ed</w>
b at
ak ed</w>
ag ement</w>
holid ay</w>
k i</w>
air line</w>
High </w>
ra id</w>
t .</w>
milit ant</w>
bo y
develop ment</w>
becom ing</w>
roc ket</w>
i b
rec overy</w>
cul tural</w>
sal es</w>
peac eful</w>
z h
re ason</w>
re view</w>
M other</w>
prof ile</w>
B as
c ow</w>
car ried</w>
chec k</w>
tur ns</w>
ri er</w>
d ance</w>
bomb s</w>
Die go</w>
s ending</w>
kidn apped</w>
ti e</w>
St ar
n ings</w>
s of
Rober ts</w>
ou th</w>
appar ent</w>
F in
le ment</w>
To day</w>
ris ks</w>
pos t
trans fer</w>
scienti sts</w>
l ying</w>
J eff
Vi ol
tor n
vill age</w>
wit nesses</w>
g olf</w>
epis ode</w>
201 5</w>
author ity</w>
sy lvania</w>
par ticip
qu esti
Canad ian</w>
cre d
ab and
j </w>
hospit als</w>
shar ed</w>
B un
tem per
M assa
oy al</w>
D o
m assa
st ab
4 -year-old</w>
la hom
D o</w>
w ed
il ities</w>
differ ence</w>
T ot
Singap ore</w>
custom ers</w>
Le w
Ukra inian</w>
arre n</w>
lad y</w>
aver age</w>
si </w>
comple te</w>
i k
mat ter</w>
del ays</w>
f illed</w>
Isl am</w>
chem ical</w>
fin ance</w>
every thing</w>
ah u</w>
win d
2 ,
J on
mar ijuana</w>
se ized</w>
ann y</w>
Por tu
s ar
in son</w>
any one</w>
sur r
l friend</w>
ic ts</w>
j u
sci ence</w>
law yers</w>
wa iting</w>
M ac
con sumers</w>
co alition</w>
activ ity</w>
Penn sylvania</w>
Su per
necess ary</w>
B en</w>
appe als</w>
A bu
st olen</w>
l on</w>
For ce</w>
Ad am</w>
busin esses</w>
f ic</w>
he av
lahom a</w>
Ok lahoma</w>
traditi onal</w>
ak ers</w>
org an
est abl
b ail</w>
oc ks</w>
Tig er</w>
scre en</w>
in stead</w>
M ov
cy cl
ag g
ic it</w>
mov ement</w>
qu ick
see ing</w>
R ice</w>
ow ns</w>
cl ash</w>
R ock</w>
Islam ist</w>
ber y</w>
li t</w>
as king</w>
te en
te ens</w>
f ellow</w>
atur ed</w>
Com p
assa ss
Wil son</w>
sur ve
Mo ore</w>
mater ial</w>
arti st</w>
Hen ry</w>
th anks</w>
Braz il
is ions</w>
f ought</w>
H IV</w>
w ouldn</w>
rec overed</w>
par liament</w>
v ess
4 5</w>
fe atured</w>
cam era</w>
t y
bomb er</w>
beg ins</w>
char ity</w>
ple a</w>
od es</w>
I RS</w>
in te
re duc
Fran k
campaig ns</w>
al ize</w>
sh ut</w>
J es
ip ment</w>
end or
ra ises</w>
Ph ot
m el
Mar ia</w>
Investig ators</w>
h ands</w>
escap e</w>
es h</w>
Atl antic</w>
10 0,000</w>
ec ting</w>
Ma j
arre sts</w>
M iller</w>
C ab
miss ile</w>
f an</w>
the ast</w>
confir ms</w>
soc iety</w>
f ounded</w>
p atr
ru c
equ ipment</w>
S il
under stand</w>
an ch
ex change</w>
G un
s ession</w>
Su per</w>
sc ar
sa v
se as</w>
d rive</w>
d ates</w>
Con nec
For d</w>
evacu ated</w>
targ eting</w>
Arab ia</w>
reve aled</w>
5 0,000</w>
T o</w>
foc used</w>
cre dit</w>
n er
sen ior</w>
pregn ant</w>
Ch en
re ver
B ow
head s</w>
b ail
li ved</w>
tran si
approv al</w>
ser iously</w>
d aily</w>
Al- Shabaab</w>
ag an</w>
pol ls</w>
Vic tor
t on
Franc isco</w>
becom es</w>
s ale</w>
messa ges</w>
squ iz</w>
cho ice</w>
ub s</w>
cer tain</w>
In ter</w>
m enti
g am
N ob
hos ts</w>
ing ing</w>
su st
six th</w>
R ang
it ems</w>
leg ally</w>
Qu een</w>
qu ir
k ic
li fe
v ows</w>
4 -
Hou ston</w>
fail ure</w>
con tribu
mod ern</w>
res our
C at
Bang lad
on ally</w>
ac qu
New squiz</w>
publ ished</w>
sp ir
3 -year-old</w>
eas y</w>
K ev
insur ance</w>
ro y</w>
Li ve</w>
r y
e igh
reti red</w>
n atur
fre edom</w>
7 5</w>
g ap</w>
et ts</w>
he althy</w>
sc ale</w>
R io</w>
stand ards</w>
Ste ph
ch us
nation wide</w>
gir lfriend</w>
anc er</w>
ol ds</w>
yach t</w>
Bi g</w>
Ch ief</w>
M y</w>
trav eling</w>
f ive-
Ser ena</w>
tr ag
s k</w>
descri bed</w>
fal se</w>
appoin ted</w>
Massa chus
st one</w>
dis crimin
Pr inc
ex erc
pr ac
ref used</w>
ip e</w>
L eb
sec ure</w>
ow ever</w>
ri sing</w>
mer man</w>
arg ues</w>
kill er</w>
sc en
al coh
s atell
bl og
R ick</w>
v it
comple x</w>
ur ged</w>
m ad
ti tion</w>
ab ama</w>
on el</w>
N BA</w>
n o
b ac
Nov ak</w>
j a</w>
produc er</w>
tri gg
W .</w>
T er
v ac
com pu
moti v
V et
Vet tel</w>
invest ment</w>
Dani el</w>
prom ise</w>
cont act</w>
professi onal</w>
Li u</w>
Lad en</w>
boo ks</w>
not es</w>
oun ding</w>
l abor</w>
p sych
S el
fl o
al tern
hous es</w>
pr ene
Net any
br and</w>
bomb ings</w>
rele ases</w>
Cath ol
De tro
adv ant
vis ited</w>
ong oing</w>
car ry</w>
spe ak</w>
ar ity</w>
deter mine</w>
Ser ie</w>
Al abama</w>
ag a</w>
Re ports</w>
u fac
them selves</w>
Massachus etts</w>
Bo y</w>
publ ic
Zim merman</w>
B org
ex t</w>
pres ence</w>
re y</w>
n ative</w>
intr oduc
k ley</w>
ap ol
Asi an</w>
bur ned</w>
N elson</w>
arti sts</w>
suppor ts</w>
Com mun
tran spor
Se attle</w>
surviv ors</w>
her o
veter an</w>
F ru
supp lies</w>
mom ent</w>
4 00</w>
oper ating</w>
t ney</w>
immedi ate</w>
olog ist</w>
produc ed</w>
ess ed</w>
en ter</w>
reli ef</w>
r ally</w>
th y</w>
extre me</w>
viol ated</w>
L Z</w>
Stan ley</w>
p overty</w>
natur al</w>
Gre at</w>
ill ance</w>
struggl ing</w>
kill ings</w>
pre mi
ig nor
Off ic
b it
b ought</w>
S ony</w>
det ain
Hos p
us er</w>
n arr
acti ce</w>
ap ology</w>
T enn
Philipp ines</w>
P GA</w>
Netany ahu</w>
destro yed</w>
ra il</w>
th u
Cos ta</w>
Lew is</w>
earth quake</w>
F ox</w>
priv acy</w>
h ang
quar ters</w>
4 8</w>
fu n</w>
rem aining</w>
og ue</w>
Sand y</w>
fre e
B il
ex pect</w>
multi ple</w>
T un
sy m
An ti
Y oun
S ain
t z</w>
investig ate</w>
an gry</w>
Ever y
ar ies</w>
R y
li st
Q at
Mos cow</w>
Kev in</w>
ap prop
approp ri
ar a</w>
bl og</w>
ou l
Hosp ital</w>
al one</w>
La w</w>
pres ent</w>
bro thers</w>
tor ture</w>
pl at
gif t</w>
inn oc
environ mental</w>
astr o</w>
legisl ation</w>
Connec tic
e- fire</w>
b ags</w>
s in</w>
draw n</w>
ad d</w>
lim its</w>
prim ary</w>
big ger</w>
4 .
Eli za
Eliza be
wh ose</w>
sy mp
amp le</w>
Camer on</w>
si mp
ten sions</w>
happ en</w>
mus eum</w>
enti re</w>
st ands</w>
e ed</w>
T re
dang er</w>
twee ts</w>
st em</w>
on ia</w>
D un
anim als</w>
app s</w>
ad ver
semi final</w>
err ed</w>
A I
S po
reas ons</w>
b it</w>
Andro id</w>
Elizabe th</w>
neighbor hood</w>
shor t
clin ic</w>
do zens</w>
P os
acknow le
n i
Connectic ut</w>
C amp
Win ter</w>
B S</w>
1 0,000</w>
spe aking</w>
f li
v ement</w>
an mar</w>
My anmar</w>
veter ans</w>
tel ev
qu ality</w>
4 4</w>
ex pen
wast e</w>
n el</w>
a x
un iversity</w>
ter y</w>
Off ice</w>
F er
Te am</w>
l ess
resol ution</w>
7 -year-old</w>
S ti
T op</w>
Ag ency</w>
our ney</w>
an- American</w>
3 -1</w>
f it</w>
cont est</w>
se v
resp ect</w>
c ard</w>
comple ted</w>
gr ow</w>
it ting</w>
syst ems</w>
th a</w>
L is
op ical</w>
cr e</w>
arg o</w>
z ai</w>
equ ality</w>
thin ks</w>
o k</w>
dig ital</w>
ph ia</w>
dis h</w>
L ev
e ur
em is
ed ed</w>
sol ve</w>
isl ands</w>
fin ding</w>
et ta</w>
L ohan</w>
Detro it</w>
me ets</w>
P a
R i
Somal i</w>
m all</w>
diagnos ed</w>
for d
P ubl
V is
fig ure</w>
mp h</w>
G al
J enn
sa c
ep ing</w>
dis appeared</w>
e ers</w>
Cz ech</w>
h o</w>
Milit ary</w>
perf ect</w>
op tion</w>
I r
wor n</w>
hun ger</w>
iv ers</w>
S n
recor ded</w>
Ste ve</w>
apar tment</w>
wil d
m ates</w>
Sh er
A T
ri ot</w>
3 8</w>
over all</w>
sub ject</w>
chec k
J ose</w>
Pl ane</w>
s an
or d</w>
peri od</w>
R oll</w>
cor rec
cou ldn</w>
Am nesty</w>
Cong o</w>
in ians</w>
far m
air lines</w>
t an
Gr and
nor mal</w>
ro ads</w>
w on
3 7</w>
W W
R em
fin ished</w>
increas ingly</w>
suff er</w>
y land</w>
ceas e-fire</w>
Gen .</w>
Sour ce</w>
th ors</w>
gu ards</w>
Scienti sts</w>
d ah
wri ting</w>
extr a</w>
ov </w>
ten ham</w>
Seb as
docum entary</w>
vis its</w>
Br ad
Viol ence</w>
A li</w>
accu sations</w>
r oll</w>
Al as
invol vement</w>
l es
t ack
air ports</w>
T est</w>
rel and</w>
acc ep
war n</w>
trav el
cir c
Nor thern</w>
ad di
demonstr ators</w>
B iden</w>
quick ly</w>
rac ist</w>
fe ature</w>
f ill</w>
4 2</w>
P ot
re str
Th ir
an ted</w>
4 7</w>
B ab
o is</w>
F ore
tran sport</w>
M ove</w>
ra ising</w>
Law yer</w>
p op</w>
vol un
2 6
repor ters</w>
fall ing</w>
20 ,000</w>
I s</w>
v ille</w>
separ ate</w>
Th ese</w>
un likely</w>
W it
twee ted</w>
R en
ti l
b ing</w>
docum ented</w>
me an</w>
G raham</w>
ch -
audi ence</w>
b acks</w>
eff ects</w>
I ts</w>
m ention</w>
Hot el</w>
aw ards</w>
w all</w>
uck y</w>
prison ers</w>
c ial</w>
re sident</w>
C all</w>
Li onel</w>
ri sts</w>
p ain</w>
win ds</w>
H amil
ell a</w>
fe wer</w>
S he
dis placed</w>
Abu </w>
sev ere</w>
b anks</w>
me ant</w>
ford able</w>
F un
ici al</w>
adm its</w>
x ing</w>
la u
view ed</w>
Hamil ton</w>
t ons</w>
and -
Nicol as</w>
J obs</w>
o e</w>
rac ing</w>
at ers</w>
ter ing</w>
hot els</w>
cont ent</w>
Med ic
ag ers</w>
ch a
In don
20 00</w>
ir o</w>
keep s</w>
sm o
pol l
C ra
B ash
bail out</w>
sol ution</w>
c off
C op
a than</w>
igh t
compe te</w>
un known</w>
u n</w>
gg le</w>
stru ggle</w>
n i</w>
d ol
ir ates</w>
in os</w>
ul ation</w>
ann e</w>
su s</w>
H or
Indon es
spec i
8 00</w>
commun ities</w>
compar ed</w>
pl ot</w>
attemp ted</w>
3 0
T im</w>
6 5</w>
C iv
bas ket
por ted</w>
ord in
convic tion</w>
resour ces</w>
tw are</w>
rap ed</w>
independ ence</w>
ear n</w>
b id
helicop ter</w>
develop ed</w>
accoun t</w>
gr ave</w>
Ph il</w>
ob serv
re stor
non profit</w>
K y
m en
or t</w>
sp end</w>
gr am</w>
Fore ign</w>
e ve</w>
del eg
Pac ific</w>
R eb
J ason</w>
T am
f ame</w>
ou tr
mad ine
madine j
Ah madinej
Ahmadinej ad</w>
gr av
sle ep</w>
C ross</w>
four -
collap se</w>
surviv or</w>
K el
t oler
Fil m</w>
B ern
es sive</w>
Em b
Emb assy</w>
del ay</w>
ant ly</w>
compu ter</w>
ur g
sear ching</w>
s o
sa il
F ans</w>
Sh eriff</w>
int ended</w>
N SA</w>
er ate</w>
wor se</w>
est ate</w>
Cos by</w>
se ven
advant age</w>
sh ow
in king</w>
jo ins</w>
4 3</w>
H urricane</w>
ufac tur
fac ilities</w>
Iri sh</w>
Def ending</w>
Cas ey</w>
Sur vi
La ura</w>
Franc is</w>
tr uck</w>
con sul
stre am</w>
ut ers</w>
con si
wid ely</w>
em oti
laun ches</w>
hon or</w>
jo int</w>
dem ands</w>
any thing</w>
sh ouldn</w>
i pl
Cl ub</w>
cu p
ic ate</w>
tre at</w>
to ol</w>
vol can
y n</w>
dre w</w>
ad el
V ot
R ud
parti san</w>
Mc Il
D eb
iP ad</w>
1 1
part ner</w>
we et</w>
ell er</w>
do zen</w>
Phil adel
tr ust</w>
ag r
bre ak
ay ne</w>
M organ</w>
d om</w>
ex ample</w>
cam er
sof tware</w>
Amaz on</w>
con sol
yl um</w>
diplom atic</w>
host age</w>
dic t
back ed</w>
im age</w>
me ters</w>
ill ness</w>
tu ally</w>
St even</w>
secon ds</w>
T en
G ri
Brazil ian</w>
P ass
200 2</w>
Philadel phia</w>
bir th
D ist
ev ent
f s</w>
Juli an</w>
B la
rec all</w>
k es
lo an</w>
b on</w>
M od
congres sional</w>
V en
K ansas</w>
shut down</w>
v an</w>
resu me</w>
4 0
iv es</w>
T ed</w>
circ um
app er</w>
B on
Braz ile</w>
net works</w>
De ath</w>
ent re
sh opping</w>
2 8
en tered</w>
Direc tor</w>
up on</w>
R ed
E l</w>
Con serv
A .</w>
McIl roy</w>
pr actice</w>
reg on</w>
O regon</w>
pir ates</w>
some times</w>
ti st</w>
Foot ball</w>
w rec
p ush</w>
u tive</w>
kidn apping</w>
v is</w>
B ir
stor es</w>
pi ece</w>
ed es</w>
P il
6 00</w>
D all
er ine</w>
star ts</w>
I reland</w>
bl ock</w>
im ir</w>
L oc
cre ating</w>
regul ar</w>
ul ar</w>
Sal eh</w>
anc ient</w>
friend ly</w>
de partment</w>
fav or</w>
s elling</w>
lad imir</w>
be t</w>
a ide</w>
massa cre</w>
appro ach</w>
U g
temper atures</w>
oh n</w>
farm ers</w>
satell ite</w>
Patr ick</w>
m on</w>
Clar k</w>
invol ving</w>
M ir
sa f
over seas</w>
sig ning</w>
Christi ans</w>
Foun dation</w>
d ating</w>
Wri ters</w>
pe tition</w>
b ar</w>
med al</w>
gr own</w>
Ch urch</w>
li ber
b our
bla sts</w>
entre prene
li on
m others</w>
r ol
k -
st able</w>
t ar
l un
mon it
gi ant</w>
in ches</w>
as ylum</w>
prob ation</w>
basket ball</w>
employ ment</w>
Comp any</w>
larg ely</w>
expl or
re jects</w>
CN N
ati c
b ly</w>
emb assy</w>
week ly</w>
vent us</w>
Ju ventus</w>
confir m</w>
O ur</w>
kn ows</w>
doub t</w>
Youn g</w>
Li fe</w>
W ind
immedi ately</w>
att ended</w>
J ef
g -
D am
D ou
Gre en</w>
Ed ward</w>
set ting</w>
J am
es h
gr ounds</w>
C el
R ome</w>
C astro</w>
os ter</w>
Qat ar</w>
def end
Borg er</w>
Chil dren</w>
sen ds</w>
199 6</w>
lin k</w>
hol e</w>
J r.</w>
St ev
V A</w>
sti t
U SA</w>
T ok
progr ams</w>
il and</w>
Soc ial</w>
batt ling</w>
Tok yo</w>
fre sh</w>
K er
al es</w>
Grand erson</w>
ing er</w>
G o
w ear</w>
bo ost</w>
G if
Tim es</w>
W ill</w>
repor ter</w>
de ep
f er
surpri se</w>
am o</w>
ro y
k ham</w>
as ing</w>
conn ected</w>
ess ing</w>
tri bal</w>
reve al</w>
McCar tney</w>
V ati
Stud y</w>
sp lit</w>
wi </w>
I bra
cru cial</w>
identi ty</w>
H om
prosec ution</w>
r ich</w>
i onal</w>
L ind
h ear</w>
Venezu ela</w>
Ju arez</w>
par ole</w>
ru m
sh ore</w>
neg ative</w>
wed ding</w>
Pre sid
T sar
Tsar na
Tot tenham</w>
fire fighters</w>
accoun ts</w>
ad i</w>
restaur ant</w>
refug ee</w>
st ro
el ine</w>
wr ong
pass es</w>
f ol
affil iate</w>
sla in</w>
y e</w>
insi sts</w>
del ayed</w>
answ er</w>
cap ture</w>
sett lement</w>
def end</w>
squ ad</w>
E A
lin ed</w>
Cru z</w>
car ds</w>
prov ided</w>
B ud
op in
St or
benef it</w>
it self</w>
Tsarna ev</w>
me at</w>
Dall as</w>
z ing</w>
c utting</w>
hos ted</w>
questi oned</w>
B us
ext end</w>
rel atives</w>
U p</w>
el se</w>
phot ographer</w>
Palest inians</w>
I CE
survi ved</w>
c ing</w>
mis si
tur ning</w>
ad or</w>
Pass eng
3 6</w>
4 1</w>
li p
mid -
Rob in</w>
ar ia</w>
telev ision</w>
L i</w>
re action</w>
low -
de dic
mom ents</w>
in ess</w>
ex hib
rem ember</w>
Abd ullah</w>
fe eling</w>
Vic ti
presid ents</w>
pos t-
g all
im um</w>
sing les</w>
EP A</w>
sou th</w>
proced ures</w>
Sing er</w>
C al
Pro ject</w>
bel ow</w>
loo ked</w>
r ural</w>
Niger ian</w>
M aps</w>
re si
d est</w>
4 ,000</w>
A cc
pp ing</w>
h urricane</w>
Pal in</w>
un i
au tom
menti oned</w>
Con f
Jef f</w>
Sebas tian</w>
p ath</w>
rem ove</w>
Banglad esh</w>
Vati can</w>
ha ir</w>
pr in
environ ment</w>
W ol
s ick</w>
W im
j ourney</w>
L an
Andre w</w>
val ues</w>
agre es</w>
har ass
p ope</w>
estim ates</w>
minist ry</w>
H ud
pur ch
prob ably</w>
f la
war t</w>
V ladimir</w>
err a</w>
s wit
Bah rain</w>
prot ection</w>
S hel
war ned</w>
c old</w>
six -
sh ed</w>
mon d</w>
h ate</w>
li ance</w>
Char lie</w>
De an</w>
bac ter
ach ers</w>
7 00</w>
Il lin
P ic
T A</w>
et t</w>
r at
Te h
song s</w>
fin ish</w>
sa tis
W is
fr ustr
view ing</w>
threat ens</w>
prac tices</w>
assa ul
bu t
M ul
L as</w>
br inging</w>
au g
tax es</w>
sli de</w>
unve iled</w>
Publ ic</w>
Boe ing</w>
ent -
p utting</w>
b ru
Mus ic</w>
the ater</w>
trav eled</w>
w earing</w>
ast er</w>
i -
acc ept</w>
in ning</w>
beg inning</w>
Wi th
pec ially</w>
es pecially</w>
ut ter</w>
clu sion</w>
Kur dish</w>
ex ist
Illin ois</w>
j un
Mus eum</w>
traffic king</w>
Bun des
respon ded</w>
B ru
fi x</w>
3 .
sl ow</w>
coun ter
we alth</w>
F le
tr au
eth n
en sure</w>
ble don</w>
So chi</w>
O li
gen oc
win ter</w>
n oti
c overs</w>
med ic
comm erc
R oyal</w>
defen der</w>
2 9
fir ms</w>
et te</w>
fe els</w>
nomin ation</w>
ast s</w>
slau ghter</w>
i Report</w>
pack age</w>
escap ed</w>
ail er</w>
ev a</w>
Jos ep
mis sions</w>
them e</w>
Serb ia</w>
in er</w>
H is
Fru m</w>
der ing</w>
controll ed</w>
suppor ting</w>
ly n</w>
Law makers</w>
Av lon</w>
au ght</w>
sh op</w>
ip al</w>
oper ate</w>
critic izes</w>
alcoh ol</w>
pic ked</w>
un ions</w>
J ack</w>
coun t</w>
Chen ey</w>
L et
S even</w>
ici ent</w>
defe ats</w>
vess el</w>
dog s</w>
supp ly</w>
ec k</w>
l en</w>
Pri ze</w>
w ake</w>
gun men</w>
H ag
ex press</w>
P et
u ing</w>
Wim bledon</w>
b ound</w>
net t</w>
min ed</w>
prom ised</w>
A wards</w>
end a</w>
sol ar</w>
enc ing</w>
mar kets</w>
fat al</w>
t weet</w>
P res
complain t</w>
tribu te</w>
Pe tr
St ri
I II</w>
emoti onal</w>
His pan
champ ionship</w>
de bu
stitu tion</w>
h ou
min or</w>
gr anted</w>
hand ling</w>
coun ter</w>
m ails</w>
s tic
For t</w>
ri e</w>
Por t
adv ice</w>
A BC</w>
Sou thern</w>
S ri</w>
stat ements</w>
stor ms</w>
cour ts</w>
emis sions</w>
ey es</w>
al- Assad</w>
G P</w>
motiv ated</w>
high ly</w>
H us
ur ors</w>
T ime</w>
celebr ate</w>
Zim bab
Josep h</w>
pre ad</w>
detain ees</w>
vi g
ar d
ash ing</w>
ed ing</w>
v acc
Ne ther
H ill</w>
or ities</w>
dr am
ent ucky</w>
ot t</w>
civil ian</w>
ed e</w>
shoot er</w>
Tenn es
collap sed</w>
U r
Victor ia</w>
rout e</w>
K ohn</w>
um ents</w>
Sec ond</w>
R ay</w>
f ile</w>
T on
inte gr
con v
fin ed</w>
Nether lands</w>
With out</w>
Su arez</w>
Sp ace</w>
w illing</w>
reg ional</w>
br ings</w>
All en</w>
Ti bet
AC L
ACL U</w>
in ho</w>
at e
dec line</w>
al ists</w>
quir y</w>
N ot</w>
genoc ide</w>
de als</w>
repres ent</w>
se em
K entucky</w>
K ing
Sim on</w>
198 0s</w>
f estival</w>
t aught</w>
kid ney</w>
th i
o ds</w>
auc tion</w>
wor ried</w>
surve illance</w>
ag encies</w>
H um
em a</w>
C O
n es
b ond</w>
youn gest</w>
or ia</w>
lig a</w>
N azi</w>
Tennes see</w>
s or</w>
A y
f ying</w>
gre atest</w>
bo ats</w>
Nob el</w>
tri um
oy d</w>
oc aine</w>
analy sts</w>
su bur
S mar
d ark</w>
ut ation</w>
govern ing</w>
inter ests</w>
requ ire</w>
overn ight</w>
phot ograph
tal king</w>
forec ast</w>
pr ay
3 70</w>
pain ting</w>
Goo d
ough out</w>
fel ony</w>
ad ult</w>
quali fy</w>
d um
n ote</w>
leg acy</w>
suspen sion</w>
N ev
h ot</w>
eng aged</w>
ther ap
hu a</w>
ar ding</w>
N ight</w>
aff ect</w>
7 7</w>
arch it
Repor ter</w>
experi enced</w>
vol ta</w>
Tra volta</w>
Bundes liga</w>
pil ots</w>
ti re</w>
Bow l</w>
Teh ran</w>
ab road</w>
V eter
li sts</w>
end um</w>
ev ening</w>
Tha iland</w>
ch ann
res ses</w>
advoc ate</w>
sym b
hero in</w>
host ages</w>
ste in</w>
G ary</w>
t ained</w>
w ing</w>
hom eless</w>
St one</w>
Har ris</w>
j ets</w>
electr ic</w>
k i
ba g</w>
st ret
pl us</w>
Sec ret</w>
inter n
- time</w>
jud ges</w>
read ers</w>
b un
F ar
. A.</w>
post p
199 2</w>
L A
Cathol ic</w>
t g
a is
neighb or</w>
ru pt</w>
Kh an</w>
e ch
pu ted</w>
pay ing</w>
S ub
cent ers</w>
Ac tress</w>
J ustin</w>
dra ws</w>
con fron
Se a</w>
sec ret</w>
Sar ah</w>
erg en</w>
P oll
anc ed</w>
bre aks</w>
tr ick</w>
ar di
cru ise</w>
on ey</w>
he at</w>
s en</w>
ic ted</w>
Survi v
O thers</w>
S anta</w>
bi o
err or</w>
Pr osecutor</w>
i als</w>
scen es</w>
Malaysi a</w>
, 500</w>
apolog izes</w>
cl assi
g a</w>
te amm
x on</w>
it z</w>
ch r
bal ance</w>
g ath
war nings</w>
am ount</w>
S wit
Fran k</w>
Au stri
k in</w>
sla ying</w>
in surg
Sp ani
land ed</w>
reha b</w>
ih ad
An n
Spo kes
de al
G et
for ds</w>
Ju an</w>
St ation</w>
tem porary</w>
ter n</w>
Ch ry
camp s</w>
Su p
1 50</w>
sex ually</w>
all er</w>
travel ers</w>
doll ar</w>
H il
Indones ia</w>
cre ates</w>
et ers</w>
K ob
Co oper</w>
D S</w>
dec isions</w>
def icit</w>
J ew
A id</w>
br is</w>
U S</w>
in ti
Con tr
. 1</w>
opportun ities</w>
stit ute</w>
pas sion</w>
Al an</w>
ind u
scho ol
O ld</w>
event ually</w>
Sou thwest</w>
W all</w>
ic on</w>
constitu tional</w>
S wi
spon sor
O w
charac ters</w>
tun nel</w>
Op position</w>
S um
rac ism</w>
k h
A th
7 1</w>
Anti -
de bris</w>
lim it</w>
te es</w>
ant an
G or
smo king</w>
introduc ed</w>
var ious</w>
Kel ly</w>
los es</w>
W el
ch en
l og
S af
wa it</w>
L ake</w>
oun ts</w>
Res idents</w>
a x</w>
se em</w>
off enders</w>
all ow
B P</w>
ast ruc
astruc ture</w>
A z
Jon athan</w>
Hol der</w>
consi st
pl ants</w>
aband oned</w>
rec over</w>
T C</w>
c ope</w>
A ff
oppon ent</w>
p ed
ent ers</w>
y outh</w>
sti mul
pe t</w>
NY PD</w>
ag enda</w>
devel op</w>
N omin
as er</w>
acc ur
N ep
M em
b on
C ur
g ol
ev ol
Cam p</w>
Be fore</w>
z y</w>
Mar s</w>
re forms</w>
is sion</w>
sig nation</w>
re signation</w>
pic tures</w>
dev ast
E ight</w>
Gre en
trans f
shi ft</w>
Spe aker</w>
propos al</w>
cr own</w>
FA RC</w>
g ain</w>
Bri an</w>
stand ard</w>
sh ape</w>
m ir
st ations</w>
long- term</w>
lif ted</w>
over ing</w>
p leads</w>
bour ne</w>
stro ke</w>
u tions</w>
Malaysi an</w>
al lies</w>
ren ew
de ep</w>
Par ents</w>
ch man</w>
ter -
Swed en</w>
sm oke</w>
k el</w>
K im
man ufactur
law maker</w>
S utter</w>
c ocaine</w>
H all</w>
du ty</w>
un ique</w>
Pla y
Christ op
P it
T om
head quarters</w>
mid dle</w>
om ing</w>
fa il</w>
per form</w>
penal ties</w>
oy ed</w>
se in</w>
su its</w>
mil e</w>
wal king</w>
F igh
su ed</w>
tr ained</w>
Indi ana</w>
un rest</w>
Wh y</w>
cl othing</w>
j e
P ow
C air
Lar ry</w>
Mar athon</w>
Gif fords</w>
threat ening</w>
pun ishment</w>
ti oned</w>
individ ual</w>
tor ies</w>
win d</w>
Her o</w>
car rier</w>
m erg
inter net</w>
the -
recor ding</w>
human ity</w>
K ir
J ournal
trag edy</w>
mach ines</w>
st adium</w>
e keep
ad ded</w>
D anny</w>
Si erra</w>
Bel gi
B O</w>
Ni xon</w>
C lev
sou ri</w>
Mis souri</w>
pic ture</w>
G ergen</w>
ris m</w>
ad emy</w>
achi ev
equ al
pos es</w>
e at</w>
ad op
Wal es</w>
P ed
Te ch</w>
demonstr ations</w>
Bec kham</w>
bl acks</w>
chec ks</w>
Com mission</w>
c tic</w>
prom p
disc ipl
ic ed</w>
pra ises</w>
desig ner</w>
k ings</w>
trou ble</w>
comm issi
Te chn
reg ist
C la
ca using</w>
comp uters</w>
ep tion</w>
fin ally</w>
Mar yland</w>
phys ical</w>
ef ul
F estival</w>
6 8</w>
por tr
infr astructure</w>
mis ses</w>
pp er</w>
K atr
the tic</w>
Zimbab we</w>
Sch um
Bol i
ol n</w>
Champ ionship</w>
t ast
res earchers</w>
refl ect</w>
Gu antan
Con nell</w>
sen ator</w>
har m</w>
id den</w>
O K</w>
sec tor</w>
bel ong
ac tually</w>
wi des
9 11</w>
e an
foot age</w>
Portu gal</w>
oc key</w>
mar ch</w>
tal ked</w>
scienti st</w>
attemp ts</w>
j ack
ver dict</w>
en j
refer endum</w>
C ro
A E
back ground</w>
mist ake</w>
cou p</w>
step ped</w>
5 4</w>
Civ il</w>
J im
pl ed</w>
commun ications</w>
i ated</w>
min d</w>
symb ol</w>
F ather</w>
trou bled</w>
p ending</w>
Ber lin</w>
fac ts</w>
respon d
G in
sy n
ha ven</w>
fall en</w>
separ ati
to x
b ear</w>
po is
survi ve</w>
ass es</w>
ang er</w>
y l</w>
oo ks</w>
ph oon</w>
Air ways</w>
Ad minist
nov el</w>
ple dged</w>
ri ots</w>
kic ked</w>
Wal ker</w>
Lis a</w>
M erc
U N
w aves</w>
ide as</w>
gr ade</w>
popul arity</w>
c ra
ur ban</w>
camer as</w>
er g</w>
ar rive</w>
ric h
A T</w>
crow d</w>
re vi
Tri pol
gre w</w>
peac ekeep
shor tly</w>
ter tain
c ited</w>
Clev eland</w>
abor tion</w>
m our
ent ing</w>
oz one</w>
ri ses</w>
thre w</w>
z en
cre ative</w>
discrimin ation</w>
T E
ra ins</w>
L inc
Linc oln</w>
spot light</w>
fig ures</w>
wides pread</w>
ar ly</w>
bur n</w>
t ations</w>
el ius</w>
main tain</w>
ten tion</w>
Val ley</w>
per man
Ar t</w>
con voy</w>
del iv
deliv ered</w>
ethn ic</w>
hou se
politic ian</w>
det on
deter mined</w>
not or
Colomb ian</w>
comfor table</w>
Katr ina</w>
re plac
Inc ident</w>
organ ized</w>
roy al</w>
spir acy</w>
et n
Vi etn
en jo
Jeff rey</w>
ing -
F all
H ow</w>
del iver</w>
ag ues</w>
Analy st</w>
conn ect</w>
consu mer</w>
it a</w>
P on
air e</w>
harass ment</w>
ti ful</w>
Tripol i</w>
coff ee</w>
volun te
me an
F K</w>
ex pec
re a</w>
Br ook
sur face</w>
af ford</w>
T oy
Pla yers</w>
bas ic</w>
oc cup
mun d</w>
3 4</w>
Swit zer
D al
crimin als</w>
Christop her</w>
organiz ations</w>
B ut
w ine</w>
sk in</w>
H </w>
dau gh
u ality</w>
ref uses</w>
govern ments</w>
n u
prov iding</w>
S am</w>
Ug anda</w>
E t
produc t</w>
clos ure</w>
answ ers</w>
as ion</w>
sh r
pr oud</w>
monit oring</w>
me ter</w>
prom in
ran ged</w>
in come</w>
bacter ia</w>
administ r
v el</w>
Do zens</w>
boy friend</w>
ob by</w>
V an</w>
th al</w>
weap on</w>
tic o</w>
Switzer land</w>
lin ks</w>
dr opping</w>
ey e</w>
fa ult</w>
rob bery</w>
n o-
g ate</w>
re place</w>
spec ies</w>
R ou
repor ting</w>
fun ded</w>
I C
addres sed</w>
stat e-
B eg
em ic</w>
recogn ize</w>
push ed</w>
p apers</w>
ang ered</w>
alleg es</w>
ed ge</w>
thr oughout</w>
s ors</w>
torn ado</w>
S ays</w>
quar ter</w>
iv ed</w>
semi finals</w>
Alas ka</w>
Me h
Am ong</w>
t elling</w>
f requ
V P</w>
Pro gram</w>
Oc ean</w>
assi stant</w>
is sa</w>
p ip
S ant
regul ations</w>
le tico</w>
predic ts</w>
S o</w>
sp ac
exec ution</w>
fil m
D ru
larg er</w>
fin dings</w>
Pan etta</w>
contr ols</w>
prom ote</w>
Re id</w>
Don et
contin ent</w>
d am</w>
Brook lyn</w>
sh ire</w>
r ict</w>
di al
allow een</w>
7 ,000</w>
dest ination</w>
shi f
Mor sy</w>
Hud son</w>
An ton
t ent</w>
V ill
scre ening</w>
F ul
af </w>
res ort</w>
ti s</w>
sugg est</w>
Pil ot</w>
Offic er</w>
f ication</w>
L ove</w>
M ali
Bang k
S earch</w>
com ic</w>
L or
Carl os</w>
st ood</w>
N 1</w>
experi ences</w>
Spani ard</w>
hous ing</w>
di stance</w>
represent ative</w>
tou rists</w>
Wis con
conserv atives</w>
H amp
Min nes
M obile</w>
m o</w>
prepar ing</w>
testi fy</w>
re ly</w>
sil es</w>
br ary</w>
shar k</w>
g ian</w>
f ishing</w>
c iting</w>
ar ily</w>
oun d
c ash</w>
in ks</w>
comm ission</w>
Leb an
celeb ri
bran ds</w>
Rod ri
fin ishes</w>
m ut
He avy</w>
R on</w>
re ject</w>
peacekeep ers</w>
d ated</w>
Fri da</w>
7 2</w>
S qu
ap ed</w>
S ot
citi zen</w>
volcan o</w>
sa ved</w>
gun man</w>
st ances</w>
5 1</w>
g ear</w>
wh ole</w>
Lu is</w>
do ch</w>
Mur doch</w>
p ion
b oss</w>
r ating</w>
s .</w>
initi ative</w>
al ization</w>
ici an</w>
end ations</w>
div or
war rant</w>
el li</w>
V ick</w>
p al
E cu
cl er
Sch war
par ks</w>
e- mails</w>
Ch ile</w>
don ors</w>
ri dge</w>
coun cil</w>
u als</w>
rol es</w>
E ven</w>
qui et</w>
l ab</w>
requ ires</w>
oppos e</w>
Tim oth
Timoth y</w>
sp y</w>
in ate</w>
Leban on</w>
op ti
h idden</w>
c able</w>
adver ti
h ackers</w>
appropri ate</w>
1. 5</w>
Camp a
gl ass</w>
G ood</w>
tal ent</w>
Dist rict</w>
L l
L and
hun t</w>
Te en</w>
tou rism</w>
i est</w>
k us
ear ned</w>
att ackers</w>
hon ored</w>
K at
J ong</w>
fiel der</w>
sun ami</w>
spec ific</w>
z es</w>
N apol
ad ing</w>
r ose</w>
up set</w>
ur ge</w>
W ayne</w>
cr y</w>
receiv ing</w>
j ihad
car tel</w>
susp icious</w>
declar es</w>
it able</w>
condem ns</w>
4 -0</w>
bu c
Sh an
ain er</w>
all owing</w>
under standing</w>
Bangk ok</w>
9 5</w>
K ri
B y</w>
Guantan amo</w>
W arren</w>
keep er</w>
Bar bar
expen sive</w>
tic ket</w>
Res earchers</w>
smart phones</w>
1 N1</w>
tit les</w>
g er
u ps</w>
su ing</w>
vi ties</w>
sp ying</w>
sl am</w>
Den ver</w>
Donet sk</w>
Steph en</w>
CNN .com</w>
ne ither</w>
ish er
foll owers</w>
politic ally</w>
V ie
F al
rem ote</w>
L op
un employment</w>
im ag
birth day</w>
iz on</w>
gh am</w>
Phil li
daugh ters</w>
eb er</w>
under ground</w>
Minnes ota</w>
bl ind</w>
H 1N1</w>
P ear
p ace</w>
wind ow</w>
Inter ior</w>
M ag
inf o</w>
wor ry</w>
im ple
L ig
pre -
wal ked</w>
Ste wart</w>
ain able</w>
ic als</w>
g by</w>
AI DS</w>
H alloween</w>
cha os</w>
b au
Ac ti
p ick</w>
st ock</w>
dedic ated</w>
foun dation</w>
air space</w>
eff ective</w>
g ion</w>
Bl o
An im
K hal
z i</w>
hear t
high lights</w>
st ages</w>
# </w>
fe e</w>
T ou
Al leg
er ation</w>
v </w>
rad iation</w>
attor neys</w>
ten ed</w>
e ast</w>
We ather</w>
Ex pl
opin ion</w>
200 ,000</w>
sequ ences</w>
tow ards</w>
prot esting</w>
f air
por ters</w>
off ering</w>
f alls</w>
dou bles</w>
ough ts</w>
ut ri
Del ta</w>
inst all
tru th</w>
d ay
d ar
typ e</w>
At letico</w>
us ually</w>
Col lege</w>
mis siles</w>
conduc ted</w>
susp ici
M E</w>
in aug
p ot</w>
J r</w>
Mar ine</w>
c ateg
de ported</w>
eb all</w>
&#9 3
acc el
L y
conf ident</w>
Nomin ations</w>
proper ly</w>
f ake</w>
inter im</w>
ack down</w>
kil om
qu es</w>
S av
it ted</w>
4 0,000</w>
pow ers</w>
the astern</w>
lion aire</w>
e ing</w>
suppor ted</w>
M umb
vis iting</w>
cr ic
pers on
spiri t</w>
acknowle dges</w>
ab uses</w>
thi op
En ergy</w>
eff ecti
le agues</w>
K ab
divis ion</w>
El ec
Ear lier</w>
trans plant</w>
wel come</w>
invol ve</w>
h in
mach ine</w>
tou rist</w>
inter vention</w>
Cair o</w>
5 5</w>
fail ing</w>
B est</w>
war m</w>
R ose</w>
busin ess
re aches</w>
J .</w>
wat ching</w>
O ver
R and
isc al</w>
u ggl
R w
equ al</w>
un able</w>
descri be</w>
Organiz ers</w>
class ic</w>
os s
pe ts</w>
Jew ish</w>
Cub an</w>
commerc ial</w>
cy ber
gi ants</w>
6- 4</w>
ra ther</w>
si zed</w>
pre f
Mal i</w>
sa m
ran ks</w>
ih anna</w>
R ihanna</w>
man slaughter</w>
doll ars</w>
acc id
im pose</w>
iv al</w>
Wiscon sin</w>
z o</w>
sm uggl
Re agan</w>
ch an
R ow
lif f</w>
resul ted</w>
de tention</w>
umb er</w>
os ex
investig ated</w>
requ ested</w>
3 9</w>
mar ry</w>
oz y</w>
def ends</w>
k ozy</w>
v ity</w>
ag gres
Att ack</w>
dis puted</w>
th oughts</w>
m ay
ot yp
rel ative</w>
testi fies</w>
conf idence</w>
direc t</w>
execu ted</w>
od ds</w>
is ol
conver sation</w>
doc ument</w>
Med ical</w>
ion ships</w>
refl ects</w>
Lat inos</w>
arret t</w>
di am
dead line</w>
Merc edes</w>
air strikes</w>
m ap</w>
a bet
Govern or</w>
li sted</w>
leg end</w>
altern ative</w>
R av
de ploy
clu sive</w>
ad dic
shar es</w>
r om
U y
outr age</w>
suff ers</w>
arriv es</w>
w ounds</w>
Ti bet</w>
Gl obal</w>
Dev el
Sand us
Sandus ky</w>
L et</w>
R ol
en o</w>
ar tic
Ac tor</w>
Moh ammed</w>
Pen n</w>
Seb elius</w>
comm it</w>
i ang</w>
De ad</w>
t ex
a .m.</w>
Tw o-
u k
Un der
Iv ory</w>
hand ed</w>
em o
Princ ess</w>
ph ere</w>
Schum acher</w>
Rub en</w>
in k
D uring</w>
B and</w>
si t</w>
gre ater</w>
accep ted</w>
l ers</w>
addi tional</w>
8 7</w>
t mund</w>
ough ly</w>
I D</w>
improv ing</w>
F e
Gar c
cl es</w>
head ing</w>
h am
h owever</w>
O sa
au top
quar ant
fle e</w>
l eng
mil iti
au thors</w>
f ear
S U
C ir
ab e</w>
j ailed</w>
McCar thy</w>
lov es</w>
ex pects</w>
au tis
pos session</w>
en ty</w>
thir d-
Bri dge</w>
opportun ity</w>
f ly</w>
1 ;</w>
&#9 1;</w>
a im</w>
ar do</w>
Mar io</w>
Mal ala</w>
exten ds</w>
sp ill</w>
f isher
&#93 ;</w>
m att
Sup porters</w>
or ph
shar ing</w>
es cal
on ents</w>
P ost</w>
b ie</w>
st amp
R oll
s burg</w>
ti le</w>
Swed ish</w>
hop ing</w>
loc k</w>
ang s</w>
Toy ota</w>
ex pan
Cu st
w a</w>
25 ,000</w>
lear ning</w>
Com m
lic en
Mat t</w>
Den mark</w>
Fel ipe</w>
j am
A F</w>
D an</w>
id ers</w>
con spiracy</w>
dr ama</w>
oppon ents</w>
princ ipal</w>
t ours</w>
win ners</w>
e u
ot ten</w>
g otten</w>
R iver
G ab
AT P</w>
Am y</w>
oo dy</w>
deep ly</w>
se as
g ained</w>
fac tor</w>
Mc L
kilom eters</w>
H y
olog ists</w>
d ur
Cong res
Bi eber</w>
P y
dah l</w>
quali fied</w>
l ab
in ch</w>
min al</w>
i ber
scor ing</w>
M L
T it
s ity</w>
mem orial</w>
mar ine</w>
199 0s</w>
we ak</w>
Sar kozy</w>
S ean</w>
ran ked</w>
g li
Gu ine
R ory</w>
ap prove</w>
lov ed</w>
cl ubs</w>
scienti fic</w>
enti ally</w>
indu stri
for tun
fle w</w>
Dor tmund</w>
dam ages</w>
pr int</w>
prov inc
es sions</w>
erup ted</w>
Ham id</w>
quarter finals</w>
Le g
sun g</w>
ch os
exper im
G ay</w>
el le</w>
M anning</w>
re open</w>
sen si
de aling</w>
G am
de pression</w>
B oy
si vely</w>
in mates</w>
produc ing</w>
pro jects</w>
ag ged</w>
mi xed</w>
m ic
te achers</w>
Ferr er</w>
anim al</w>
cal m</w>
lik es</w>
am ounts</w>
re jected</w>
vo ices</w>
prop ag
Sh are</w>
hand ful</w>
re min
L yn
har d-
fla g</w>
c argo</w>
ev al
our inho</w>
tab let</w>
contin ued</w>
Bul l</w>
eur ozone</w>
y i
tr ail</w>
Administ ration</w>
Car n
fl ood</w>
d hood</w>
col leagues</w>
dr illing</w>
Lan ka</w>
gg ing</w>
back ing</w>
M TV</w>
B omb
me als</w>
y ans</w>
et ings</w>
perform ed</w>
Li ke</w>
H ann
199 8</w>
push ing</w>
st an
comm and
wel fare</w>
sm aller</w>
er o</w>
trigg ered</w>
b ans</w>
o en
batt le
pul ls</w>
I d
re sign</w>
moun tain</w>
t ree</w>
autop sy</w>
im posed</w>
i g</w>
20 -
chos en</w>
H inc
cr ackdown</w>
co ast
Y an
s now
Sand ra</w>
re- election</w>
G olf</w>
a ud
leg iti
4 th</w>
Hinc kley</w>
hum ans</w>
J FK</w>
s ound</w>
o x
T erry</w>
Sti ll</w>
evac uation</w>
re placed</w>
avi ation</w>
w an</w>
. 7</w>
y ard</w>
fast est</w>
res er
let ters</w>
jam in</w>
classi fied</w>
J ol
tion ary</w>
clos er</w>
long time</w>
w ise</w>
ro of</w>
h ired</w>
3 ,000</w>
Ben gh
st uck</w>
Belgi um</w>
wh e
tic ally</w>
tr il
spok en</w>
el im
pl ag
beau tiful</w>
Bengh azi</w>
s ounds</w>
199 7</w>
h at-
ul a</w>
negoti ations</w>
view ers</w>
ex ist</w>
n utri
W H
WH O</w>
div ided</w>
197 2</w>
fe ed</w>
swi m
Jim my</w>
er ies</w>
ic onic</w>
rob ots</w>
Nep al</w>
T ah
Shan gh
Fr om</w>
9 3</w>
ec ture</w>
sh ad
Hus sein</w>
Sot om
Sotom ayor</w>
te a</w>
ou l</w>
Juli a</w>
tu tion</w>
ti tution</w>
restor ed</w>
bi ke</w>
che f</w>
Ex ec
O ut
1 -year-old</w>
g ather</w>
el e</w>
H an
tax pay
saf ely</w>
Mov ie</w>
los ses</w>
ple ad</w>
Curr ent</w>
Mu g
bl ocked</w>
J ac
F ab
Mos ul</w>
ha z
w ave</w>
i th
batt les</w>
af tern
b ish
sk ep
stu dies</w>
um erous</w>
insp ir
n ature</w>
first- degree</w>
t ty</w>
seven th</w>
analy sis</w>
H BO</w>
Mat the
bla ze</w>
de par
happ ens</w>
cu it</w>
F ood</w>
mis m</w>
ex it</w>
din ner</w>
ad oes</w>
dre am</w>
extrem ists</w>
ri al</w>
Mumb ai</w>
ic ity</w>
n ic
in quiry</w>
Bru ce</w>
n or</w>
Su san</w>
R ace</w>
is tic</w>
sol o</w>
Lop ez</w>
stimul us</w>
Ty ler</w>
1 st</w>
E thiop
M ary</w>
oth er
pre dict</w>
transpor tation</w>
un ity</w>
ear cher</w>
figh ts</w>
l -
aftern oon</w>
b a</w>
s kills</w>
Col umb
D omin
Uy gh
we ak
N ine</w>
onn el</w>
Jenn if
Jennif er</w>
Nev ada</w>
re al
uck er
do ors</w>
Ben jamin</w>
il a</w>
atic ally</w>
el -
cri p
Kar zai</w>
lo aded</w>
F if
Lead ers</w>
Sw iss</w>
s worn</w>
ati s
Sud anese</w>
A k
H ow
L abor</w>
Spokes man</w>
tic kets</w>
Del hi</w>
spar ency</w>
K ath
al ert</w>
ti red</w>
Doc tor</w>
Res earch</w>
Stud ents</w>
L iv
enj oyed</w>
Tha i</w>
shoot ings</w>
blog ger</w>
tr opical</w>
medic ine</w>
cau tion</w>
Z ucker
re un
d ying</w>
re ts</w>
gu ests</w>
Cru ise</w>
fac t</w>
Bro ther
g ood
den y</w>
assass ination</w>
youn ger</w>
Le one</w>
Hamp shire</w>
J ay
expl ore</w>
Tun is
pr o</w>
5 6</w>
c ous
Barbar a</w>
loc ation</w>
R al
rap </w>
6 4</w>
oph y</w>
inter ior</w>
te aching</w>
hal f-
dr inking</w>
N ext</w>
O mar</w>
ash i</w>
ob es
cre ator</w>
M ourinho</w>
thr ow</w>
com eb
ati vely</w>
eigh th</w>
tran script</w>
rob ot</w>
inv asion</w>
enc ia</w>
Ken yan</w>
bre ach</w>
Ar ctic</w>
tou ch</w>
ac le</w>
Ap pe
ag grav
of -
S erg
us tices</w>
An d</w>
h acking</w>
dr ought</w>
foc uses</w>
Analy sts</w>
dial ogue</w>
pl astic</w>
b ers</w>
ri gh
positi ons</w>
ig ners</w>
innov ation</w>
flo or</w>
canc els</w>
1 20</w>
des c
eas ier</w>
advoc ates</w>
ol dest</w>
initi ally</w>
V ol
o y</w>
rem emb
Sam sung</w>
gr en
J erry</w>
h itting</w>
q </w>
st ery</w>
ent ation</w>
democr atic</w>
J en
nor thwest</w>
d ry</w>
i x</w>
Ecu ador</w>
top -
Brad ley</w>
it zer</w>
hor r
B order</w>
sear ched</w>
circum stances</w>
v in</w>
p it</w>
yl an</w>
fac tory</w>
dec lined</w>
extrem ely</w>
qu akes</w>
ex </w>
vi an</w>
pre fer</w>
st al</w>
prom ising</w>
ve get
Ed wards</w>
pl ain
Bro ad
in et</w>
abet es</w>
less ons</w>
EP L</w>
Afric an-American</w>
Swi ft</w>
ri g
o GP</w>
recomm endations</w>
aggrav ated</w>
anti bio
Mot oGP</w>
m ud
cap ac
fir ing</w>
Gre ek</w>
hor ri
ul l</w>
contin uing</w>
ay ing</w>
Spr ing</w>
clear ed</w>
ast or</w>
exp and</w>
ex tradition</w>
expl ains</w>
Rob inson</w>
p our</w>
streng th</w>
Wind ows</w>
succ eed</w>
os es</w>
Ab du
promin ent</w>
celebr ates</w>
sec ret
en h
Kore ans</w>
inspec tors</w>
prof its</w>
ow ly</w>
N umber</w>
id er</w>
prec ed
aff ects</w>
ed itor</w>
qu it</w>
fat ally</w>
197 0s</w>
ir a</w>
encour age</w>
Devel op
ch ell</w>
Mit chell</w>
camp us</w>
de -
He z
D aw
Th r
artic le</w>
New cast
ap prec
tin y</w>
Elec tr
Hispan ic</w>
0 m</w>
ashi an</w>
man n</w>
Ten sions</w>
Vis it</w>
D e</w>
6 ,000</w>
surviv al</w>
keep ing</w>
on ym
hom e
J ury</w>
meth ods</w>
awar ded</w>
H av
rest ore</w>
seem ed</w>
un it</w>
repe at
repeat edly</w>
under way</w>
Gor don</w>
thin king</w>
Un der</w>
st ran
Squ are</w>
d in</w>
trau ma</w>
d res
curr ency</w>
sp ots</w>
r aft</w>
u le</w>
propag anda</w>
g ary</w>
expl ain</w>
ess ential</w>
sent ences</w>
inc or
P S
r am
consid ers</w>
co- founder</w>
d ress</w>
M ass
P helps</w>
min ority</w>
Mug abe</w>
el e
coun ty</w>
Cam bo
re aching</w>
struggl ed</w>
man agement</w>
oppos ed</w>
o tic</w>
fun c
Er dog
promot ing</w>
lu x
M ills</w>
Organiz ation</w>
ag u
Campa ign</w>
Hon dur
or a</w>
cou ples</w>
comfor t</w>
si bly</w>
deser ve</w>
acti vities</w>
Guine a</w>
sh oes</w>
mar ked</w>
all os</w>
g ains</w>
ev allos</w>
C evallos</w>
plat form</w>
f iscal</w>
inter views</w>
Stor m</w>
prot ected</w>
hat- trick</w>
up dates</w>
G -
Berg dahl</w>
fail s</w>
sub stance</w>
scri p
Kab ul</w>
k amp</w>
River a</w>
J ess
cr oss</w>
N at
equal izer</w>
ic ated</w>
ar ra
ak a</w>
Air line</w>
Cro ati
prepar ed</w>
te ach</w>
long est</w>
ar ded</w>
un a</w>
mor al</w>
Ac ademy</w>
un t</w>
f ate</w>
t ape</w>
od d</w>
ot ting</w>
mi x</w>
Newcast le</w>
expres sed</w>
rep utation</w>
5 0
pit ch</w>
cle an
O x
Ch e
amb ridge</w>
1 60</w>
r ar
st an</w>
pl ing</w>
Bar ry</w>
Hol mes</w>
me etings</w>
an onym
med als</w>
Em erg
indic ate</w>
3- 2</w>
advis er</w>
C ancer</w>
Con stitution</w>
fr u
u sive</w>
insul a</w>
Hag el</w>
tr acks</w>
arg ue</w>
at ter</w>
str anded</w>
ti li
3 0,000</w>
Conf ed
Pre vi
S tra
Wil d
S P
Matthe w</w>
Erdog an</w>
adv ent
25 0,000</w>
bo x
gun shot</w>
perman ent</w>
heav ily</w>
con ven
Val encia</w>
tab lets</w>
per mission</w>
e ases</w>
a j</w>
Cou ple</w>
T ai
car to
tor tured</w>
ar -
chil dhood</w>
bur ning</w>
Lat ino</w>
po or
oc king</w>
smar t</w>
3- D</w>
Sy d
onn a</w>
direc tly</w>
Iran ians</w>
f ed</w>
por tra
6- 2</w>
3 ,
G ame</w>
comp en
obes ity</w>
Sin gh</w>
ici ans</w>
il es</w>
em porary</w>
ic -
tur n
Austri a</w>
Liber ia</w>
O u
C BS</w>
am az
hi ri</w>
Rodri gu
Rodrigu ez</w>
il legally</w>
life -
lin er</w>
B ot
Bo ard</w>
cr ashes</w>
anc ing</w>
gif ts</w>
M ount</w>
con sequences</w>
Shangh ai</w>
od a</w>
pers onnel</w>
e h
el ds</w>
est yle</w>
pri sing</w>
a wi</w>
viol ating</w>
class es</w>
Acti vists</w>
terri tory</w>
int enti
t oms</w>
ven ue</w>
mos que</w>
Hu gh
7 4</w>
fr ag
amb iti
Zucker berg</w>
Haw ai
c at</w>
emerg ing</w>
1, 500</w>
Prot ests</w>
awar eness</w>
attemp ting</w>
tertain ment</w>
Garc ia</w>
A ustin</w>
transi tion</w>
cr ack</w>
um p
wh ites</w>
apolog ized</w>
D ylan</w>
run way</w>
C ambridge</w>
al ong
Gl oria</w>
Kar d
Kard ashian</w>
ignor ed</w>
surr ounding</w>
Jo int</w>
ch dog</w>
E ach</w>
bu l</w>
St u
V illa</w>
Pr of
hal f
In stead</w>
jok es</w>
dis appearance</w>
ack er</w>
us ual</w>
E very</w>
Loc al</w>
ic tion</w>
establ ished</w>
2 .5</w>
Jess ica</w>
qu ick</w>
contr actors</w>
C an</w>
with draw
ing u
fast er</w>
vir al</w>
Tibet an</w>
reli gion</w>
h amm
check point</w>
K a
Be y
ec lip
wil d</w>
is her</w>
C lim
d ri
ati n</w>
s om</w>
an ic</w>
t wi
an is</w>
Ar k
edi tion</w>
Eur o</w>
ach i</w>
z ones</w>
au to</w>
Val ent
shel ter</w>
col um
for est</w>
4 -1</w>
min ers</w>
Afgh ans</w>
Gol den</w>
awa iting</w>
car bon</w>
be ach</w>
r apper</w>
Beg ala</w>
beau ty</w>
out come</w>
Bal ot
stan bul</w>
Par liament</w>
con i</w>
3 r
cl oth
i to</w>
competi tive</w>
repres ented</w>
dec lines</w>
H ere</w>
land slide</w>
inspir ation</w>
K night</w>
disa gree</w>
part n
s giving</w>
f it
est ors</w>
ap ova</w>
Shar apova</w>
bl ack
dis played</w>
l us
Ber lus
K athle
bl ow</w>
inter f
bu ying</w>
ff ed</w>
T ro
1 -
Brother hood</w>
b arg
in y</w>
ri bu
af fair</w>
R ul
ru s</w>
us si
Rang ers</w>
ym our</w>
V ice</w>
gl it
sa t</w>
symp toms</w>
Appe als</w>
F oll
mem ory</w>
Im migr
c e
B at
kill ers</w>
del iber
SU V</w>
evacu ate</w>
B ook</w>
ex posed</w>
end ary</w>
P ap
Se ymour</w>
Mar sh
pow ered</w>
Dis ney</w>
Com missi
rat ings</w>
5 7</w>
fl oods</w>
Sal v
1, 200</w>
sen ators</w>
0 0-
Rad io</w>
coun sel
F our
reven ues</w>
therap y</w>
mon ella</w>
Mer kel</w>
gath ered</w>
ank sgiving</w>
Th anksgiving</w>
C i
estim ate</w>
commissi oner</w>
consol e</w>
sensi tive</w>
des per
struc ture</w>
mod els</w>
M embers</w>
high- speed</w>
9 ,000</w>
sch ol
s el</w>
pi ec
g ar</w>
sid er</w>
comeb ack</w>
How ard</w>
Anton io</w>
sust ained</w>
relation ships</w>
Conserv ative</w>
ec </w>
dem ean
diplom at</w>
par don</w>
L eno</w>
spec ulation</w>
S ter
O per
por ate</w>
V o
t end</w>
a j
debu ted</w>
B ell</w>
Hez bol
t am
jum p</w>
af fordable</w>
dram atic</w>
US S</w>
H ave</w>
C av
vir tual</w>
is i</w>
gre es</w>
der by</w>
Y ang</w>
intr oduce</w>
B T</w>
cr ush
b o</w>
P ul
epis odes</w>
M A</w>
Figh ting</w>
far m</w>
em e</w>
qui ao</w>
G on
Dre am
6 0s</w>
pul l</w>
199 9</w>
am ation</w>
Sh in
ici a</w>
3 8
ign ore</w>
expres ses</w>
broad cast</w>
Ark ansas</w>
cor oner</w>
S ul
accur ate</w>
stret ch</w>
offic es</w>
Port land</w>
Democr at</w>
F oster</w>
n er-
wri ters</w>
S EA
coll ection</w>
a w</w>
mis conduct</w>
Ad ams</w>
v ast</w>
col leg
Kathle en</w>
la id</w>
iti </w>
Berlus coni</w>
el ect</w>
T ru
Serb ian</w>
ri g</w>
od d
L ance</w>
mp tion</w>
K ut
inter rog
Gin gr
ster e
Mar c</w>
ar y-
sam ples</w>
ri ers</w>
ac res</w>
Z awa
m ob
don ations</w>
Rub io</w>
pre p
ar ed</w>
Mel bourne</w>
- based</w>
war s</w>
He ad</w>
over -
D ak
D ow
sa ving</w>
N ick</w>
fl ow</w>
be gun</w>
U n</w>
Jes us</w>
hen ko</w>
H ope</w>
eas ily</w>
omb erg</w>
deleg ation</w>
high- profile</w>
R un
c ig
Bl ue</w>
e on</w>
J orge</w>
discus sed</w>
Pac quiao</w>
tiv ity</w>
cop y
Em irates</w>
e ither</w>
ur ation</w>
acc ept
X box</w>
Pl an</w>
assaul ted</w>
6 7</w>
Fall on</w>
dro ve</w>
bl ue</w>
v on</w>
eful ly</w>
rub ble</w>
S l
al i</w>
El ection</w>
di et</w>
3 0-
ag e
exp anded</w>
gre en
Ven us</w>
al lege</w>
K .</w>
disc overy</w>
Venezu el
Clim ate</w>
N CA
NCA A</w>
- to-
Syd ney</w>
Commissi oner</w>
me tal</w>
Gun men</w>
W y
cred ited</w>
la in</w>
approv es</w>
e tic</w>
ac ed</w>
y our
your self</w>
dist ur
immigr ant</w>
oc ean</w>
J ay</w>
war ran
har t</w>
r ounds</w>
trav els</w>
pos ing</w>
re ment</w>
J </w>
prop er</w>
t ank</w>
Cap tain</w>
premi ere</w>
a fr
st ability</w>
ri de</w>
Kut cher</w>
over come</w>
. 3</w>
gener ations</w>
as su
Al so</w>
Gingr ich</w>
el ev
thir ds</w>
7 9</w>
Tal ks</w>
Hezbol lah</w>
sa ge</w>
O ver</w>
my stery</w>
li b
pra ised</w>
I stanbul</w>
remov al</w>
en try</w>
ten sion</w>
c liff</w>
er es</w>
e ived</w>
exerc ise</w>
ob jects</w>
en i</w>
cen tr
expl o
. 2</w>
h a</w>
agr am</w>
E duc
complain ts</w>
trium ph</w>
A ston</w>
sh ocked</w>
re vel
par aly
fisher men</w>
iti ve</w>
Al ger
assoc iate</w>
Cambo dia</w>
ang el
ch ur
Su ch</w>
stor age</w>
Wh o</w>
Jol ie</w>
Pol and</w>
t ar</w>
tac tics</w>
ti er</w>
lic ense</w>
min imum</w>
Jes se</w>
M e</w>
c ells</w>
Pr oduc
In t
Nic hol
B ody</w>
t els</w>
L A</w>
notor ious</w>
t um
Ar tist</w>
it age</w>
new ly</w>
nur se</w>
im pres
del iver
wat ched</w>
sa iling</w>
O l
favor ites</w>
dec or
g oods</w>
W olf</w>
Cap e</w>
gun fire</w>
icul ture</w>
wri te</w>
li am
par liam
Zawa hiri</w>
Ben nett</w>
Rog ers</w>
t ask</w>
Argent ine</w>
sequ el</w>
at mos
strong er</w>
Carol ine</w>
E astern</w>
offici ally</w>
le e</w>
cli ent</w>
E sc
custom er</w>
gr ab
A rea</w>
L .A.</w>
Balot elli</w>
along side</w>
r amp
pos sibly</w>
c ut
Fren chman</w>
op per</w>
quali fi
prep are</w>
ro oms</w>
un documented</w>
es -
cros sing</w>
en der</w>
F ly
P an</w>
rest ra
ke ting</w>
spor ting</w>
moun tains</w>
ch ances</w>
198 6</w>
re ward</w>
Par aly
fear ed</w>
Cath erine</w>
suspici on</w>
tr ains</w>
26 -year-old</w>
Don na</w>
bl ocks</w>
ma x
incre ases</w>
Techn ology</w>
adverti sing</w>
capac ity</w>
coll abor
ch at</w>
arch y</w>
poll ution</w>
er ce</w>
5 0-
ro ad
direc ted</w>
o a</w>
B et
B ad
rar ely</w>
an es</w>
Mar i
inform ed</w>
rum ors</w>
be er</w>
ne ts</w>
8 0,000</w>
A G</w>
T ar
R A</w>
m oms</w>
D zh
e ge</w>
osex uality</w>
et own</w>
og o</w>
s om
Wal sh</w>
Qu est</w>
accept able</w>
dr ops</w>
Bey once</w>
Columb ia</w>
re signed</w>
r he
S add
ordin ary</w>
bro ad</w>
loc ations</w>
Hon or</w>
challeng ed</w>
der ly</w>
Int elligence</w>
Chil d</w>
C oll
D s</w>
sa d
Hawai i</w>
Dzh ok
re actors</w>
compe ting</w>
+ </w>
i as</w>
nomin ee</w>
viol ations</w>
B ig
person ality</w>
6 3</w>
L ong</w>
ep tions</w>
9 8</w>
det ected</w>
la x</w>
7 6</w>
jo ining</w>
intern al</w>
du o</w>
pat ri
ick en</w>
h ire</w>
B au
fin ishing</w>
Pal ace</w>
Carn ival</w>
In form
co ins</w>
Serg io</w>
all- time</w>
anch or</w>
run ners</w>
B ran
Rol and</w>
Gu ardi
g t.</w>
teamm ate</w>
Commun ist</w>
S mall</w>
Lig a</w>
s ells</w>
li on-
sup posed</w>
de pres
teen ager</w>
Abdu l</w>
stre aming</w>
* </w>
min orities</w>
B all
m anned</w>
trou bles</w>
In cre
ph as
spot ted</w>
3r d</w>
cloth es</w>
her oes</w>
J ane</w>
om a</w>
ICE </w>
rec overing</w>
indic ted</w>
the aters</w>
Ch ang
l at
minist ers</w>
X i</w>
ke ys</w>
sle eping</w>
p ages</w>
s and
at em
Mar ines</w>
him ovic</w>
di gn
off ense</w>
att end
gr at
foc using</w>
Vot ers</w>
off shore</w>
as y</w>
Boli via</w>
inf ection</w>
or al</w>
sw ing</w>
succ essive</w>
R um
par king</w>
innoc ence</w>
ussi a</w>
har sh</w>
be aches</w>
demean or</w>
tre es</w>
C es
public ly</w>
Cy rus</w>
f ever</w>
audi ences</w>
an ticip
c in
nation ally</w>
r ated</w>
struggl es</w>
tr ainer</w>
N a</w>
A ut
celebr ations</w>
Ty phoon</w>
5 -year-old</w>
e ty</w>
rac ially</w>
sp ell</w>
Passeng ers</w>
stab bed</w>
Si x
n ight
AE G</w>
be st-
sugg ested</w>
simp ly</w>
K ay
Se a
d y
inti mid
Bash ar</w>
sa fer</w>
Pol itic
gl asses</w>
Victi m</w>
sub si
i Reporter</w>
sust ainable</w>
id an</w>
pp onents</w>
Am ster
fil es</w>
mour ning</w>
por tion</w>
ou sted</w>
w ed</w>
pass ing</w>
Rang el</w>
expan sion</w>
concer t</w>
Mod ern</w>
hij acked</w>
comple t
complet ely</w>
qu ez</w>
bo om</w>
id el
restr ic
t ops</w>
Pu er
lux ury</w>
ul ner
v ulner
ul ty</w>
7 0s</w>
A j
spec tac
b ag
cer tain
ou ri
d ancer</w>
resid ence</w>
C ain</w>
Whit ney</w>
gh tly</w>
clos es</w>
chec ked</w>
Ver izon</w>
s pl
Cab inet</w>
H ome</w>
ail ing</w>
af ter
K u
ati vity</w>
Gi b
struc tures</w>
L ing</w>
T own</w>
Be ach</w>
ah i</w>
Sch al
olog ies</w>
p oc
W on
Dam as
Damas cus</w>
199 0</w>
psych i
den oun
ad ding</w>
D ep
Wild life</w>
Bash ir</w>
D iv
ir t</w>
I sa
T an
fl u
e u</w>
langu ages</w>
M om</w>
viol ation</w>
dis appointed</w>
m ol
improv ed</w>
Tran spor
D et
un ted</w>
K o
T at
o- called</w>
Ch ange</w>
av o
Le on</w>
pur sue</w>
Ah med</w>
lo ad</w>
For est</w>
199 4</w>
Isl ands</w>
bas eball</w>
Ton ight</w>
sil ver</w>
Gon z
Al most</w>
respon ds</w>
ur ging</w>
Am ber</w>
Hos ni</w>
Rus sell</w>
op ing</w>
dis eases</w>
S gt.</w>
Carl o</w>
execu tions</w>
6 9</w>
Tor onto</w>
ep h
C o-
ve ts</w>
Don nell</w>
celeb ration</w>
fil ing</w>
Bal d
Bald win</w>
Moh amed</w>
Su u</w>
sor ry</w>
differ ences</w>
Mah m
laun ching</w>
ad ap
achi eve</w>
elec tor
bat tery</w>
recogn ized</w>
be k
Vietn am</w>
diver se</w>
Philli ps</w>
Mc G
Ben ed
cer ti
c ore</w>
invol ves</w>
mag n
ner- up</w>
run ner-up</w>
sav ings</w>
P opul
pain t</w>
Yem eni</w>
on au
Rel ig
O pponents</w>
Rw anda</w>
M ME</w>
rhe tor
rhetor ic</w>
att acking</w>
op ol
Car roll</w>
Per ez</w>
W TA</w>
entreprene urs</w>
Re ad
er mo</w>
IS AF</w>
Ar th
J ean</w>
5 2</w>
rec alled</w>
Ky i</w>
don ated</w>
hal t</w>
i ff
g a
t ino</w>
For ces</w>
cros s
foot ball
Rev ol
arg uments</w>
ob j
b one</w>
L G
pun ished</w>
innoc ent</w>
hum or</w>
k ick</w>
tran sparency</w>
bar s</w>
resi stance</w>
P el
distribu tion</w>
se iz
g angs</w>
M ass</w>
broad cast
Gr ace</w>
B aker</w>
P R</w>
M H
top ics</w>
Bla ir</w>
p light</w>
ha ul</w>
regul ators</w>
jud g
C had</w>
N am
e ans</w>
cont ain</w>
Sant os</w>
rememb ered</w>
indic ates</w>
Schal ke</w>
quarter final</w>
ipp ed</w>
Paraly mp
Holl and
O pen
Ch ap
conc ept</w>
ay a</w>
com edi
u g
je wel
pl enty</w>
Gu atem
G il
Z h
chem icals</w>
Exec utive</w>
domin ated</w>
Br and
Gir ls</w>
an- Americans</w>
un its</w>
G ates</w>
J in
chann el</w>
wh ale</w>
dis missed</w>
su n</w>
bomb ers</w>
E st
B ase</w>
propos als</w>
us al
t ings</w>
atmos phere</w>
tax i</w>
6 2</w>
Am b
S ov
torn adoes</w>
Fri ends</w>
h iring</w>
emerg ed</w>
5 0th</w>
succ e
d h
Du ch
mem ories</w>
ex tor
stu di
S eg
withdraw al</w>
I -
Pow ell</w>
K K</w>
tr ophy</w>
Cl ass
aim ing</w>
postp oned</w>
ran king</w>
Egyp ti
skep tical</w>
Bre wer</w>
high light</w>
con struc
A li
St adium</w>
Ll oyd</w>
Ibra himovic</w>
in stitu
De al</w>
mem or
vis ion</w>
vot er</w>
Sam uel</w>
Maj or</w>
h o
cont emporary</w>
jihad ist</w>
C li
E sp
em eter
patr ol</w>
atr a</w>
diver sity</w>
mur dered</w>
exp elled</w>
Air bus</w>
C ook</w>
l uck</w>
grad u
197 9</w>
as ure</w>
p he
Pot ter</w>
S lov
Mass a</w>
mid term</w>
dr aft</w>
s election</w>
de struction</w>
oph ob
Wri ter</w>
bri ef
Rom a</w>
insurg ents</w>
opti mis
optimis tic</w>
disa bled</w>
sil ent</w>
defe ated</w>
198 8</w>
lit er
ti ves</w>
Clin ic</w>
we i</w>
ch ain</w>
wor l
er ated</w>
cros sed</w>
t s
In st
re alize</w>
ie fs</w>
under water</w>
K in
Cap it
diff er</w>
shel ters</w>
p ack</w>
pros tit
6- 3</w>
U p
con cre
Hu go</w>
thu si
C le
pri ority</w>
D E
Egypti ans</w>
ad ly</w>
proced ure</w>
5 8</w>
car ries</w>
Osa ma</w>
E le
M au
op t</w>
qualifi er</w>
v an
M og
B erry</w>
sec tion</w>
E u
oc c
pic ally</w>
Hay es</w>
k able</w>
Per u</w>
b es
Ch arg
he im
t ary</w>
alleg ation</w>
S m
Car l</w>
eff icient</w>
col league</w>
lo ans</w>
Rud d</w>
C ar</w>
don ate</w>
- Prince</w>
T err
t ability</w>
bi partisan</w>
Nor we
t our
clim bed</w>
4 9
extre mism</w>
plan et</w>
ath y</w>
bo ards</w>
co aches</w>
arre ll</w>
i ques</w>
bu rial</w>
Venezuel an</w>
ut to</w>
lib eral</w>
ligh t
cont ains</w>
ac compl
B ing</w>
nomin ated</w>
jewel ry</w>
ri d
S cre
All -
t- au
Veter ans</w>
8 2</w>
pre serve</w>
pat tern</w>
Man h
Manh att
increas ing</w>
Let ter</w>
Arth ur</w>
Croati a</w>
C O</w>
T arg
1 2-
organiz ers</w>
the ft</w>
recomm ends</w>
Cor n
dec ides</w>
K un
le thal</w>
open er</w>
repe al</w>
rel ay</w>
e us</w>
em ark</w>
confl icts</w>
Liber ty</w>
shi p
Bor ussia</w>
dec l
main stream</w>
fl ash</w>
ig ned</w>
stere otyp
Kar achi</w>
am ents</w>
Ch en</w>
depend ent</w>
F at
it ar</w>
st ress</w>
econom ies</w>
6 -year-old</w>
techn ique</w>
hear ts</w>
wrong doing</w>
es ha
autis m</w>
bil ities</w>
ik h</w>
S ab
Surviv ors</w>
go al
af e</w>
mand ate</w>
h ar</w>
Tam il</w>
self- defense</w>
dr ones</w>
J arrett</w>
ver age</w>
sli des</w>
tr end</w>
on ics</w>
Congres sional</w>
ple dge</w>
tu ition</w>
ear t</w>
O S
b ell</w>
it z
Web ber</w>
LA PD</w>
L o
up coming</w>
oc cas
Kn ox</w>
hab i</w>
st ina</w>
cur b</w>
ot ti</w>
reti rement</w>
ti ght</w>
yn am
driv en</w>
T ens</w>
Petr a</w>
198 2</w>
swim ming</w>
abduc tion</w>
oz ni
ast er
G ill
wrec k</w>
sl er</w>
W he
ul p
en berg</w>
ven ess</w>
l an</w>
d el</w>
m ation</w>
dis order</w>
Man uel</w>
u ted</w>
Medic are</w>
M oun
Bened ict</w>
ret ali
di tion</w>
sil ence</w>
ur o</w>
M I
P irates</w>
phot ography</w>
un cle</w>
trigg er</w>
tra eus</w>
Pe traeus</w>
Col e</w>
t-au -Prince</w>
Rom an</w>
consist ent</w>
motor cycl
sh oot</w>
ch ose</w>
ra il
vit ova</w>
critic ally</w>
198 9</w>
aly p
LG BT</w>
M ol
tr acking</w>
it ated</w>
pot entially</w>
business man</w>
7 0,000</w>
Play Station</w>
D arren</w>
mid fielder</w>
ent- elect</w>
ph in</w>
bru tal</w>
Jer usal
Jerusal em</w>
uri s
Cri stina</w>
shar p
O pr
audi o</w>
col or</w>
gun ned</w>
M r.</w>
p e</w>
4 ,
vol ati
volati le</w>
Al z
weigh ed</w>
smart phone</w>
open ly</w>
tr ends</w>
bid ding</w>
8 -year-old</w>
squ are</w>
v et
C ell</w>
Bul ger</w>
dis closed</w>
Sour ces</w>
boo ked</w>
refer ee</w>
cap tive</w>
ac o</w>
Mon aco</w>
Chry sler</w>
L im
hol es</w>
Stev ens</w>
Blo omberg</w>
Th re
K vitova</w>
B h
promp ted</w>
val u
R ac
O C</w>
ro ots</w>
r af</w>
pros titution</w>
l acks</w>
Transpor tation</w>
cap able</w>
con om
arg ued</w>
pra ise</w>
frustr ated</w>
heim er</w>
Alz heimer</w>
v owed</w>
hon ors</w>
Soc iety</w>
inten se</w>
si ght</w>
T uc
a ides</w>
Con cor
Bab y</w>
e i</w>
car tels</w>
dec re
gu y</w>
prot ester</w>
Wil d</w>
sett led</w>
Cust oms</w>
S ome
D er
apolog ize</w>
ax y</w>
de grees</w>
assa ge</w>
prov ed</w>
Gal axy</w>
Tunis ia</w>
Mc Connell</w>
di abetes</w>
bish op</w>
hard son</w>
Ric hardson</w>
on able</w>
un constitutional</w>
J on</w>
W ozni
pre ven
5 00,000</w>
main ly</w>
4 00,000</w>
in ary</w>
em plo
ent e</w>
re viewing</w>
zen ship</w>
ep id
lif estyle</w>
high est-
F ree</w>
rec k
to il
amm ar</w>
E conom
Hugh es</w>
sla ves</w>
K ate</w>
cho ose</w>
C on</w>
Cat al
in ner</w>
pro hib
fle x
S ally</w>
T -
sl ammed</w>
happ ening</w>
gu est</w>
D ick</w>
defin ed</w>
compl ain</w>
Uygh urs</w>
B an</w>
Con tin
Reb els</w>
loc als</w>
har med</w>
citi zenship</w>
Amster dam</w>
separ ated</w>
Con n
18 -year-old</w>
ta g</w>
ha w
strong ly</w>
work place</w>
t ant</w>
Mali ki</w>
En gin
@ </w>
ta h</w>
B ond</w>
Er n
t sunami</w>
t y-
sharp ly</w>
gli mp
it ch
sear ches</w>
s ang</w>
emo tions</w>
nor theastern</w>
N is
be half</w>
Roll ing</w>
cig ar
Poll s</w>
compl ications</w>
ad equ
o tion</w>
J ust</w>
. J.</w>
Sur vey</w>
ab ad</w>
Im ages</w>
ann on</w>
recomm ended</w>
quot es</w>
Su n</w>
As s
w age</w>
fore igners</w>
loc ated</w>
eclip se</w>
K yle</w>
Wit nesses</w>
z oo</w>
Gl ass</w>
s inc
mater ials</w>
St ars</w>
Repor ters</w>
bon uses</w>
Pe ace</w>
Mem orial</w>
repres ents</w>
var iety</w>
Lead ing</w>
spec ul
clin ics</w>
ourn al</w>
n es</w>
Smar t</w>
eb </w>
sol utions</w>
rec y
R est
C ow
Pr oc
en roll
jum ped</w>
Mahm oud</w>
claim ing</w>
land mark</w>
pat ent</w>
i os</w>
Bar ca</w>
g ays</w>
cor respond
neighb ors</w>
plag ued</w>
L atest</w>
Ar ch
seas ons</w>
High -
S ent
er os
y ang</w>
Hann ah</w>
199 5</w>
atr oc
preced ented</w>
ell o</w>
Cl ashes</w>
parliam entary</w>
develop ers</w>
6 -1</w>
correc t</w>
19 -year-old</w>
A -
pir acy</w>
pil gri
W right</w>
cric ket</w>
I M
gener ally</w>
st aying</w>
ch ase</w>
dr ink</w>
el ements</w>
he alth
ad ish
Mog adish
Mogadish u</w>
ext ended</w>
hop ed</w>
Wor kers</w>
cr op</w>
concre te</w>
vill ages</w>
el ig
Inst agram</w>
rec ession</w>
reha bil
Ob serv
Ph oen
Ste en
Holland e</w>
Rod ger</w>
su es</w>
sur ed</w>
oc alyp
n ob
El vis</w>
nor theast</w>
mon y</w>
ail ers</w>
transf erred</w>
as sets</w>
propos es</w>
- in</w>
kn ock
We e
str ing</w>
piec es</w>
an ship</w>
Pr op
fl ames</w>
por n
eng agement</w>
loc ked</w>
ati </w>
la im
ran kings</w>
Shi ite</w>
L az
am as</w>
On ce</w>
fl ags</w>
n umerous</w>
success fully</w>
restric tions</w>
Ser ies</w>
list ening</w>
resol ved</w>
S imp
rad ical</w>
desig ners</w>
j ustices</w>
sa in</w>
anonym ous</w>
arriv al</w>
st ayed</w>
ograph ic</w>
D habi</w>
receiv es</w>
et z</w>
fu eling</w>
Por t-au-Prince</w>
O s
b oun
re pl
mus ical</w>
vacc ine</w>
li min
wor ries</w>
coast al</w>
fem in
mo tion</w>
e iro</w>
McL aren</w>
devast ating</w>
ir ty</w>
Gri ff
Steen kamp</w>
l ob
clos ing</w>
state- run</w>
trans gender</w>
C ob
si ege</w>
Af fordable</w>
defend ants</w>
pos sibility</w>
co al</w>
pre mier</w>
ev es</w>
H owever</w>
terri ble</w>
conver sations</w>
multi -
umb ent</w>
b ear
Rand y</w>
D H
S isi</w>
Mil lions</w>
grap h
con sec
rel atively</w>
atr ic</w>
Pakist anis</w>
Att acks</w>
L ane</w>
J urors</w>
cy cle</w>
p its</w>
cous in</w>
fiel ds</w>
pers onally</w>
bas is</w>
if y</w>
Ro oney</w>
draw ing</w>
it an</w>
driv es</w>
Col eman</w>
wat ches</w>
li ft</w>
Be at
Wi ki
Lit tle</w>
c atch</w>
Cel eb
Gr am
en voy</w>
shoot s</w>
app ly</w>
individ uals</w>
Ever ton</w>
P in
oppos ing</w>
al izing</w>
H ob
St ut
fac tion</w>
Fre edom</w>
ha ble</w>
Russi ans</w>
pois oning</w>
Par ker</w>
5 -0</w>
ti ming</w>
extor tion</w>
tox ic</w>
ann er</w>
d le-
ren e
H ook</w>
fe at
Hom eland</w>
H ood</w>
b ic
ind al</w>
bre ast</w>
per su
v e-
ec tors</w>
is m
bl ind
anti- government</w>
shor t-
low est</w>
Ben z
s son</w>
Med al</w>
Net fli
il ia</w>
R ig
afr aid</w>
s ers</w>
ach el</w>
om ed</w>
ent ally</w>
su le</w>
be d
we althy</w>
Gonz al
pro of</w>
mar sh
v a</w>
an ian</w>
ar ized</w>
C are</w>
em i</w>
igh </w>
p ill
celebr ated</w>
9 0s</w>
back l
w ound</w>
Wit ness</w>
ber ies</w>
M en
valu able</w>
co operate</w>
che aper</w>
surpri sing</w>
ru gby</w>
advent ure</w>
p ound</w>
£ </w>
p a
le ments</w>
be ef</w>
sti r
off -
ack i</w>
mur dering</w>
ov ich</w>
Lead er</w>
E FA</w>
por n</w>
attr act</w>
ess ors</w>
20 -year-old</w>
assoc iation</w>
militi a</w>
sub way</w>
fur t</w>
t ap
fi xing</w>
backl ash</w>
U ru
direc tion</w>
Me tr
i vi
chur ches</w>
cri tic</w>
j ev
el eph
br on
fit ness</w>
typ es</w>
con clusion</w>
consec utive</w>
K ash
W ade</w>
tg art</w>
predic ted</w>
un ite</w>
com promise</w>
est one</w>
Jan eiro</w>
cont ain
18 -
threat en</w>
Won der</w>
Pe w</w>
G at
re union</w>
War ning</w>
A m</w>
Am an
er en</w>
Spec ial</w>
ak i</w>
Stut tgart</w>
Puer to</w>
O R
K om
Educ ation</w>
amb ia</w>
or ous</w>
l ap
Di ana</w>
F ur
Cr ow
comm and</w>
ICE F</w>
dr ed</w>
man aged</w>
m ir</w>
Kash mir</w>
R achel</w>
fre y</w>
un precedented</w>
20 20</w>
n in
Dem onstr
v in
clim b</w>
re places</w>
aw a</w>
Sc outs</w>
cred its</w>
Manhatt an</w>
l ot
Jan et</w>
amb ers</w>
T ogo</w>
offen ses</w>
ter min
B ack</w>
constitu tion</w>
reli es</w>
WW II</w>
techn iques</w>
sent encing</w>
3 0s</w>
8 6</w>
M atch</w>
licen ses</w>
I t
commit ment</w>
him a</w>
insp ires</w>
s b
con g
U z
emeter y</w>
- related</w>
pre sti
pe ak</w>
Th i
stic k</w>
A i</w>
Mo ammar</w>
Cor ps</w>
Ang ola</w>
pris oned</w>
rele asing</w>
swit ch</w>
pri est</w>
5 3</w>
rec ip
t ail</w>
acc o</w>
won der</w>
limin ary</w>
Sol di
ind uc
un harmed</w>
is man</w>
p in</w>
inaug uration</w>
6 0,000</w>
S em
T en</w>
sponsor ship</w>
coll ected</w>
Tor res</w>
tain ted</w>
chr on
toler ated</w>
Indi ans</w>
per mit</w>
st ac
el i
bl oody</w>
w ich</w>
wh ist
car ing</w>
sli pped</w>
ple dges</w>
gre ement</w>
Kob ani</w>
Ful ler</w>
c ran
j usti
si mul
pol e</w>
me te
confron tation</w>
di ble</w>
de plo
bab ies</w>
cont ained</w>
sup er</w>
Ni k
Netfli x</w>
den ed</w>
epid emic</w>
Ne il</w>
1 2
at or
N ie
t arian</w>
f icial</w>
A R
k m</w>
d at
Z ak
u ts</w>
li est</w>
e try</w>
deploy ed</w>
h iding</w>
es ome</w>
jud icial</w>
2 n
Al though</w>
la under
Ibra him</w>
Kenne th</w>
inv ited</w>
conserv ation</w>
ment or</w>
mor ed</w>
sec ured</w>
25 th</w>
ro s</w>
NA S
five- year</w>
2 3-year-old</w>
new born</w>
scre en
al- Zawahiri</w>
Vie w</w>
14 -
Mal aga</w>
sh man</w>
pris oner</w>
Tran s
H assa
proc e
Br ooks</w>
min ing</w>
V I</w>
Sain t-
belie fs</w>
B o</w>
arm ac
knock out</w>
ro d</w>
star ring</w>
Ral ph</w>
Politic al</w>
arg ument</w>
vis a</w>
riv ers</w>
crow ds</w>
exerc ises</w>
Portu gu
ne e</w>
ty pically</w>
sh ame</w>
mid dle-
ce iling</w>
deton ated</w>
V it
eng er</w>
org ans</w>
U EFA</w>
Per si
rele v
ti ps</w>
H ub
D au
ec tor</w>
r ard</w>
Ger rard</w>
ul ti
rob beries</w>
wat er
re z</w>
Haiti an</w>
um p</w>
typ ical</w>
re n</w>
hom etown</w>
T own
C ros
susp end</w>
Norwe gian</w>
Frank furt</w>
vac ation</w>
indic ation</w>
Aman pour</w>
correspond ent</w>
tr ailer</w>
Ros si</w>
mid terms</w>
ar an
gu aran
over time</w>
spe aker</w>
m amm
Ethiop ia</w>
hor ses</w>
Ped ro</w>
Hassa n</w>
mar athon</w>
s oil</w>
Lad y</w>
renew ed</w>
Rec ent</w>
on ist</w>
par d
L og
Hun ger</w>
anc ell
dis plays</w>
Com pan
Compan ies</w>
E .</w>
scor er</w>
k on
t ough
Mal awi</w>
emb race</w>
f erry</w>
B oo
Offic ers</w>
at eral</w>
Sk y
explor es</w>
Bl atter</w>
weigh </w>
N ative</w>
friend ship</w>
regist ered</w>
subur ban</w>
Rou h
Rouh ani</w>
R ivers</w>
ple ased</w>
Y ah
Yah oo</w>
U A
Dre x
Kath erine</w>
agg reg
defend ant</w>
Net work</w>
author ized</w>
U tah</w>
Co ach</w>
15 -year-old</w>
S t</w>
righ t-
survi ving</w>
Mad uro</w>
acknowle dged</w>
ivi k</w>
Lev y</w>
Pe ter
arti ficial</w>
har der</w>
re build</w>
g aming</w>
Kh ali
w ic
Sum mer</w>
L au
Id ol</w>
Ram sey</w>
Ang el</w>
ris en</w>
ri ft</w>
N az
May er</w>
se al</w>
assi stance</w>
l ake</w>
set tle</w>
fr anch
commun icate</w>
run ner</w>
categ ories</w>
H ur
h at</w>
e up</w>
Bre ivik</w>
fire works</w>
expl odes</w>
fl own</w>
ear ns</w>
CA R</w>
4 6</w>
ri que</w>
Gab ri
Fi eld</w>
stand ings</w>
Dec ision</w>
govern ors</w>
Moun tain</w>
in mate</w>
K ah
gen e</w>
H ul
f ur</w>
prev enting</w>
ai k
fe t
eng age</w>
inten sive</w>
cler ic</w>
Tra vel
accid entally</w>
desig n
Hun gary</w>
three- year</w>
main land</w>
O z</w>
stun t</w>
pp ers</w>
sail ors</w>
L am
8 4</w>
h ockey</w>
v s.</w>
condem ned</w>
Or der</w>
har m
A L
paraly zed</w>
consu mption</w>
or ds</w>
j urors</w>
thr owing</w>
ex tra
st aged</w>
ph ase</w>
gr aves</w>
electr onic</w>
pal ace</w>
qu een</w>
F ind</w>
kidn ap</w>
I an</w>
In du
histor ical</w>
Hel p</w>
p assage</w>
le aked</w>
fa thers</w>
v ital</w>
preven ted</w>
Nic o</w>
tr uc
Bh utto</w>
assi sted</w>
s o-called</w>
tan ker</w>
Le aks</w>
D ark</w>
War ner</w>
mom ent
w eren</w>
re leg
observ ers</w>
in appropriate</w>
h oods</w>
neighbor hoods</w>
Nor way</w>
y von</w>
Tra yvon</w>
Sun ni</w>
replac ement</w>
sk i
ar ch</w>
Christ ina</w>
Bay er</w>
Sar a</w>
- like</w>
Ch uck</w>
u ous</w>
regul arly</w>
2 2-year-old</w>
ti p</w>
t ally</w>
nomin ations</w>
Mel issa</w>
congres sman</w>
Mu hamm
stun ning</w>
regul ation</w>
Soc i
Sel ma</w>
Hal f</w>
sl ams</w>
tack le</w>
def ending</w>
id av
bl u
gg ed</w>
K ids</w>
sac ked</w>
se ize</w>
1. 3</w>
reven ue</w>
diplom ats</w>
R at
Uru gu
reduc tion</w>
D ay
r ush</w>
Afric an-Americans</w>
re in
Ath le
fin es</w>
holid ays</w>
H as</w>
isol ated</w>
i an-
bir ds</w>
UN ICEF</w>
chr onic</w>
li brary</w>
mod ern
ren owned</w>
h ub</w>
bus y</w>
bre ath
th en
op -
swe eping</w>
remin der</w>
f le</w>
Victi ms</w>
U sing</w>
G os
hop eful</w>
A gr
st ays</w>
Mar a</w>
recogn ition</w>
en thusi
O ak
Leb anese</w>
spr ing</w>
Passeng er</w>
u prising</w>
Mar quez</w>
M oy
15 ,000</w>
un c
main tains</w>
et a</w>
exp anding</w>
Capit ol</w>
O ri
judg ment</w>
Angel ina</w>
rub ber</w>
grand children</w>
sal monella</w>
colleg es</w>
ju ven
C ase</w>
8 1</w>
under -
Bos nia</w>
cir cuit</w>
surpri sed</w>
e th</w>
Mon t
shut tle</w>
hand le</w>
appe aling</w>
11 th</w>
h ill</w>
competi tors</w>
eigh t-
Hay den</w>
Coun try</w>
King dom</w>
parti al</w>
canc ell
Pr ob
enroll ment</w>
B ale</w>
explos ives</w>
encour aged</w>
L un
tru ly</w>
CO 2</w>
A vi
hom eland</w>
volunte ers</w>
wat chdog</w>
J ett</w>
compl ained</w>
car eers</w>
y ings</w>
An a</w>
D el</w>
el ty</w>
f a</w>
Journal ist</w>
to ols</w>
p -
Ch an</w>
D own</w>
Wi fe</w>
p ays</w>
san ity</w>
t ear</w>
Lind say</w>
hab its</w>
Har t</w>
M eg
re mar
Sun der
Emerg ency</w>
un armed</w>
Res cu
ste aling</w>
pr on
wid ow</w>
Famil ies</w>
n av
adop ted</w>
Bil ly</w>
Champ ion</w>
aff ecting</w>
hal ted</w>
c oo
Rob </w>
2- 2</w>
Rober t
improv ements</w>
w oes</w>
Bah amas</w>
fin ement</w>
pr us</w>
Can did
Tal k</w>
k son</w>
hun dred</w>
El len</w>
os ity</w>
inspec tion</w>
b age</w>
Tat um</w>
it ely</w>
astr onau
separati st</w>
Cen sus</w>
mur ders</w>
Terr or
requ ests</w>
cont am
8 5</w>
elim inate</w>
Dep u
respon ding</w>
electr icity</w>
presti gious</w>
wan ting</w>
Cor p
a to</w>
F ernandez</w>
top ic</w>
Rob b
esti ve</w>
Gu ill
ici ency</w>
L ama</w>
A A</w>
ent age</w>
b arre
tiv ist</w>
import ance</w>
prot ective</w>
gri ev
surr ounded</w>
th ro
au ber</w>
tr y
techn ical</w>
re pair</w>
distr icts</w>
H istor
t asks</w>
196 1</w>
sol ar-
ir s</w>
an ie</w>
down town</w>
mo tive</w>
r ics</w>
launder ing</w>
per t</w>
im prison
Pan ama</w>
W id
autom atic</w>
nav al</w>
exam ine</w>
Charg es</w>
Def end
ow ski</w>
publ ish</w>
H op
D O
transi t</w>
buc ks</w>
star t
al er
3 7
exhib ition</w>
decl are</w>
R ay
in stru
e ased</w>
as signed</w>
investig ations</w>
Laz io</w>
H ut
g y</w>
Prop os
prot ections</w>
uri </w>
r ice</w>
Medic aid</w>
be an</w>
them es</w>
imple ment
R ain
gl am
L t.</w>
sp ur</w>
cr af
wal ks</w>
coll ect</w>
tre ating</w>
f ab
er- Man</w>
exc ell
J i
D an
Au thors</w>
E d</w>
R ab
M ac</w>
pri mar
kon en</w>
um ps</w>
Pro -
sm ok
tran sl
mis leading</w>
scand als</w>
b ath
str ict</w>
J .
app lied</w>
ak ia</w>
pr ince</w>
e ums</w>
initi atives</w>
accoun tability</w>
amp u
C C</w>
fil med</w>
Ro y</w>
Uz bek
counsel ing</w>
disp utes</w>
ic y</w>
wor e</w>
os i</w>
Ru pert</w>
L ever
orig in
Super man</w>
su d
expres sion</w>
sti g
S ne
sw ine</w>
legiti mate</w>
initi al</w>
Pol ish</w>
effecti vely</w>
L ak
9 -
Su le
em phas
ri a</w>
O f</w>
Ex tre
Tre at
execu tives</w>
bi ans</w>
resid ential</w>
Bri en</w>
down turn</w>
G a
Cra w
ch ez</w>
leg endary</w>
ac es</w>
Corp .</w>
Bir min
Birmin gham</w>
Fle ming</w>
L ist</w>
free ze</w>
Popul ar</w>
R and</w>
D anish</w>
Wal king</w>
se eds</w>
B it
Portugu ese</w>
insp ire</w>
Griff ith</w>
ud er</w>
ambiti ous</w>
ov ir
Gill ard</w>
Mis r
t une</w>
mit t</w>
tr uce</w>
Mor ris</w>
r on</w>
wi ves</w>
M ut
play off</w>
2n d</w>
Y our</w>
dru g-
desper ate</w>
cap </w>
eth ics</w>
mis demeanor</w>
horri fic</w>
super b</w>
part ly</w>
Mis sion</w>
b ow
Law suit</w>
pray ers</w>
E x</w>
three- day</w>
Ric a</w>
Uzbek istan</w>
g ard</w>
dem anding</w>
Pen insula</w>
Fr on
Concor dia</w>
ha ils</w>
No .1</w>
star red</w>
Fer din
hol ders</w>
acc es
cri f
sa crif
or -
Re g
acc use</w>
Lever kus
Leverkus en</w>
Fre d
zer o</w>
accoun table</w>
N ick
Law r
Ch o
B BC</w>
Car ol</w>
qu o</w>
1. 4</w>
he im</w>
cont aining</w>
Wi i</w>
run off</w>
emp ty</w>
emb ley</w>
R id
ob i</w>
t emp
U.S.- led</w>
P riv
St op</w>
A w
sm oo
hand led</w>
dis cre
Com ic-
in qu
Jeff s</w>
Par t</w>
ali ans</w>
addic tion</w>
sing ing</w>
t ang
me a</w>
Char ity</w>
Ac tivist</w>
ing o</w>
Inform ation</w>
Drex ler</w>
house hold</w>
inf ant</w>
Wiki Leaks</w>
s enti
P as
wa ited</w>
S wan
rich est</w>
og y</w>
inf ected</w>
C ateg
perc entage</w>
in sanity</w>
Dzhok har</w>
occ ur</w>
head lines</w>
S ir</w>
appo int
contr ast</w>
adv ance</w>
archit ecture</w>
Bal ti
Balti more</w>
R ap
Amb assador</w>
quarant ine</w>
de x</w>
st rain</w>
cr ying</w>
floo ded</w>
antibio tics</w>
Misr ata</w>
Phil ip</w>
t opped</w>
den ing</w>
tor um</w>
ch ap
Isa ac</w>
pos ting</w>
agr iculture</w>
football er</w>
Am anda</w>
r ab
pip eline</w>
kn ocked</w>
l ane</w>
ph y</w>
196 3</w>
demonstr ate</w>
pr ay</w>
f iction</w>
Cri minal</w>
Ox f
Oxf am</w>
l ord</w>
Tig ers</w>
tal ity</w>
ed -
rap ing</w>
air strike</w>
Phoen ix</w>
assoc iated</w>
ran som</w>
u k</w>
t d</w>
Al ber
An cel
Ancel otti</w>
purch ase</w>
bul lets</w>
T es
decor ated</w>
portra it</w>
S ite</w>
Je ws</w>
athle te</w>
Di ane</w>
h an</w>
addres ses</w>
Con sider</w>
Mar ie</w>
trans mission</w>
b os
Ne igh
T amp
tri ps</w>
lion- dollar</w>
Gr ay</w>
messa ging</w>
d ynam
197 1</w>
erg ate</w>
rel ess</w>
grand mother</w>
ch air</w>
pan els</w>
for th
R oss</w>
M as
Su icide</w>
atis tics</w>
re sts</w>
St ac
adequ ate</w>
UA E</w>
pre tty</w>
Shel l</w>
and an</w>
Mad onna</w>
the id</w>
repe at</w>
Every one</w>
jo ke</w>
Thom p
Thomp son</w>
gu ided</w>
thr ash</w>
oo s</w>
oper ates</w>
San chez</w>
nomin ees</w>
Bra d</w>
st aff
clu sively</w>
E D</w>
rem embers</w>
Col in</w>
wh it
Haiti ans</w>
at op</w>
Tamp a</w>
c ee</w>
Andre ws</w>
Ro ad</w>
W embley</w>
supp lier</w>
Bat man</w>
Class ic</w>
gen re</w>
8 -
u li
i et</w>
Champ ionships</w>
rad i
infr ing
G ene</w>
gol fer</w>
5 9</w>
le f
psych ological</w>
A guil
v enti
partn ership</w>
new est</w>
erg er</w>
o ch
Py ong
Town send</w>
Meh su
Mehsu d</w>
Tai wan</w>
M el</w>
d u</w>
Abd ul
bil lions</w>
a z</w>
compen sation</w>
el derly</w>
Ste in
et tes</w>
H off
ell es</w>
K al
bul lying</w>
un acceptable</w>
recru iting</w>
reduc ed</w>
hel l</w>
ri sky</w>
L ot
fru it</w>
I OC</w>
Re eva</w>
Sp id
Spid er-Man</w>
idav it</w>
b or</w>
Cy prus</w>
Stan ford</w>
oc ol</w>
Y ell
Fun d</w>
Tit anic</w>
T ell</w>
- led</w>
dr ome</w>
par ade</w>
meas les</w>
Previ ous</w>
Wee k
199 3</w>
Ad voc
imprison ment</w>
separati sts</w>
L and</w>
vis ible</w>
amp ton</w>
Open ing</w>
i bility</w>
poc ket</w>
roc ked</w>
G rant</w>
6 1</w>
short ages</w>
Ferdin and</w>
ex pos
Fil ner</w>
Rav i</w>
comp ound</w>
grand son</w>
C any
whist le-
whistle- bl
A M
9 9</w>
16 -year-old</w>
ramp age</w>
expl oring</w>
dict ator</w>
det ective</w>
198 1</w>
Mur phy</w>
lat an</w>
Z latan</w>
f ant
B ac
i ates</w>
dis pers
Europ a</w>
provinc es</w>
Par ini</w>
cap sule</w>
S auber</w>
T rad
fi xed</w>
inf ections</w>
Tr opical</w>
mar t</w>
extra ordinary</w>
two- thirds</w>
d oping</w>
campaig ning</w>
We ek</w>
Surviv or</w>
Sh oot
Wat ergate</w>
in ations</w>
2 50</w>
cab les</w>
ne gl
earth quakes</w>
contr actor</w>
San torum</w>
Duch ess</w>
Oper ation</w>
id al</w>
Cri mea</w>
emb assi
embassi es</w>
particip ate</w>
im prisoned</w>
suspen ds</w>
T odd</w>
out cry</w>
prop or
cre atures</w>
Bu ff
Sunder land</w>
every where</w>
pur pose</w>
destro y</w>
Mc A
i fe</w>
trad emark</w>
bil lionaire</w>
car di
Wozni acki</w>
Robert son</w>
cho ices</w>
suff icient</w>
Bur ke</w>
f ing
neighbor ing</w>
chen ko</w>
gl ac
form ally</w>
Pres ley</w>
D .</w>
Ch and
coll ective</w>
ex trad
mid night</w>
oper ative</w>
amaz ing</w>
Urugu ay</w>
neg lig
ob tained</w>
Ster ling</w>
th ank</w>
gren ades</w>
loc k
Sen ator</w>
Win frey</w>
cros ses</w>
short age</w>
second- degree</w>
b ases</w>
seiz ure</w>
man ip
Mar co</w>
Camp bell</w>
eval u
M S</w>
ic ks</w>
exc essive</w>
Tuc son</w>
franch ise</w>
le m</w>
10 3</w>
spiri tual</w>
wild life</w>
eng ine
In stitute</w>
mon th-
B obby</w>
ran g
par d</w>
h aps</w>
dign ity</w>
appro aches</w>
un s</w>
att ribu
con tested</w>
no tic
tri ple</w>
en zo</w>
dum ped</w>
Rul ing</w>
porn ography</w>
jo y</w>
b ears</w>
O range</w>
investig ator</w>
un usual</w>
ish a</w>
e Bay</w>
Re fug
is er</w>
3 D</w>
ful l-
sla ve</w>
Nie to</w>
restaur ants</w>
film maker</w>
pregn ancy</w>
v et</w>
G ig
appe aled</w>
st ops</w>
H an</w>
i ri</w>
ren der</w>
Du ke</w>
al ism</w>
invest ors</w>
Journal ists</w>
a ided</w>
r and
exam iner</w>
fac ulty</w>
Dau ghter</w>
tril lion</w>
h ag
in hab
form al</w>
bu ys</w>
A be</w>
photograph s</w>
i ence</w>
H u</w>
weigh ing</w>
two- year</w>
Bo ys</w>
ben ch</w>
NAS CAR</w>
elig ible</w>
simp le</w>
De pression</w>
attr acted</w>
196 0s</w>
Immigr ation</w>
tor n</w>
divor ce</w>
c z
vulner able</w>
cor rupt</w>
cur few</w>
In spec
le ton</w>
Pat riots</w>
hos tile</w>
Dal ai</w>
ex ac
I cel
own ership</w>
pri de</w>
schol ar
W a
gy m</w>
cl ed</w>
public ist</w>
mal aria</w>
1 30</w>
fle et</w>
rever se</w>
H S
k ing
Bor n</w>
batt led</w>
cran e</w>
noti ce</w>
sh oe</w>
K en</w>
urr ed</w>
se where</w>
gu st
a qu
N y
L ower</w>
ot ed</w>
Sain ts</w>
sc ious</w>
gam ers</w>
Q </w>
fe es</w>
l one</w>
int end
vo iced</w>
int ent</w>
Pyong yang</w>
F TC</w>
ar sen
M ir</w>
produc es</w>
Du gard</w>
frequ ently</w>
Ke ith</w>
I de
contribu ted</w>
H ak
mob il
air obi</w>
at tit
end ment</w>
min es</w>
F ro
f ence</w>
Pel osi</w>
Kh am
ivers al</w>
ay al</w>
29 -year-old</w>
Au thor
cour age</w>
tr ending</w>
establ ish</w>
14 -year-old</w>
industri es</w>
e ager</w>
0 -year-old</w>
requ i
2 7-year-old</w>
gl as</w>
Jay cee</w>
1, 300</w>
sp i
Az ar
assaul ting</w>
ook ie</w>
B ou
back ers</w>
al- Maliki</w>
nec k</w>
ov es</w>
tis anship</w>
ab used</w>
Au gust
sett lements</w>
sh ells</w>
succe eded</w>
198 3</w>
comm ented</w>
Vi enn
os tal
Oli ver</w>
p ar</w>
per si
o ked</w>
er ly</w>
in n</w>
gr u
prof iling</w>
under went</w>
crow ded</w>
il an
ab ase</w>
Scot tish</w>
Por t</w>
m ess</w>
reven ge</w>
deser ves</w>
Tri bu
cap tures</w>
ab les</w>
L atin</w>
spon sors</w>
oper a</w>
en ka</w>
viol ates</w>
em er
co- star</w>
Jos h</w>
cas u
ag ging</w>
S .</w>
St aff</w>
Presid ents</w>
roll er</w>
en emy</w>
Disc overy</w>
d ub
under cover</w>
air ing</w>
innov ative</w>
sp in</w>
10- man</w>
T ac
helicop ters</w>
al arm</w>
F ol
ch i
ro om
H o
sou thwest</w>
F ame</w>
ellig ent</w>
plan ets</w>
pir ing</w>
P ower</w>
re al-
Dem p
N H
Tah ri
13 -year-old</w>
tri als</w>
rout es</w>
ex changes</w>
Pat el</w>
N ow
ret ailers</w>
est ation</w>
id ity</w>
cab in</w>
Bud dh
at ol
anticip ated</w>
Dru g</w>
Pe ñ
She ikh</w>
Shi p</w>
recru it
Mu ch</w>
streng then</w>
c ite</w>
fl es</w>
vess els</w>
for cing</w>
- made</w>
Ari as</w>
ar es</w>
Sp ac
ecti ves</w>
Alleg ations</w>
L ight</w>
Azar enka</w>
Dou glas</w>
sn ip
oc cur
satis faction</w>
ment ally</w>
me chan
Demp sey</w>
h ash
id ly</w>
S id
En rique</w>
iz en</w>
pri x</w>
j er
ovir us</w>
o ol
9 00</w>
AC P</w>
Presid ential</w>
represent ing</w>
S now</w>
Be th
Sea World</w>
influ x</w>
wor sen
expec tations</w>
defe ating</w>
b right</w>
func tion</w>
cul t</w>
l o</w>
gr o
k ick
chron ic
glimp se</w>
ath i</w>
fl ame</w>
Frank el</w>
appear ing</w>
p on
J indal</w>
san itation</w>
su it
discipl ine</w>
d ose</w>
ess ment</w>
ass essment</w>
repl ica</w>
at ever</w>
i ums</w>
al lied</w>
dr un
anti- gay</w>
up held</w>
man uel</w>
Im ran</w>
inter viewed</w>
por ting</w>
b ands</w>
Ro x
Chil ean</w>
F att
par tic
C ould</w>
ste en</w>
for get</w>
ec ca</w>
se g
bi as</w>
B y
b and
N one</w>
comp ly</w>
leg s</w>
Gol d
R oc
t win</w>
ti ger</w>
pre caution</w>
pol ling</w>
a a</w>
in- law</w>
la v
acqu itted</w>
Bo dies</w>
mon archy</w>
bott les</w>
D ept
Dept .</w>
sh e
re signs</w>
L ub
r ic</w>
gr ass</w>
commun ication</w>
G M</w>
encour aging</w>
ri des</w>
PS G</w>
bun al</w>
G are
Gare th</w>
D V
psychi atric</w>
N O
sc are</w>
m ans</w>
Lawr ence</w>
ne um
F ashion</w>
D id</w>
E ri
depar ture</w>
advis ory</w>
aff airs</w>
in ts</w>
juven ile</w>
sla very</w>
6 ,
S ex
V ar
con clud
But ton</w>
ad options</w>
Islam ists</w>
forth coming</w>
lun ch</w>
ten ance</w>
entreprene ur</w>
inf eld</w>
ret ains</w>
leng th</w>
pr as</w>
b i</w>
Craw ford</w>
financ ing</w>
tow ns</w>
ch ner</w>
Foll ow</w>
T us
H oms</w>
N airobi</w>
re p</w>
ter ios</w>
D ob
Tw ent
Z et
ab sol
ostal g
in equality</w>
sa il</w>
l eck</w>
su preme</w>
n n</w>
Opr ah</w>
ic ker</w>
He ather</w>
M E
mod erate</w>
ve to</w>
w alls</w>
Rev ie
flex ible</w>
Y </w>
sh oul
inc enti
contr ac
destro ys</w>
bran ches</w>
Jos hua</w>
Napol i</w>
over shad
Mer edi
vill agers</w>
signific antly</w>
Pit t</w>
rel uc
Bo at</w>
Z oo</w>
B attle</w>
defin itely</w>
mil estone</w>
roc kets</w>
pun ched</w>
see kers</w>
sp o
ch ant</w>
super star</w>
up ta</w>
G upta</w>
9 -year-old</w>
ick y</w>
dol phin</w>
ell ers</w>
wel comes</w>
c ott</w>
law suits</w>
Bi ble</w>
or i
produc tive</w>
sh ops</w>
b ite</w>
u a</w>
end ang
f on
r ush
ti ff</w>
song writer</w>
Pi rel
Pirel li</w>
sli m</w>
inv ites</w>
nor mal
K har
con finement</w>
flo ating</w>
h acked</w>
un iver
min ds</w>
sla yings</w>
ref erred</w>
mo di
for ever</w>
wh is
hi king</w>
fun dra
z man</w>
ign ment</w>
el- Sisi</w>
Y es</w>
er ty</w>
Extre me</w>
int elligent</w>
di an</w>
laim ed</w>
s men</w>
Spr ing
L es
mar keting</w>
negoti ating</w>
k h</w>
Si kh</w>
R I</w>
C aff
Phot ographer</w>
fi ance</w>
hum ble</w>
Res c
Resc ue</w>
ceas e
cease fire</w>
gen ous</w>
appear ances</w>
Pear l</w>
tr ak</w>
p in
ab y</w>
uck aby</w>
H uckaby</w>
9 1</w>
Kah n</w>
Ram i
forec los
un covered</w>
bur ns</w>
ten se</w>
re it
in di
day light</w>
198 5</w>
Soldi ers</w>
light ning</w>
la d</w>
t led</w>
ne ur
R aik
dis par
esha war</w>
P eshawar</w>
Ir on</w>
pic ks</w>
In j
C ast
cap s</w>
Mi k
Syri ans</w>
Ab raham</w>
sch eme</w>
King ston</w>
teen agers</w>
kus hima</w>
Fu kushima</w>
str y</w>
p ap
b ian</w>
G o</w>
en rich
all est</w>
g aining</w>
connec tions</w>
Am trak</w>
Ch all
gr oc
dec om
ste ad
presid ency</w>
gr ows</w>
def ended</w>
e- up</w>
Raik konen</w>
soc i
ay ashi</w>
Kob ayashi</w>
Acc ording</w>
casu al
A 3
19 0
ob ally</w>
Saf ety</w>
taxpay er</w>
G aga</w>
gar age</w>
pre serv
Fran co
U NE
UNE S
UNES CO</w>
extrad ited</w>
fu eled</w>
6 .
mos t-
H as
Bu re
Bure au</w>
w ishes</w>
perc eived</w>
iz za</w>
c ave</w>
b uses</w>
O S</w>
hear ings</w>
Ass ange</w>
P ati
th an
ic ist</w>
For bes</w>
thr own</w>
occur s</w>
gener ous</w>
hu mil
Sal es</w>
ec raft</w>
Lib yans</w>
mil k</w>
Sen eg
Meredi th</w>
ur ani
urani um</w>
sc he</w>
any where</w>
bo asts</w>
re ign</w>
Pa ul
Mon ey</w>
du ties</w>
spe akers</w>
critic izing</w>
Commun ity</w>
pr ic
U td</w>
explor ation</w>
Pla yer</w>
Con sumers</w>
co- pilot</w>
Def terios</w>
L arg
bit ter</w>
cli ents</w>
deal ers</w>
x es</w>
Cos t
10 th</w>
pol </w>
S iro</w>
I l</w>
journal ism</w>
oper ator</w>
p neum
pic king</w>
Ash ton</w>
attr actions</w>
ing re
ingre di
eth ical</w>
Jack ie</w>
Mc Chry
McChry stal</w>
end angered</w>
ist er</w>
ig ning</w>
uri osity</w>
i k</w>
G ive</w>
st ems</w>
con vention</w>
prov oc
broad er</w>
d owns</w>
max imum</w>
May weather</w>
harm ful</w>
det ail</w>
Row e</w>
Lu ther</w>
AC OR
ACOR N</w>
victi m
es cor
- off</w>
rail way</w>
Ma o
Al ert</w>
shi pping</w>
c ock
Rem ains</w>
c ook</w>
az z
ophob ic</w>
NA ACP</w>
b ank
hang ing</w>
T ut
div ide</w>
Ch i
H ank</w>
r over</w>
high way</w>
cy ber</w>
st al
bic y
3 3-year-old</w>
ill icit</w>
Jo el</w>
treat ments</w>
Clar kson</w>
ag e-
O il</w>
Tro ops</w>
hom osexuality</w>
er man</w>
Re eves</w>
it ations</w>
G old</w>
addi tion</w>
en ter
Bl ake</w>
urr ing</w>
job less</w>
p act</w>
Har vey</w>
Mar cus</w>
en os</w>
E to</w>
stat ue</w>
con sent</w>
Arm en
em be
th western</w>
on i</w>
Ev an</w>
Zak aria</w>
ha unted</w>
S ah
Ang ela</w>
per pe
E p
po et</w>
p our
b ills</w>
Patr ol</w>
dead liest</w>
hear s</w>
equ ally</w>
sw ana</w>
Bot swana</w>
tro oper</w>
fast -
aggreg ate</w>
oc </w>
C ad
alth ough</w>
bul lied</w>
accoun ted</w>
all erg
emb ly</w>
p p</w>
7- 6</w>
pilgri ms</w>
solar- powered</w>
dre ams</w>
IC C</w>
marri ages</w>
Bol t</w>
answ ered</w>
ac ad
om o</w>
im pl
K as
se ism
ra d</w>
Con rad</w>
ar ts</w>
sc ulp
Depu ty</w>
Mit ch</w>
Angel ou</w>
fair ly</w>
explos ions</w>
oper ated</w>
b anning</w>
diam ond</w>
ri eu</w>
Land rieu</w>
famil i
de en</w>
Nor theast</w>
Fed Ex</w>
l oyal</w>
nutri tion</w>
gam bling</w>
Targ et</w>
l berg</w>
ob el</w>
apol is</w>
produc ers</w>
hang ed</w>
clim bs</w>
iv al
demonstr ation</w>
es a</w>
main tained</w>
k nee</w>
T reas
v o</w>
B uck
au t
at riot</w>
comp atriot</w>
l en
st range</w>
G od
esh a</w>
b ye</w>
C D</w>
sid y</w>
pray er</w>
ow -
Br enn
Brenn an</w>
Ke ys</w>
ir ts</w>
th- century</w>
di er</w>
copy right</w>
over turned</w>
road side</w>
quarter back</w>
th od
worl d-
re conc
an air</w>
k ar
hous ed</w>
mem o</w>
G mail</w>
her itage</w>
manufactur er</w>
con sen
McA fee</w>
Jin ping</w>
ser ial</w>
pl otting</w>
Ger main</w>
K aka</w>
Ar med</w>
inten si
Investig ation</w>
shoot out</w>
in ter</w>
Zh ou</w>
til ity</w>
Gre g</w>
electr onics</w>
fu ge</w>
Wal mart</w>
fu sion</w>
tili ties</w>
Bri ton</w>
w ick</w>
s on
dem anded</w>
ff s</w>
MH 370</w>
gr ass
G all
four th-
T ic
O z
op f</w>
k opf</w>
Rev .</w>
R .</w>
bron ze</w>
e- scale</w>
ball ot</w>
we b</w>
H at
uri ous</w>
a ica</w>
Jam aica</w>
err ing</w>
t ap</w>
Hil ton</w>
resc u
anc he</w>
n ian</w>
Stra us
od ed</w>
B anks</w>
Muhamm ad</w>
jack pot</w>
Maj ority</w>
goal keeper</w>
b adly</w>
an x
c ode</w>
bau m</w>
L ion</w>
Foun der</w>
fle eing</w>
o z</w>
doub ts</w>
f amed</w>
Stat ue</w>
main tenance</w>
pron oun
bul let</w>
sh ine</w>
Hondur an</w>
sl ot</w>
a ult</w>
Afric ans</w>
outr aged</w>
Ric o</w>
ha il</w>
Rec ords</w>
arra igned</w>
Bus ch</w>
w are</w>
yp e</w>
b old</w>
m arg
ong -
z omb
det ect</w>
let te</w>
matt ers</w>
Mar vel</w>
20 th</w>
Con su
mir acle</w>
Wal ter</w>
Et an</w>
Qaed a-
anim ation</w>
d ust</w>
res earcher</w>
po etry</w>
dis miss</w>
M arg
critic ize</w>
newsp apers</w>
certain ty</w>
divis ions</w>
teamm ates</w>
Comm and</w>
hand cu
sec rets</w>
assa ults</w>
Mont ana</w>
K or
oppos es</w>
di min
H ist
Hist ory</w>
Milit ants</w>
Po int</w>
every body</w>
r amp</w>
Com plain
,0 00-
inter nationally</w>
m emb
exhib it</w>
p astor</w>
M W</w>
B MW</w>
Del aware</w>
rec re
gr ounded</w>
Bu enos</w>
G- 20</w>
Dar fur</w>
H ij
out ages</w>
Be au
conf essed</w>
ru mored</w>
part ners</w>
th y
Pol l</w>
meas ured</w>
H eart</w>
Benz ema</w>
A deb
horr or</w>
ri an</w>
Develop ment</w>
bor ders</w>
Ber mud
in stein</w>
er ent</w>
re views</w>
may be</w>
m and</w>
ap ocalyp
tou ch
canc el</w>
al liance</w>
con stant</w>
expos ure</w>
indic tment</w>
ann ually</w>
Aff leck</w>
sl og
n uns</w>
it ure</w>
Par agu
Paragu ay</w>
nur sing</w>
adv ances</w>
ass ing</w>
pre h
sa ves</w>
h op</w>
spokes person</w>
celebri ty</w>
administr ative</w>
Dream liner</w>
Mar ri
An ne</w>
Rober to</w>
1. 7</w>
par ent</w>
Mor oc
e over</w>
e .
Cany on</w>
feat uring</w>
Frank lin</w>
mand atory</w>
any e</w>
identi fies</w>
Smar t
con scious</w>
b og
life- threatening</w>
enjo ys</w>
haw ks</w>
Mun oz</w>
Al liance</w>
u pper</w>
sc ram
des ire</w>
sail or</w>
prov isions</w>
m atic</w>
celebri ties</w>
Soc cer</w>
Sadd am</w>
lif ts</w>
pir ate</w>
replac ing</w>
con centr
oo ding</w>
Se infeld</w>
n aming</w>
c ops</w>
avi er</w>
la st
i OS</w>
1 40</w>
t ens</w>
it ch</w>
ti pping</w>
Yell ow
C a
Wor k
25 -
oper ational</w>
L ost</w>
oun d-
n avi
ex- wife</w>
k an</w>
K le
M anc
eb ody</w>
Brand on</w>
Hun t</w>
of s</w>
min ent</w>
Straus s-
ver sions</w>
SEA L</w>
Metr opol
199 1</w>
Gar ri
Slov akia</w>
Ch ambers</w>
Ty son</w>
cul tures</w>
P ir
T em
ph r
tr ine</w>
chap ter</w>
Veter an</w>
inf all</w>
att ending</w>
tur bul
im port</w>
y der</w>
opp ers</w>
Car ter</w>
Win ner</w>
M otor
Wind sor</w>
h all</w>
anc ou
V ancou
har raf</w>
tor ial</w>
dist inc
gar bage</w>
le an</w>
ed oms</w>
mon itor</w>
ulti mat
Web b</w>
recru ited</w>
in ely</w>
Larg est</w>
inter ested</w>
cr yp
T ower</w>
T ong
G B</w>
wh el
lov ing</w>
h at
Vis itors</w>
Aj ax</w>
acces sible</w>
197 6</w>
v als</w>
en on</w>
up scale</w>
sk ins</w>
attr acts</w>
gr ay</w>
Sh annon</w>
f ati
one- year</w>
ap est</w>
co ord
Mid west</w>
discipl inary</w>
Car rie</w>
rel oc
at orial</w>
She en</w>
Me yers</w>
mean ing
d irty</w>
Pr ov
Ever est</w>
Stu dies</w>
sec t</w>
atroc ities</w>
I ce</w>
Bri t
9 0
Ru gby</w>
B ap
St ory</w>
F ish</w>
Franco is</w>
t ful</w>
oc a
represent atives</w>
ain a</w>
He at</w>
Iraq is</w>
m oil</w>
ex clusively</w>
TE D</w>
preh ended</w>
u plo
Hoff man</w>
A verage</w>
T oo
cop ies</w>
dr ill</w>
Travel ers</w>
Min ne
requi rem
Aff airs</w>
ri fle</w>
life time</w>
Tribu te</w>
dis pen
Author ity</w>
s ement</w>
bl own</w>
provinc ial</w>
col li
shif ted</w>
Le gal</w>
un manned</w>
ann ers</w>
r in
s oft</w>
coun ted</w>
ic ting</w>
Catal onia</w>
ra w</w>
inter ven
arre al</w>
Garri do</w>
Vir g
ancell or</w>
stri king</w>
ly rics</w>
val ued</w>
t rem
grab bed</w>
migr ants</w>
foot -
weigh s</w>
15 0,000</w>
M all
distribu ted</w>
n ard</w>
t allest</w>
S obel</w>
en g</w>
competi tor</w>
P ena</w>
certi f
Th ings</w>
ver sus</w>
reg arded</w>
swe et</w>
certif icate</w>
Lis bon</w>
Cre w</w>
k owski</w>
ri gging</w>
f illing</w>
an ovic</w>
Iv anovic</w>
loc ks</w>
v ation</w>
ar son</w>
Shin aw
li ked</w>
on c
min im
prot ecting</w>
mem o
N ation</w>
indi genous</w>
d ow
W az
gr ac
in struc
ri der</w>
ren ker</w>
Ko ch</w>
m acy</w>
T ake</w>
N ou</w>
w rap</w>
es hi
Mar ad
Ry anair</w>
re d
A greement</w>
sh y</w>
sol e</w>
lin ers</w>
tre as
A war
sinc ere</w>
not ed</w>
tr ash</w>
tem por
step ping</w>
F ou
O t
au tob
venti l
sur ge</w>
Andre a</w>
retali ation</w>
mal icious</w>
gr aft</w>
3 4-year-old</w>
tot ally</w>
tin ez</w>
Hol oca
pre liminary</w>
shar p</w>
te aches</w>
spr int</w>
res em
z ania</w>
de voted</w>
Indu stry</w>
c ook
li ver</w>
c ot
Fin land</w>
effecti veness</w>
E ff
Kom is
9 6</w>
dam aging</w>
Fatt ah</w>
ar re</w>
bo arding</w>
ou ting</w>
feed ing</w>
ex port</w>
breath ing</w>
thr iller</w>
Sn yder</w>
t elec
Dem s</w>
manufactur ers</w>
O os
educ ate</w>
bri ef</w>
bau gh</w>
bor o</w>
Sy n
desig ns</w>
. W.</w>
inn ers</w>
Mul len</w>
Lead ership</w>
r ati
Bermud a</w>
S ep
Z um
f oster</w>
W ars</w>
Arab ian</w>
under going</w>
improv ement</w>
Jo an</w>
as c
b ids</w>
197 4</w>
R aul</w>
clos ely</w>
Ros berg</w>
6 0
amb ul
al- Bashir</w>
wild fires</w>
ex am</w>
Bl u
Cl ash</w>
vig il</w>
H eb
H it
L ank
et ly</w>
err </w>
b ow</w>
spr aw
P op</w>
ve illance</w>
Consu mer</w>
stamp s</w>
Sh ir
R -
don or</w>
prostit utes</w>
le ch
suff er
Pr om
ap e
est er
Cap ital</w>
un expected</w>
en om
Ar e</w>
contr acts</w>
appoin ting</w>
co ol
ak en</w>
L ag
assi on
15 th</w>
spac ecraft</w>
recor ders</w>
F i</w>
re bu
yl l
govern ment
Mar tha</w>
Red dit</w>
ann es</w>
duc k</w>
si gh
box er</w>
C our
purch ased</w>
ar jev
N u
cru elty</w>
t ong
bl ings</w>
stereotyp es</w>
Strauss- Kahn</w>
ber ry</w>
m outh</w>
Rami rez</w>
autob i
testi mony</w>
ol ese</w>
promot ed</w>
em or
. 0
desc ent</w>
Hit ler</w>
Electr ic</w>
fl ash
9 7</w>
with drawn</w>
tur moil</w>
Tru e</w>
strateg ic</w>
ran k</w>
fire fighter</w>
- Z</w>
T ol
y elled</w>
con dol
condol ences</w>
ograp h</w>
Sch renker</w>
s ic</w>
pre val
gu idel
W ounded</w>
bu b
Mod el</w>
J acqu
iz arre</w>
El li
n as
thr illed</w>
Rox anne</w>
il iation</w>
reconc iliation</w>
spe e
lap top</w>
j ub
con grat
congrat ul
spar k</w>
Sne de
Snede ker</w>
M ail</w>
g est
relev ant</w>
sl ist</w>
ig slist</w>
Cra igslist</w>
deliver y</w>
V inc
Sh ev
Tom my</w>
bl an
Sy stem</w>
enjo y</w>
ol d-
intenti onally</w>
toil et</w>
scar ce</w>
Red skins</w>
them ed</w>
Holoca ust</w>
Nig er</w>
M ous
tor ia</w>
comedi an</w>
d t</w>
q a</w>
tou ched</w>
separ ation</w>
toler ance</w>
bl ood
os is</w>
w l</w>
Mar tinez</w>
remar kable</w>
a unt</w>
Kle in</w>
fol ded</w>
ful fill</w>
It alians</w>
sc ot</w>
as ti
Di sa
ing le</w>
B ank
dest inations</w>
r ings</w>
Schwar tz</w>
Sim il
conv inc
ad or
Vot ing</w>
pr osecut
Ken yans</w>
v end
lim iting</w>
car pet</w>
li ghter</w>
cre ativity</w>
g or
st atistics</w>
r oughly</w>
fil ming</w>
T oo</w>
aggres sive</w>
del ivers</w>
magn it
reg im
Sher rod</w>
V ogue</w>
boy cott</w>
ri ders</w>
Confed erate</w>
nob ody</w>
deleg ates</w>
ar t
Pal m</w>
releg ation</w>
comm od
N ot
uc c
p ill</w>
yn ski</w>
15 49</w>
N olen</w>
K agan</w>
Celeb ri
l od
Pot ro</w>
fu els</w>
origin ally</w>
h atr
hatr ed</w>
b ust</w>
D ha
Fly nn</w>
u tionary</w>
d or
compl icated</w>
in s
O din</w>
cre ators</w>
confir mation</w>
eu than
ing itis</w>
reas onable</w>
pion age</w>
es pionage</w>
Fed s</w>
Revol ution</w>
de posed</w>
rog ue</w>
AL S</w>
clos ures</w>
inter cep
ary- general</w>
secret ary-general</w>
gr ace</w>
Wy oming</w>
half way</w>
Mar c
dr inks</w>
Al bert</w>
su gar</w>
re opens</w>
In dependent</w>
m aster</w>
opp y</w>
web sites</w>
ac re</w>
trium ph
A scot</w>
Bus iness</w>
les bian</w>
promot es</w>
pro jected</w>
der ailed</w>
roc ks</w>
ill o</w>
sw ap</w>
lev en</w>
C ris
assa il
stor med</w>
f eds</w>
ti m
Sur veillance</w>
employ ed</w>
boo k
Di dier</w>
ann el</w>
g rid</w>
v ent</w>
tob acco</w>
De a
Dea ths</w>
nor m
M ach
E leven</w>
m its</w>
apprec iate</w>
w rest
K ol
G ore</w>
perc eptions</w>
i di</w>
tal e</w>
gol den</w>
Feder ation</w>
memb ership</w>
ut ely</w>
H Q</w>
high- tech</w>
e e
inter pre
for c
R ally</w>
7 50</w>
S anti
Z ambia</w>
ph enom
phenom enon</w>
J et</w>
w ire</w>
de fault</w>
trans formed</w>
ble w</w>
Black burn</w>
st om
battle field</w>
Mon fil
propor tion
spraw ling</w>
ok es</w>
w is
un ition</w>
amm unition</w>
thod ox</w>
p ut
sk y
dr a</w>
ob stac
obstac les</w>
perform ing</w>
Shinaw atra</w>
rehabil itation</w>
En tertainment</w>
p ick
c ats</w>
197 3</w>
grad ed</w>
acc ess
U N</w>
Con c
Ne ither</w>
D ig
g en</w>
May a</w>
sor ship</w>
all ing</w>
port ation</w>
og s</w>
erup tion</w>
Engl ish
ster ious</w>
sanc tioned</w>
C oc
DE A</w>
os henko</w>
Por oshenko</w>
en tertainment</w>
Buff ett</w>
sol id</w>
Hel mand</w>
gall ery</w>
S ox</w>
stor ed</w>
C T
thy ro
Marad ona</w>
ra ids</w>
groc ery</w>
iev es</w>
Monfil s</w>
gen etic</w>
A uck
Auck land</w>
bu m
pain tings</w>
restr ict</w>
pr ol
hot test</w>
near -
ex ile</w>
Ric h
ap prehended</w>
institu tions</w>
HS BC</w>
NY C</w>
el abor
M att
he igh
dis misses</w>
insurg ency</w>
Comic- Con</w>
oo th
ne u
1 1,000</w>
Produc tion</w>
symp athy</w>
encour ages</w>
0 -0</w>
cor por
un beaten</w>
pain ful</w>
NY </w>
uk ovich</w>
Yan ukovich</w>
st y
fac tions</w>
ern ity</w>
et tino</w>
Sch ettino</w>
restra int</w>
M oss</w>
M Z</w>
P ress</w>
sk ull</w>
Y ale</w>
P ad
ML B</w>
par tisanship</w>
eg gs</w>
Shev chenko</w>
Il l
Advoc ates</w>
ass ist</w>
swi m</w>
as ide</w>
I dah
ov an</w>
7- 5</w>
t att
Broad way</w>
land fall</w>
contain ment</w>
Simp son</w>
El ena</w>
em ail</w>
preval ent</w>
T ax
eshi ft</w>
N in
rem ained</w>
ate ur</w>
fu ri
Tut u</w>
P eg
let ting</w>
Hill s</w>
hos ting</w>
la ys</w>
Mis s</w>
T ests</w>
tou m</w>
Gar d
g olds</w>
particip ants</w>
under go</w>
bas ement</w>
fre edoms</w>
inv itation</w>
cont ext</w>
ev ed</w>
nur ses</w>
sched ule</w>
Jay -Z</w>
Ry der</w>
20 22</w>
sh ower</w>
pneum onia</w>
qui etly</w>
resp ir
Kri st
per ing</w>
Vill arreal</w>
well- known</w>
cr ude</w>
dis h
advis ers</w>
R aw
truc ks</w>
heigh tened</w>
s inking</w>
Sp urs</w>
vot e-
larg e-scale</w>
we ir
Cur tis</w>
command ers</w>
el sewhere</w>
health ier</w>
Some times</w>
ti fy</w>
Mor ales</w>
K anye</w>
inte gri
integri ty</w>
c ab</w>
8 3</w>
mist akes</w>
é </w>
b ites</w>
St oke</w>
U sers</w>
mus eums</w>
M ain
cler k</w>
k ri
Bet ween</w>
ad mit</w>
. 6</w>
h ide</w>
dram atically</w>
iP ads</w>
sor t</w>
scrip tion</w>
ati zed</w>
Tun es</w>
i Tunes</w>
cont acted</w>
Wi -
a be
confron ted</w>
tempor arily</w>
25 -year-old</w>
Bec k</w>
rom ance</w>
prov iders</w>
Lar ge</w>
volunte er</w>
Ath ens</w>
Whit ey</w>
Li brary</w>
Mon te</w>
R oughly</w>
- action</w>
ov en</w>
disc our
sen sation</w>
Hen ning</w>
arjev sky</w>
l ung</w>
tro op</w>
bur gh</w>
emb arr
Car ey</w>
Qu e
mel t
uni forms</w>
ter man</w>
stre ak</w>
gall ons</w>
noti fied</w>
F arm
t ears</w>
Ur ry</w>
Ay man</w>
Israel is</w>
pion e
orph an
au gh
infl ation</w>
19 30s</w>
trad ing</w>
colum n
w ashed</w>
conver ted</w>
gu itar</w>
m ill
fri ed</w>
est ranged</w>
G lo
X X
coun try
vic tories</w>
comm ent
Sov iet</w>
Ben f
Ly on</w>
thr one</w>
Alger ia</w>
On line</w>
Str ateg
appl ication</w>
er ie</w>
destro ying</w>
Bl as
ap art</w>
sh irt</w>
scar ed</w>
Fl ooding</w>
p y
sal ary</w>
Categ ory</w>
st anti
att ached</w>
dec ries</w>
12 th</w>
negoti ated</w>
mus icians</w>
F IA</w>
Rel ief</w>
Alex is</w>
Vienn a</w>
Rel atives</w>
st ap
Luc as</w>
merg ed</w>
im minent</w>
R ich</w>
Com ple
l an
exist ing</w>
Gu zman</w>
col ors</w>
i Reporters</w>
des ert</w>
Lor enzo</w>
C Ds</w>
defen sive</w>
n ar
Har v
pro x
doc trine</w>
Sw at</w>
N un
subur b</w>
sur passed</w>
Amaz ing</w>
ba ij
spee ches</w>
Or land
Orland o</w>
Res er
Iv an</w>
shar ks</w>
cent rist</w>
D ol
cra zy</w>
government -
Luc y</w>
Domin ic
Dow ney</w>
Komis arjevsky</w>
disa sters</w>
M agn
bid der</w>
in hua</w>
X inhua</w>
im m
ref using</w>
f oul</w>
fac tors</w>
Tan zania</w>
Tha k
Thak sin</w>
new s
aut onom
lun ar</w>
Sil ver</w>
Z ach</w>
le ak</w>
Vancou ver</w>
p a</w>
Bel gian</w>
pri orities</w>
Row ling</w>
m ood</w>
W ang</w>
201 8</w>
bri dges</w>
requirem ents</w>
Tenn is</w>
bu gs</w>
Ur ban</w>
M ad</w>
exc ited</w>
sal t</w>
Gu ang
prov en</w>
second- placed</w>
bag bo</w>
G bagbo</w>
P un
Fif ty</w>
leg alization</w>
Rou ge</w>
tar io</w>
On tario</w>
stand -up</w>
c op</w>
re tain</w>
sli ghtly</w>
missi on
Bau er</w>
n one</w>
pl um
bot tle</w>
disc overs</w>
j i</w>
bes et</w>
sc rap
ref use</w>
fav ors</w>
Re ed</w>
aff idavit</w>
tern al</w>
pain ted</w>
E y
Idah o</w>
Hay e</w>
ster oid</w>
P age</w>
Spac e
s essions</w>
condem n</w>
N C</w>
end ered</w>
meth od</w>
Tahri r</w>
ab usive</w>
Refug ee</w>
gre ed</w>
Wh ere</w>
clear ly</w>
Sus pects</w>
s ely</w>
ti gh
Te a</w>
E mil
rescu ers</w>
r ing
four- year</w>
law ed</w>
champ ionships</w>
elector al</w>
est ration</w>
Res earcher</w>
w ages</w>
exten sion</w>
Rescu ers</w>
Priv ate</w>
Gr amm
D ad</w>
Wat son</w>
photograph ed</w>
s ick
or able</w>
guidel ines</w>
ra infall</w>
C annes</w>
U.S </w>
n ose</w>
3 2-year-old</w>
teen age</w>
1 2-year-old</w>
im mun
Caff erty</w>
g arian</w>
Pl an
er ates</w>
Dun can</w>
oo ke</w>
Vic tory</w>
n ouri
war fare</w>
m ons</w>
Valent ino</w>
tu </w>
tack ling</w>
mean ing</w>
Ger mans</w>
Swan sea</w>
tion ally</w>
r ential</w>
M anny</w>
Simil ar</w>
un accounted</w>
en counter</w>
8 9</w>
San aa</w>
gr ants</w>
form erly</w>
eg g</w>
J ud
ill nesses</w>
st opping</w>
popul ations</w>
Boy le</w>
A ires</w>
strong est</w>
advis ed</w>
L ord</w>
reg ained</w>
sp aw
d ire</w>
Yellow stone</w>
B orders</w>
stat e
reg rets</w>
mak eshift</w>
Tra vel</w>
sk ip</w>
mat ure</w>
n an</w>
Vo ice</w>
P i</w>
ai res</w>
Wel ch</w>
in adequate</w>
che ating</w>
Mus harraf</w>
Cr ash</w>
resi stant</w>
back yard</w>
endor sed</w>
bur gl
install ment</w>
attr active</w>
Bol ton</w>
tem ple</w>
co operating</w>
j i
LA X</w>
sur render</w>
Sand berg</w>
H ad
lin son</w>
S of
or i</w>
C S
denoun ces</w>
cros s-
Sn ap
Gib son</w>
Paralymp ic</w>
oc ol
Khali fa</w>
bu ster</w>
experim ent</w>
Ha i
Al var
Super storm</w>
Jenn y</w>
gr ams</w>
ic hi</w>
h urric
s ne
Mic k
Ch iefs</w>
F ow
X VI</w>
narr owly</w>
9 2</w>
addres sing</w>
198 0</w>
sl owly</w>
Ju lie</w>
Dr agon</w>
e- time</w>
k tor</w>
Bel ize</w>
reduc ing</w>
fi e</w>
far -
sp inal</w>
famili ar</w>
3 5
Fin als</w>
L ook</w>
le ve
ir on</w>
reg arding</w>
mur der
ma th</w>
Alleg ed</w>
u ph
sex ist</w>
Mich o
up dated</w>
Ben it
alcoh ol
e ter</w>
er als</w>
w agon</w>
Bu il
al izes</w>
bor ne</w>
f oss
ov lev
am nesty</w>
go all
Waz iri
haz ard</w>
B and
pri ests</w>
hag en</w>
Ba e</w>
ac hable</w>
bet a</w>
mon itors</w>
comb ined</w>
A zer
revi ved</w>
lo oney</w>
exist ence</w>
subsi di
si bilities</w>
E f
Ri fles</w>
reti ring</w>
pa io</w>
ul tr
Sm ok
P BS</w>
Olymp ian</w>
dis miss
con st
Mar t
plac ing</w>
w oo
ch opper</w>
MI T</w>
K r
tu ary</w>
B our
ib bean</w>
har v
Wor ldwide</w>
install ation</w>
b ou
cz ar</w>
diplom acy</w>
as ser
3 00,000</w>
el ite</w>
wh om</w>
foss il</w>
si m
moun tain
For ec
eng in
Wil kins</w>
D ani</w>
categ ory</w>
ts burgh</w>
tr ators</w>
slog ans</w>
Expl or
won ders</w>
Par ish</w>
V ote</w>
L .</w>
ti pped</w>
WW E</w>
deplo ying</w>
per former</w>
4. 2</w>
tr acked</w>
insi ght</w>
z z</w>
P am
t ate</w>
Engin eers</w>
sc ru
song a</w>
an a
Mor mon</w>
Sev illa</w>
Super ior</w>
fac tories</w>
Bur k
Car ac
Candid ates</w>
sh er</w>
my self</w>
An n</w>
O ld
i ya</w>
K een</w>
e ab
st ole</w>
tribu tes</w>
lif ting</w>
B onn
But ler</w>
haz ards</w>
re fuge</w>
step father</w>
Ap p</w>
quali fying</w>
grap pling</w>
dr agged</w>
cap it
other wise</w>
F E
bet ting</w>
N as
Rud ol
traditi ons</w>
militi as</w>
clim bing</w>
l ay</w>
last air</w>
el ist</w>
B lin
victim ized</w>
en z</w>
pres ents</w>
L ate</w>
Law yers</w>
am ber
k ay
L ines</w>
j an</w>
D am</w>
bar rier</w>
Vic tor</w>
y ton</w>
Tal ab
sh am
fol ks</w>
em ies</w>
C ul
G O</w>
Ch annel</w>
195 9</w>
hun ting</w>
Sin al
ail ure</w>
res ist</w>
over ies</w>
as th
bl oc</w>
Alex and
ret ailer</w>
sc an</w>
ed er</w>
Saint- Germain</w>
th ampton</w>
blind folded</w>
W in</w>
as p</w>
St yle</w>
fil i
treas ures</w>
Kir chner</w>
kn owing</w>
open hagen</w>
Kim i</w>
J an</w>
ov ed</w>
the ory</w>
norm ally</w>
M ullah</w>
mat ch
campaig ned</w>
Hot els</w>
Car ibbean</w>
Mon ica</w>
L ong
ton ight</w>
Sh en
es i</w>
yp oc
emer ge</w>
electr ical</w>
po ised</w>
oot s</w>
wic kets</w>
in door</w>
ali ke</w>
exc ept</w>
Ph ys
pip es</w>
good will</w>
8 8</w>
vi sas</w>
B e</w>
man ship</w>
princ i
J eb</w>
U C
ac commod
j ab</w>
Ch eck</w>
enn is</w>
odd ler</w>
f at</w>
suppor ter</w>
Two- time</w>
tur ing</w>
D ab
Rus h
cl ar
kri t</w>
commissi oned</w>
Fal k
au s</w>
Cong olese</w>
1 6-
sol ved</w>
l ots</w>
1. 2</w>
A eros
arriv ing</w>
Be hind</w>
k el
aband on</w>
Der by</w>
g lad</w>
sit ting</w>
e o</w>
oper ators</w>
spectac ular</w>
enn ial</w>
techn ologies</w>
Soci alist</w>
de em
in ked</w>
dis charged</w>
w ears</w>
Spec tor</w>
connec ting</w>
A lastair</w>
Rich mond</w>
col or
ef s</w>
gr ati
app y</w>
war m
res il
Pl us</w>
legiti macy</w>
R oth
19 th</w>
anc ial</w>
Fin ancial</w>
hom icide</w>
D in
ban king</w>
rul ings</w>
ext inc
bel ong</w>
man if
independ ently</w>
ty phoon</w>
fur n
Be ir
Beir ut</w>
D uck</w>
ur b
divis ive</w>
195 6</w>
Gram my</w>
law ful</w>
explos ive</w>
elev ator</w>
proce ed
Les lie</w>
tan e
form ers</w>
op ard</w>
Pit tsburgh</w>
Sc al
ligh ted</w>
s over
end ure</w>
p ers</w>
resu mes</w>
mir r
Z am
un less</w>
ar ranged</w>
Deb ate</w>
Oc cup
New man</w>
win es</w>
ster ity</w>
fili buster</w>
emplo ys</w>
an ity</w>
en de
D har
D river</w>
ome z</w>
indic ated</w>
P astor</w>
os ing</w>
R ain</w>
Ped ros
com a</w>
Col bert</w>
A P
Sh o
X inj
spiri ts</w>
ambul ance</w>
dev </w>
casual ties</w>
Wat er
ill ustr
Europ eans</w>
Green peace</w>
fortun ate</w>
Deb bie</w>
Sinal oa</w>
bo os
Cha k
speci alist</w>
ov ia</w>
diam on
ab using</w>
ch ip</w>
Farm ers</w>
am ed
G ran
apar theid</w>
analy ze</w>
princi ples</w>
over dose</w>
proceed ings</w>
Ay atol
sit u
ou ster</w>
influ enced</w>
Star r</w>
war k</w>
Ne wark</w>
D rog
Mc F
4 0s</w>
cont enders</w>
sid ents</w>
C emetery</w>
reck less</w>
P RI</w>
F ailure</w>
sad dened</w>
Mu j
liber ty</w>
19 43</w>
em power</w>
Con cer
restor ation</w>
- American</w>
thr op
B ill
lot tery</w>
Cl oud</w>
dru m</w>
ag li
Expl os
def ine</w>
F -
rom antic</w>
un certainty</w>
G and
s its</w>
S et
ific ation</w>
diver ted</w>
Ap par
D mit
dict ator
e a</w>
s elected</w>
ff etz</w>
engin eer</w>
negl ect</w>
Occup y</w>
- ups</w>
rout inely</w>
ent ries</w>
wis dom</w>
Bank sy</w>
Cha ir
read s</w>
Salv ador</w>
car riers</w>
volun tary</w>
Cab les</w>
Em ploy
Pre toria</w>
reun ited</w>
leng thy</w>
clos est</w>
L e</w>
hi p</w>
cook ies</w>
Par ente</w>
ar us</w>
Benf ica</w>
ap ing</w>
Relig ious</w>
wi der</w>
sp urred</w>
men ingitis</w>
di um</w>
industri al</w>
7 7
ocol ate</w>
Yan ke
Par ks</w>
re ou</w>
spar ks</w>
Cla ire</w>
Bor is</w>
gl o
ch ol
C at</w>
charg ing</w>
198 4</w>
peac efully</w>
manip ul
bed room</w>
nin th</w>
R an
T rain</w>
streng th
pas sport</w>
poin ted</w>
Lind sey</w>
bran t</w>
un happy</w>
L earn</w>
Bar kley</w>
perform s</w>
recor d-
t ents</w>
reli eved</w>
Relig ion</w>
Car tel</w>
ri ding</w>
G iv
P AC</w>
it y-
Every body</w>
Lyn n</w>
pat ter
Guatem ala</w>
R il
Bri g
J un
May nard</w>
Re ad</w>
sec ures</w>
Re tired</w>
pl ate</w>
Marg ar
y ellow</w>
poor est</w>
sover e
f eld</w>
Mov ement</w>
Min i</w>
desig ning</w>
ruc k</w>
dec iding</w>
advis es</w>
1 10</w>
stir red</w>
ste el</w>
ly -
liber als</w>
Persi an</w>
pard ons</w>
ac he</w>
Twent y-
us eful</w>
re ign
gl obally</w>
k ph</w>
ev angel
C oh
Coh en</w>
r ot
at ernity</w>
fr aternity</w>
Sule man</w>
Sen ior</w>
cl oud</w>
Stein em</w>
P KK</w>
b out</w>
yi elds</w>
stud ying</w>
D ennis</w>
F la
cigar ettes</w>
S ports</w>
colum n</w>
Sal t</w>
Qu inn</w>
le aks</w>
rap idly</w>
cos tly</w>
b erger</w>
reli able</w>
ad option</w>
Bas que</w>
m age</w>
orig ins</w>
la im</w>
wan sk
wansk a</w>
ic h
t aining</w>
ar ians</w>
assion ate</w>
dis sidents</w>
N intend
ed r
hij acking</w>
inc umbent</w>
coord inated</w>
fl owers</w>
ref ers</w>
ali en</w>
th ouse</w>
at tered</w>
Di ff
nov elist</w>
Nor wich</w>
f esti
Inter view</w>
co con
Nor man</w>
New ly</w>
Con fl
trans form</w>
Cha ffetz</w>
Austri an</w>
Wor k</w>
Bos nian</w>
eng ines</w>
narr ow</w>
S la
ad z
s wee
gi o</w>
man us
Gl en
195 0s</w>
17 -year-old</w>
Moroc co</w>
inten ds</w>
En viron
phe w</w>
ne phew</w>
Bl ues</w>
tri o</w>
G el
et -
deb ates</w>
re trial</w>
Kh mer</w>
ep ic</w>
riv al
ep y</w>
hor se
wh ales</w>
ide ological</w>
phys ically</w>
We instein</w>
Coll ins</w>
E du
V ess
ak is</w>
Bul gar
Sh u
gr ant</w>
spe eds</w>
An y
prev ents</w>
Cor ey</w>
S port</w>
abor atory</w>
Cat ania</w>
Attor neys</w>
ed ges</w>
th in</w>
Car d
primar ies</w>
C looney</w>
J ournal</w>
fin ity</w>
n ut</w>
gri ef</w>
Pal ermo</w>
for ests</w>
Ma x
depu ties</w>
Space X</w>
sh uts</w>
f oods</w>
en erg
Lot us</w>
absol utely</w>
excell ent</w>
end ish</w>
Cav endish</w>
9 th</w>
ignor ing</w>
des k</w>
shoul der</w>
seem ingly</w>
re act</w>
W ood
bol ster</w>
R ock
fer tili
al k</w>
Micho ac
18 th</w>
appoint ments</w>
eur o</w>
t ower</w>
clin ch</w>
ar ming</w>
A den</w>
Me ade</w>
Ch ev
en coun
fin ale</w>
reti re</w>
N a
li qu
s atur
satur ated</w>
spi ke</w>
free ing</w>
u sage</w>
Let terman</w>
sub stanti
mut iny</w>
cock pit</w>
C ot
pay ment</w>
frustr ation</w>
chronic les</w>
as pects</w>
L es</w>
Demonstr ators</w>
crush ed</w>
sc ape</w>
F air</w>
gr oss</w>
Hu ff
be tr
ski ing</w>
vide ot
dis on</w>
im possible</w>
st ain</w>
and reou</w>
bro ker</w>
Mor phe
il li
ne o-
Ayatol lah</w>
Nam ib
P erc
thu izen</w>
Oos thuizen</w>
J az
Jaz e
mar ath
o ols</w>
cre dible</w>
re par
man sion</w>
P op
c y</w>
recor dings</w>
ik ova</w>
onn ikova</w>
access ory</w>
out lets</w>
la sting</w>
es burg</w>
Rad wanska</w>
pros pect</w>
sever ely</w>
govern ance</w>
nic kn
goall ess</w>
super hero</w>
C in
Br own
prosec uted</w>
for giv
mon th
orig in</w>
air -
eab outs</w>
er eabouts</w>
magnit ude</w>
Cel tic</w>
S ig
sm all-
Me an
Minne apolis</w>
7 8</w>
o ath</w>
g an</w>
s oda</w>
rad ar</w>
rob ber</w>
Waziri stan</w>
s ink</w>
10 -year-old</w>
exec </w>
inj ustice</w>
Tes la</w>
av al
sur plus</w>
200 -
Re yn
ex clusion</w>
nation als</w>
Hun ter</w>
Peñ a</w>
implement ation</w>
discus ses</w>
insp iring</w>
En d</w>
C alled</w>
stu ffed</w>
ok onnikova</w>
the by</w>
So theby</w>
amp hi
me tr
Read ers</w>
candid acy</w>
bl ock
vis m</w>
dis proportion
D oh
out spoken</w>
exten sive</w>
16 th</w>
sou ven
assass inated</w>
E SP
ESP N</w>
sud den</w>
ac tual</w>
il lette</w>
D U
S win
T- Mobile</w>
liter ature</w>
Y ears</w>
rad ic
pro- democracy</w>
bl aming</w>
pas sports</w>
Fr ost</w>
scholar ship</w>
b od
Presid ent-elect</w>
Chair man</w>
Thr ough</w>
studi o</w>
Ci ud
l obby</w>
Go als</w>
es cope</w>
R ut
Ear ly</w>
mer ch
le ather</w>
inn y</w>
yach ts</w>
char itable</w>
em ails</w>
Dha ka</w>
seism ic</w>
Osc ars</w>
cr ush</w>
C ay
prof essors</w>
Wal ters</w>
re alized</w>
success or</w>
succ ession</w>
Mar ion</w>
class ics</w>
Pet e</w>
s ence</w>
cre ws</w>
Ge o</w>
R et
Shar ia</w>
ant el</w>
green house</w>
per haps</w>
Metropol itan</w>
Nintend o</w>
conc e
lo ading</w>
Azer baij
10- year</w>
Ru th</w>
bo xing</w>
impres sive</w>
si ties</w>
Se oul</w>
pronoun ced</w>
far mer</w>
b y-
ed o</w>
F air
re opened</w>
Robb ins</w>
roll ed</w>
hon ey
honey moon</w>
ch y</w>
h an
tong ue</w>
K KK</w>
Jer emy</w>
p ath
man aging</w>
les son</w>
net working</w>
Tibet ans</w>
sub scri
Per u
Peru vian</w>
di g</w>
30 -year-old</w>
Com mon</w>
oc us</w>
IM F</w>
Fi re
per or</w>
ecti vely</w>
smuggl ing</w>
L iz</w>
evol ved</w>
ac id</w>
acc idents</w>
col on
Star bucks</w>
i ors</w>
1 70</w>
Xinj iang</w>
O -led</w>
et to</w>
ge on</w>
M es
Virg in</w>
consol id
exc ep
ge ons</w>
poor ly</w>
tal ented</w>
aggres sion</w>
infl icted</w>
Al ec</w>
reg ain</w>
ud es</w>
d ys
10 0th</w>
convinc ed</w>
to ys</w>
NAT O-led</w>
imp aired</w>
turn out</w>
t aped</w>
com ics</w>
la y
Cri tic</w>
identi ties</w>
cre ations</w>
G ot
Stri ker</w>
legisl ature</w>
expec ting</w>
Guatem al
grab s</w>
Revie w</w>
wa ja</w>
Ti krit</w>
n aked</w>
Ar rest</w>
40 0m</w>
ri son</w>
in tox
li able</w>
Em m
l oot
zz ling</w>
Cu omo</w>
Tr afford</w>
Glo be</w>
Sch l
Guardi ola</w>
Ch ern
Ha as</w>
Kn own</w>
cau cus</w>
ti de</w>
O h</w>
eval uation</w>
Nichol s</w>
ant es</w>
quarant ined</w>
Cas sidy</w>
Peg gy</w>
cir cus</w>
p ig
8 0s</w>
W yn
Dam on</w>
fl ock</w>
Valent ine</w>
w ish</w>
Tol okonnikova</w>
sk ating</w>
up grade</w>
av er</w>
Rum ors</w>
L ang
N RA</w>
Ram ad
Ramad an</w>
sl ated</w>
he e</w>
bal anced</w>
Z ar
hon est</w>
Brad y</w>
ten ure</w>
fr amed</w>
at t</w>
d a
convic tions</w>
3 50</w>
Stev es</w>
P sych
Lim baugh</w>
B us</w>
7 87</w>
N ur
hy bri
Je an-
Ne ill</w>
sav i</w>
NO AA</w>
screen ings</w>
incor porate</w>
Pat z</w>
ti a</w>
dec is
su res</w>
ig ner</w>
He idi</w>
Russi an-
Black fish</w>
subsi dies</w>
Daw n</w>
el er</w>
Jam ie</w>
speci fied</w>
he al</w>
gradu ated</w>
exam ples</w>
ha ir
k age</w>
wrec kage</w>
es say</w>
film makers</w>
sequ estration</w>
tit led</w>
Si kh
Spec ulation</w>
Guill ermo</w>
spon sor</w>
st akes</w>
ous ness</w>
sh elling</w>
taxpay ers</w>
gu ys</w>
Ex press</w>
K iev
G av
Ear th
C ric
mit ting</w>
terri torial</w>
in dex</w>
wed dings</w>
accid ental</w>
l aser</w>
n ered</w>
Islam abad</w>
jum ping</w>
Ef for
war ming</w>
W all
cli ps</w>
Mus k</w>
L em
arra ignment</w>
Defend ant</w>
O ut</w>
Cor rec
Kar adz
Karadz ic</w>
sugg estions</w>
stab il
Fun eral</w>
wit z</w>
it ary</w>
school girls</w>
Li thu
Me asure</w>
t ag
y guard</w>
dres sed</w>
S ad
Tar ant
Ide a</w>
e ks</w>
det ailed</w>
au sterity</w>
col i</w>
b art</w>
roll s</w>
gath ering</w>
rout ine</w>
over haul</w>
Black Berry</w>
Car r
py th
un certain</w>
ess er</w>
M DC</w>
Ter esa</w>
lau gh
I P
A ber
over take</w>
cl ing</w>
room mate</w>
Ciud ad</w>
hab it
Tor n
Harv ard</w>
sh utting</w>
Ev angel
Sep p</w>
medi an</w>
fant astic</w>
glit ches</w>
h all
D ays</w>
unve ils</w>
gr ound
b ones</w>
ch or
Reser ve</w>
Ric key</w>
Ram os</w>
Ty mos
histor ically</w>
suit case</w>
Andre as</w>
bul ls</w>
cancell ations</w>
Pos sible</w>
ar rang
column ist</w>
Gar den</w>
og ging</w>
3 60</w>
b y
adv anced</w>
er b
y stal</w>
Z o
Hu a
Hua wei</w>
Phot os</w>
Sou theast</w>
design ated</w>
cru m
respond ents</w>
pp y</w>
provoc ation</w>
dec ent</w>
re public</w>
deploy ment</w>
const antly</w>
K az
appo int</w>
th riv
back drop</w>
cli sts</w>
Man n</w>
Kay mer</w>
H end
A str
Har r
Harr ington</w>
Tymos henko</w>
a- based</w>
Camer oon</w>
p ic</w>
con front</w>
co ol</w>
t less</w>
Sun g</w>
p es</w>
Sch ul
T uring</w>
weak ened</w>
re la
Ash ley</w>
M iz
push es</w>
b our</w>
kic ks</w>
di th</w>
agg age</w>
sid el
Ar n
avi ar</w>
Too bin</w>
Tou rists</w>
F C</w>
kil o
oppos ite</w>
achiev ement</w>
m org
stamp ede</w>
Or </w>
Contr over
el eg
l amp
ar o</w>
eric s</w>
chann els</w>
ad just</w>
en tering</w>
diamon ds</w>
um m
C openhagen</w>
surg eon</w>
ve dev</w>
Med vedev</w>
intenti onal</w>
radi o
15 -
influ ential</w>
ival ent</w>
Boli vian</w>
per mitted</w>
my sterious</w>
y weight</w>
heav yweight</w>
R NC</w>
Hol ly</w>
prepar ation</w>
en force</w>
t z
El l
Ag ents</w>
under wear</w>
19 37</w>
auc tioned</w>
Pap andreou</w>
Pan el</w>
Santi ago</w>
sh ake</w>
Wi- Fi</w>
log o</w>
Dut chman</w>
F isher</w>
ur an</w>
cardi ac</w>
sh aped</w>
Rudol ph</w>
bac hel
Kar im</w>
rec ess</w>
Edu ardo</w>
An na</w>
univer sities</w>
re actor</w>
alleg ing</w>
Benit ez</w>
star t-
Ar paio</w>
M ist
re bo
198 7</w>
dispers ants</w>
ar ities</w>
Namib ia</w>
Mil es</w>
G omez</w>
H ig
r allies</w>
Appar ently</w>
Treas ury</w>
W earing</w>
Prof essor</w>
S ong</w>
Rom esha</w>
R oy
AR T</w>
B ART</w>
gh i</w>
Democr acy</w>
rest ing</w>
cos me
2, 500</w>
v and
anti- corruption</w>
Sou thampton</w>
syn thetic</w>
emb ol
prov isi
provisi onal</w>
Hop kins</w>
dep end</w>
com mon
1, 400</w>
Gonzal ez</w>
M oms</w>
Tom as</w>
er ment</w>
Trad iti
proc essing</w>
stri pped</w>
N ancy</w>
Ph armac
pers onal
dr af
Kiev </w>
Haw king</w>
S lo
val id</w>
sur ance</w>
ic ides</w>
j ack</w>
establ ishment</w>
ben e
tri bunal</w>
Ste pp</w>
R E</w>
P abl
Pabl o</w>
Franc es
Jaze era</w>
dis rup
Mat te
Matte o</w>
pres entation</w>
detain ee</w>
Fi or
Elli ot</w>
acc essed</w>
Mick elson</w>
adm ir
Tra vis</w>
T sunami</w>
barre ls</w>
ren oun
wild fire</w>
E -
patr ols</w>
i ance</w>
stun ned</w>
tr um</w>
incenti ves</w>
par ach
Pedros a</w>
Luc a</w>
Ber dy
pro- Russian</w>
coll ision</w>
mu ch-
11 -
part ments</w>
patter ns</w>
archit ect</w>
celebr ating</w>
st res
Ar ound</w>
barg aining</w>
C ities</w>
extrem ist</w>
fortun es</w>
H am</w>
W BA</w>
un like</w>
G ael</w>
vi brant</w>
equ ipped</w>
Dani els</w>
Buddh ist</w>
Mc Donald</w>
Get afe</w>
acc laimed</w>
R O
il er</w>
Ser vices</w>
Cre ator</w>
de portation</w>
cal ories</w>
t an</w>
ch an</w>
reti res</w>
H em
E R</w>
Berdy ch</w>
w ells</w>
ob ese</w>
pul sion</w>
dis sent</w>
Banglad es
re actions</w>
Tur n
autobi ography</w>
ext ent</w>
T s
S ak
Tra v
F ight</w>
Rel ations</w>
requ iring</w>
Mov ies</w>
T ata</w>
T songa</w>
guil t</w>
transpor ted</w>
suffer ers</w>
signific ance</w>
Vietn am
hurric anes</w>
employ ers</w>
St ock
inten tions</w>
Bec ause</w>
ev il</w>
whe el</w>
X iang</w>
6 0-
dis appointing</w>
star ter</w>
av ing</w>
Gar ner</w>
A gn
k in
C ac
Tarant ino</w>
albu ms</w>
tril ogy</w>
ar rog
Ow ner</w>
conv ince</w>
short- term</w>
contribu te</w>
adap t</w>
ch amp</w>
ten ing</w>
Ril ey</w>
Bec ker</w>
W enger</w>
Drog ba</w>
S ound</w>
per sec
Sc ot</w>
mov ements</w>
K am
half time</w>
conf used</w>
as ive</w>
Kri sti
DU I</w>
Lu ke</w>
Big gest</w>
tou ts</w>
we t</w>
Mc Daniel</w>
197 5</w>
Ces ar</w>
ic ants</w>
re tr
land fill</w>
Moy es</w>
endor ses</w>
r ookie</w>
Au to</w>
oo d-
Dr ones</w>
re built</w>
w ounding</w>
moment um</w>
t les</w>
Pi ers</w>
Get ting</w>
phys ician</w>
vig il
debu ts</w>
ear nings</w>
dat abase</w>
Thir d</w>
vis ual</w>
Bap tist</w>
Inspec tors</w>
narr ative</w>
over whel
Talab ani</w>
Dre w</w>
UN C</w>
slau gh
er able</w>
All- Star</w>
Ru iz</w>
uni fied</w>
in accurate</w>
lav ish</w>
S ach
e- run</w>
arti s
w oods</w>
c age</w>
shif ts</w>
R apper</w>
mon t</w>
Con test</w>
coo king</w>
h ang</w>
Sa enz</w>
m oth
Pun jab</w>
endor sement</w>
az z</w>
D w
G et</w>
equ als</w>
Hispan ics</w>
201 7</w>
sou theastern</w>
Ab bot
Abbot t</w>
IS S</w>
M ak
Air craft</w>
smo ked</w>
fa ith
enti n</w>
Ver mont</w>
D ai
s essing</w>
rec ede</w>
Rec ep</w>
gu ing</w>
ene i</w>
wel ve</w>
l on
rin ka</w>
rub a</w>
u me</w>
op sy</w>
sovere ign
El ton</w>
questi oning</w>
femin ism</w>
popul ated</w>
li ve-
op ium</w>
W ong</w>
V all
exam ining</w>
Ed die</w>
Cra ig</w>
can on
He alth
Ham burg</w>
Bar bour</w>
inst ability</w>
Pr ice</w>
b atch</w>
mer ge</w>
ball ots</w>
Kn es
of i</w>
Ch ang</w>
Is ner</w>
Den ise</w>
i ating</w>
f ist</w>
ra v
lau ghter</w>
phr ases</w>
integr ation</w>
frag ment</w>
br ake</w>
sac k</w>
Gu n</w>
Sc out</w>
di bly</w>
sen iors</w>
gy m
over look</w>
accel erate</w>
over n</w>
tri ght</w>
m ac
pp o</w>
Ale ppo</w>
ev el
nex t-
Mao ists</w>
Rud y</w>
Me te
a quar
Bil lie</w>
reg ard</w>
Per th</w>
N ever</w>
D om
Gi uli
a throw</w>
stom ach</w>
Co ke</w>
leg alizing</w>
St art</w>
aval anche</w>
publ ishing</w>
st up
anc o</w>
g or</w>
gin ity</w>
K lain</w>
memo ir</w>
St an</w>
re vis
menti </w>
S amp
hur ting</w>
Earth quake</w>
Brazil ians</w>
der on</w>
ob jected</w>
Y og
j uris
S T
Mc Bri
A P</w>
swe pt</w>
al le
C old</w>
tu ps</w>
ro eder</w>
op ers</w>
He ights</w>
scru tiny</w>
read iness</w>
car ded</w>
smok ers</w>
hol y</w>
Gr ound</w>
sa mp
f an
I V
ent atives</w>
Ey e
belong ing</w>
K id
Ma x</w>
ab users</w>
in clusion</w>
cr ed</w>
Hij ab</w>
Stat e-run</w>
end ous</w>
Sch ools</w>
int ell
ab ilia</w>
dog fighting</w>
Le y
K l
Hil ary</w>
M ash
insul t</w>
Tur ner</w>
inv ented</w>
W en</w>
dec ency</w>
allerg ies</w>
Wol f
tourn aments</w>
iv a</w>
reun ite</w>
dismiss al</w>
Reyn olds</w>
St oner</w>
brief ly</w>
sup ple
ish ments</w>
Gard ner</w>
Cla us</w>
gri pped</w>
el ings</w>
ah ore</w>
umb </w>
l oud</w>
spar king</w>
d oms</w>
bit ration</w>
Mc Donnell</w>
Q uran</w>
un related</w>
stap le</w>
Pr op</w>
Sh ore</w>
Al- Assad</w>
C roc
conf id
resp ectively</w>
c ade</w>
l ashes</w>
le an
h ack</w>
nec k
cl ay</w>
13 th</w>
Sur f
w ings</w>
S ucc
Mar t</w>
L s</w>
eleph ants</w>
depres sed</w>
gr ades</w>
offen der</w>
wind ows</w>
US N
mis understanding</w>
pref ers</w>
sc r
be headed</w>
premi ered</w>
Gh ana
c ow
Pic ture</w>
B ack
foreclos ure</w>
in ding</w>
- of-
traditi onally</w>
d an
Slo ot</w>
inf ants</w>
prin ter</w>
prof iled</w>
Ronal d</w>
R S
inn ings</w>
pur suing</w>
ovlev </w>
op ran
C ause</w>
counter parts</w>
v ous</w>
ot ely</w>
w ash</w>
th ered</w>
il ts</w>
mat ched</w>
ou ted</w>
char ter</w>
sn acks</w>
Kore as</w>
serv es</w>
home owner</w>
discus sing</w>
distr action</w>
J ar
L ess</w>
A st
thyro id</w>
N on-
un iversal</w>
p ile</w>
read ings</w>
Ru n</w>
fi erce</w>
consul tant</w>
z ation</w>
é e</w>
ple ts</w>
ear y</w>
che et
back fire</w>
at rist</w>
Min aj</w>
emp ow
197 8</w>
cas ino</w>
med alist</w>
prog res
B anda</w>
You th</w>
F D
e ats</w>
T ina</w>
re j
rej ection</w>
str ic
br as
N air</w>
e ons</w>
I ke</w>
iv ory</w>
Fow le</w>
inj ections</w>
on ies</w>
prot ocol</w>
In dic
1 23</w>
T ate</w>
aff es</w>
ad j
twi ster</w>
All ison</w>
D im
197 7</w>
gh ost</w>
gh tened</w>
Thir ty-
elabor ate</w>
al tered</w>
an ism</w>
ch illing</w>
zh ou</w>
grad er</w>
gg age</w>
as ers</w>
V el
tro om</w>
cour troom</w>
any ol</w>
Esp anyol</w>
Morphe us</w>
Mur der</w>
Kar rub
Hai yan</w>
di ves</w>
v ying</w>
mel t</w>
Kham enei</w>
ch etto</w>
aw rinka</w>
W awrinka</w>
Anim al</w>
Smart phone</w>
K rem
la sted</w>
Bel fast</w>
drun ken</w>
Indic tment</w>
West boro</w>
arsen al</w>
a g</w>
z ad</w>
Matt ers</w>
fl are</w>
Se w
Sew ol</w>
U 2</w>
f its</w>
h em</w>
h ad
inter state</w>
re lax</w>
os .</w>
un stable</w>
fug itive</w>
w ary</w>
country side</w>
P av
spec tive</w>
forgiv eness</w>
us al</w>
l ap</w>
other ap
otherap y</w>
transpor ting</w>
g ation</w>
chec king</w>
k ar</w>
Mes ut</w>
gu ide</w>
min i</w>
R ip
dr astic</w>
5 th</w>
are ed</w>
F areed</w>
cycl ing</w>
Mad ison</w>
M ack
Syri za</w>
2 1-year-old</w>
den ying</w>
te amed</w>
Aw l
te st
Bon o</w>
off s</w>
broadcast er</w>
E ast
Ang els</w>
Ann ual</w>
W ay</w>
hi at
hiat us</w>
L jub
Ar go</w>
10 7</w>
re construction</w>
V on</w>
g end
min ors</w>
are g</w>
che ering</w>
I D
spec ific
pre d
CE </w>
l man</w>
arm ies</w>
Reb el</w>
g boat</w>
li fied</w>
Sp ears</w>
horri ble</w>
dra g</w>
trad ed</w>
Mid d
wrec ked</w>
le en</w>
qu it
pay ments</w>
lu ggage</w>
High- speed</w>
ex ports</w>
out door</w>
app ings</w>
A im
L enn
dis pos
A ung</w>
co in</w>
Fl ash</w>
Whe ther</w>
ran ce</w>
Mos chetto</w>
h ol</w>
D i</w>
5 0s</w>
Willi am
matt ress</w>
with draw</w>
senti ment</w>
leg alize</w>
war ded</w>
t apped</w>
interf erence</w>
ass ed</w>
Me gr
k ind
Ro os
Roos evel
m af
fre e-
Gi ant</w>
Arch bishop</w>
k ara</w>
mer it</w>
Ac tion</w>
gr asp</w>
Sch roeder</w>
. 4</w>
w olf</w>
pun ishments</w>
gl ing</w>
re ar</w>
cap tivity</w>
es z
Lau ren</w>
endang erment</w>
ash a</w>
consid eration</w>
Michel e</w>
any more</w>
cos tum
- style</w>
invol un
Sh ep
E ls</w>
rel ate</w>
Con struction</w>
loc ate</w>
H ash
Rid ge</w>
eleph ant</w>
cri pt</w>
iv ely</w>
Chri st</w>
defin ition</w>
in fil
amm ing</w>
K ais
si de
tion ing</w>
hu g
hug ely</w>
on als</w>
administr ator</w>
An field</w>
f ashi
d all</w>
ed a</w>
S AT</w>
Ori gin
l aced</w>
H ome
Agn i
rever sed</w>
ambiti ons</w>
integr ated</w>
perc eption</w>
ad ri</w>
Vess el</w>
un changed</w>
S ide</w>
ric in</w>
fa ults</w>
sec tarian</w>
d- winning</w>
Kur tz</w>
sk inny</w>
sp an</w>
20 30</w>
cas ual</w>
crow ned</w>
P C</w>
€ </w>
marsh al</w>
U l
emerg encies</w>
t one</w>
t ext</w>
h id</w>
War hol</w>
m at</w>
un di</w>
two- hour</w>
lion aires</w>
cool ing</w>
Dmit ry</w>
Ren zi</w>
E igh
altern ate</w>
commit tees</w>
dec ad
le hem</w>
cl erics</w>
l off</w>
struc tive</w>
iv an</w>
ch est</w>
Qaeda- linked</w>
L ahore</w>
oper atives</w>
Bud get</w>
id er
ped oph
prostit ute</w>
v ow</w>
G S</w>
US GS</w>
19 60</w>
enti onal</w>
Ab b
y ou
col ony</w>
evacu ations</w>
T aj</w>
col m</w>
ub ica</w>
K ubica</w>
re unions</w>
Cric ket</w>
sc ape
inter active</w>
Pi x
clu sions</w>
F it
ab s</w>
r gy
Ky rgy
isol ation</w>
Mot or</w>
cycl ist</w>
Gu il
b ach</w>
reg ions</w>
op pression</w>
fe elings</w>
Al tern
s by</w>
Rec overy</w>
contribu tions</w>
Dab ashi</w>
compar es</w>
Gen eva</w>
Anim ation</w>
rep airs</w>
diagnos is</w>
samp le</w>
Knes set</w>
triumph s</w>
S it
Ab del
es is</w>
pre jud
en emies</w>
mid st</w>
man hunt</w>
ass embly</w>
te eth</w>
im bur
plat in
platin um</w>
fin alists</w>
- fi</w>
sci -fi</w>
cal end
glo be</w>
accep ting</w>
carto onist</w>
C aviar</w>
Em my</w>
as sign
Ak bar</w>
prin ted</w>
En g
196 7</w>
F ears</w>
si blings</w>
- out</w>
st yl
coun c
ec o-
t all</w>
N im
k uk</w>
Kir kuk</w>
Fil ip
1, 600</w>
Agni esz
Agniesz ka</w>
c aves</w>
Sc ots</w>
un specified</w>
mete or
amil s</w>
He ath</w>
trou bling</w>
t ude</w>
c and
B arrett</w>
spr ayed</w>
rob otic</w>
p iv
astronau t</w>
cen tered</w>
imag ination</w>
sex uality</w>
M et
pan ic</w>
ic ic</w>
self- im
as piring</w>
Ann an</w>
an j
Eur ov
Eurov ision</w>
il yn</w>
ib o</w>
En forcement</w>
Al bu
Moh amm
New town</w>
con clusive</w>
co erc
li van</w>
medi ation</w>
err ors</w>
Rom ania</w>
cen sorship</w>
be ans</w>
ear by</w>
N earby</w>
Fu n</w>
oy le</w>
til lo</w>
believ able</w>
Sam pras</w>
Con an</w>
tg age</w>
S AG</w>
sponsor ed</w>
U VA</w>
roll out</w>
experim ental</w>
Res ults</w>
ac ademy</w>
hun ters</w>
Alger ian</w>
Sh ane</w>
pre dec
par all
or bit</w>
inti mate</w>
He athrow</w>
Philipp ine</w>
nomin ating</w>
cru el</w>
prosecut e</w>
Tu areg</w>
dec isi
decisi on-
sm ell</w>
i deal</w>
fin ances</w>
tour ing</w>
The od
lab els</w>
b ury</w>
El -
Jac obs</w>
four- day</w>
ab ilities</w>
Anti- government</w>
4 .5</w>
2 4-
tac tic</w>
pref erred</w>
r aging</w>
gren ade</w>
Bul lock</w>
de fi
K A</w>
ul ed</w>
ju sted</w>
3 1-year-old</w>
pres entatives</w>
cat ching</w>
at om
or n</w>
dec ap
decap itated</w>
rum p</w>
ultimat ely</w>
Fri end
z ynski</w>
pros tate</w>
Cob b</w>
Mali k</w>
dis qualified</w>
R EA
0 8</w>
pre scription</w>
icop a</w>
Cap t.</w>
D ash</w>
i ers</w>
sub mitted</w>
canc ers</w>
He ad
K ick
Sh ades</w>
rem or
remor se</w>
pl un
Hot spur</w>
Conf erence</w>
Pro gr
sur faces</w>
direc tions</w>
revel ations</w>
tri guing</w>
in triguing</w>
i ah</w>
ment alists</w>
Mexic ans</w>
gre eted</w>
hom ec
homec oming</w>
H ague</w>
O zz
Hon da</w>
lock down</w>
gener ate</w>
positi oned</w>
as m</w>
Pri son</w>
ill as</w>
need les</w>
ant as</w>
Q antas</w>
Meg a</w>
We i
cho oses</w>
J al
Cr own</w>
che ated</w>
McBri de</w>
intern ally</w>
portr ays</w>
sle ep
May o</w>
Dun n</w>
ok er</w>
consu me</w>
ud ed</w>
m aster
ic e-
Hem ing
osec ution</w>
t man</w>
al ities</w>
G reg
iz ations</w>
K ind
tran sm
decre ased</w>
O N</w>
out sk
outsk irts</w>
n ears</w>
Lind a</w>
T ry</w>
J as
iv ing</w>
inv ent
wat er-
Blin d</w>
g affes</w>
Or man</w>
S ong
fl ared</w>
Under wood</w>
Ton i</w>
inj ection</w>
z in</w>
J ude</w>
Lank an</w>
parti ally</w>
Jen kins</w>
bra very</w>
z e
deem ed</w>
good bye</w>
j ay</w>
far ming</w>
l over</w>
id el</w>
C s</w>
New t</w>
pati ence</w>
comm erce</w>
sign atures</w>
10 0m</w>
Guardi an</w>
Inter pol</w>
J ak
en ne</w>
distribu te</w>
ow es</w>
lov ers</w>
we alth
cigar ette</w>
un disclosed</w>
port edly</w>
smuggl ers</w>
war ship</w>
un il
de pos
dep icted</w>
K is
C -
l anes</w>
un conscious</w>
fur l
pun ch</w>
seg reg
Wol ff</w>
cl ick</w>
sl owing</w>
K ap
domin ate</w>
rem ake</w>
L ou</w>
W ill
shad ow</w>
P S</w>
Win ning</w>
assoc iates</w>
Im age</w>
grati tude</w>
syn drome</w>
str icken</w>
Re presentatives</w>
preserv ation</w>
ed ad</w>
Azerbaij an</w>
ch eer</w>
pr iced</w>
out lines</w>
W end
Cal deron</w>
em ics</w>
J el
enti st</w>
ha waja</w>
D REA
distur b
Ex hib
0 .0
deal er</w>
Y u</w>
195 3</w>
Hondur as</w>
st ones</w>
recy cled</w>
f ooth
cir cul
Propos al</w>
juris dic
awa it</w>
foun ders</w>
N oda</w>
class ical</w>
che ap</w>
s ink
resp ects</w>
m ot
Oak land</w>
bor ough</w>
le aking</w>
Spr int</w>
ish ers</w>
er ings</w>
La ur
Cav ill</w>
mission ary</w>
invest ments</w>
Stac ey</w>
T rump</w>
gru esome</w>
US DA</w>
aj o</w>
hi de
morg ue</w>
N ar
ingredi ent</w>
pi g</w>
Aguil ar</w>
cont ag
m atized</w>
Sun nis</w>
night club</w>
196 2</w>
jun ior</w>
I P</w>
pol ar</w>
bro k
Exper im
Gun man</w>
L ock
Mid fielder</w>
bel ief</w>
k ova</w>
b li
car cer
pol lu
d entist</w>
mak eup</w>
sick ened</w>
Sel f-
Zum a</w>
recip ient</w>
13 ,000</w>
wel com
welcom ed</w>
with draws</w>
6 00,000</w>
ec tom
Bal tic</w>
H TC</w>
portra its</w>
as set</w>
c uriosity</w>
disc overies</w>
block ade</w>
High way</w>
Fil m
c afe</w>
respir atory</w>
medic ines</w>
travel er</w>
uris tic</w>
ut uristic</w>
or g</w>
ar an</w>
spaw ned</w>
gri p</w>
Gabri elle</w>
ex pose</w>
F em
deser ved</w>
m ous</w>
fre shman</w>
pen insula</w>
achiev ing</w>
S car
revol u
revolu tion
Par ton</w>
u um</w>
start up</w>
Ug andan</w>
Ch em
Her itage</w>
conc edes</w>
memor abilia</w>
inhab ited</w>
Re gi
al ion</w>
batt alion</w>
as so</w>
6 -0</w>
c ub</w>
8 ,000</w>
F ive-
Guatemal an</w>
merg a</w>
whistle-bl owers</w>
integr ate</w>
Bi ela</w>
S at
res ent
tal ents</w>
D oyle</w>
Day light</w>
Paralymp ics</w>
regul ate</w>
anim ated</w>
then -
im ports</w>
Res ort</w>
D urban</w>
L ight
or ts</w>
S on</w>
Indones ian</w>
Megr ahi</w>
leg alized</w>
expl oded</w>
st ocks</w>
lim itations</w>
idel ity</w>
Ag ainst</w>
observ er</w>
S ites</w>
j ournal</w>
belong ed</w>
Fr om
Br yan</w>
W ell
port .com</w>
Re port.com</w>
P at</w>
temper ature</w>
ph oma</w>
stu died</w>
acc user</w>
Com edy</w>
traffic kers</w>
re patri
ang o</w>
blu e
Wil fried</w>
o- Wilfried</w>
J o-Wilfried</w>
sh ak
recogn iz
sp ends</w>
Lev inson</w>
pros thetic</w>
Ven ice</w>
sovereign ty</w>
Bulgar ia</w>
down hill</w>
Napol it
Napolit ano</w>
art work</w>
H of
English man</w>
u x</w>
Th en</w>
k inson</w>
comp elling</w>
gr os
pu p
cor ner</w>
3 ,500</w>
comple tes</w>
su itable</w>
pul ling</w>
contag ious</w>
T esti
administr ators</w>
Zet as</w>
P T</w>
2. 3</w>
transf ers</w>
bec k</w>
discus sion</w>
explo itation</w>
furi ous</w>
id -
abe u</w>
Bern abeu</w>
K us
fe at</w>
ag ner</w>
W agner</w>
secret ly</w>
il it
camp ing</w>
seven -time</w>
7 37</w>
Vi ktor</w>
Res ult</w>
Kas em</w>
Co ch
Coch ran</w>
2 4-year-old</w>
sp ies</w>
ampu tee</w>
expen ses</w>
197 0</w>
Tre isman</w>
R E
middle- class</w>
Ag ent</w>
ali e</w>
B ever
Bever ly</w>
calend ar</w>
evalu ate</w>
vi able</w>
Pon zi</w>
che ers</w>
Chang ing</w>
viol ate</w>
carto on</w>
whe el
sh ocking</w>
Mal dives</w>
cr acked</w>
f asc
st resses</w>
kn ife</w>
Hav ana</w>
G T</w>
cl ot</w>
S later</w>
qu ite</w>
an th
si sters</w>
C oo
Celebri ty</w>
equ ivalent</w>
Contin ental</w>
ga e</w>
tr icky</w>
cor d</w>
def enders</w>
Ou sted</w>
comp iled</w>
Sti mul
def un
adop t</w>
cover t</w>
DH S</w>
sl ums</w>
ple -
p acked</w>
Te achers</w>
aff iti</w>
ran ts</w>
char ts</w>
Beth lehem</w>
Su z
7 3</w>
G eb
dang ers</w>
extr a-
Par ts</w>
Me et</w>
r ick</w>
gradu ate</w>
P ra
Sc or
Motor ola</w>
L ater</w>
Pri us</w>
B oul
domin ant</w>
An dr
re imbur
fe it</w>
atr ics</w>
perform ances</w>
B ass</w>
em es</w>
fi anc
am ateur</w>
surve yed</w>
bene ath</w>
Dak ota</w>
V il
inter c
fre sh
swit ched</w>
Chall enge</w>
sol itary</w>
ad er</w>
O ff</w>
cul tiv
Mor ning</w>
sp ree</w>
c ogn
ali en
el ded</w>
observ ation</w>
Hut ch
Roth kopf</w>
Marsh all</w>
fla v
de terr
scen ic</w>
ob lig
Inc umbent</w>
Awl aki</w>
mete or</w>
bat sman</w>
West wood</w>
Mo di</w>
exec ute</w>
H G
over weight</w>
Eu gene</w>
F ellow</w>
c ent</w>
Reb ecca</w>
costum es</w>
vi o</w>
Sil vio</w>
Os bourne</w>
H anks</w>
abor tions</w>
im per
Gar ros</w>
cor porate</w>
M ide
Wri te</w>
B in
Hav ing</w>
j ean</w>
Bon jean</w>
situ ations</w>
m erc
Kick starter</w>
alleg iance</w>
satis fied</w>
stri des</w>
il ai</w>
reluc tant</w>
m ocked</w>
un fair</w>
pros pects</w>
insul ting</w>
1, 3
Manc ini</w>
dis close</w>
Princ ipal</w>
tough er</w>
fire arm</w>
in gham</w>
convic ts</w>
Shoot ing</w>
Iri shman</w>
som ebody</w>
spac es</w>
ventil ator</w>
tough est</w>
Tri ple</w>
C PR</w>
S essions</w>
contr acted</w>
Mis sing</w>
Pati ents</w>
sign als</w>
ubl in</w>
dum p</w>
in sensitive</w>
comm emor
crip pled</w>
distur bing</w>
sem is</w>
T welve</w>
compen s
qu ad
10 0-
Mide ast</w>
S A
pur portedly</w>
comb ine</w>
Marri ott</w>
immun ity</w>
Nor ton</w>
bli zz
ver ify</w>
T ourn
Tourn ament</w>
Pr osecution</w>
long- distance</w>
bir d</w>
ide ology</w>
Be ing</w>
c ell
refl ected</w>
instru ments</w>
presid ent-elect</w>
F on
Ga al</w>
accu sation</w>
weir d</w>
tack les</w>
t resp
tresp assing</w>
hi k
sh ell</w>
cast s</w>
expl ained</w>
fr aud
interrog ation</w>
el usive</w>
hin ts</w>
ru ins</w>
Bern ie</w>
sing le-
sour cing</w>
worsen ing</w>
y ards</w>
n au
nau tical</w>
thro at</w>
Good ell</w>
Hu ge</w>
th aw</w>
Nic ar
bil lion-dollar</w>
ran ch</w>
Hor se</w>
T amils</w>
melt down</w>
Nat al
griev ing</w>
Or ph
e- based</w>
Corn yn</w>
cont ention</w>
acqu ired</w>
arti facts</w>
pour ed</w>
on d
cont ends</w>
Conserv atives</w>
pi res</w>
un necessary</w>
am ous</w>
fi x
frag ile</w>
John ny</w>
aw ake</w>
motorcycl ist</w>
A ruba</w>
develop ments</w>
C o</w>
Z en
cong ress</w>
euthan ized</w>
leve e</w>
ac on</w>
Doh a</w>
Spring steen</w>
c af
d ancing</w>
rela xed</w>
stret ches</w>
ha iled</w>
3 .5</w>
Sol ar</w>
hun gry</w>
conf ession</w>
le aker</w>
ex pulsion</w>
contam inated</w>
P esh
particip ated</w>
Fre sh</w>
radio active</w>
turn around</w>
in stitution</w>
jihad ists</w>
Shar if</w>
2 7,000</w>
of ol</w>
d- placed</w>
Wei wei</w>
Heb do</w>
tur key</w>
campaig ner</w>
wh atever</w>
ot ech</w>
Blas io</w>
bal let</w>
deal t</w>
G ra
P ep
Terror ists</w>
as -
S or
am me</w>
er u</w>
dis closure</w>
Liv ing</w>
li o</w>
ret ained</w>
attribu ted</w>
AI G</w>
uc ca</w>
real istic</w>
Gram mer</w>
er re</w>
ast y</w>
w led</w>
b b
E qu
J ab
Ry bol
sb ane</w>
Bri sbane</w>
F inal</w>
pois oned</w>
Kyrgy z
Kyrgyz stan</w>
hom ophobic</w>
acti vism</w>
Cros s
b alls</w>
self-im mol
stri p</w>
rush ed</w>
n els</w>
tun nels</w>
B ar</w>
Re igning</w>
As sy
Seneg al</w>
E mp
Observ ers</w>
urg en</w>
J urgen</w>
form ula</w>
exc iting</w>
2 2,000</w>
st ation
Veg a</w>
Mad off</w>
urg ent</w>
under stood</w>
un le
portr ayed</w>
dr ills</w>
s ch</w>
J i-
pres ented</w>
blog gers</w>
tr ails</w>
i ents</w>
w ill
A br
14 ,000</w>
peri ods</w>
meaning ful</w>
dec eased</w>
ali er</w>
ostalg ia</w>
Ray mond</w>
Sal am</w>
con fined</w>
New sp
Cle menti</w>
Mon tre
E una</w>
monit ored</w>
Wolf sburg</w>
H .W.</w>
tre ats</w>
sl ower</w>
enti als</w>
min i
By r
ick i</w>
us sions</w>
re v
revolution ize</w>
le .com</w>
Proc e
Proce eds</w>
os a</w>
i Report.com</w>
under stands</w>
Ros ie</w>
per spective</w>
. 8</w>
Oz il</w>
intr uder</w>
am ine</w>
im moral</w>
Est onia</w>
prov ision</w>
Man ufactur
lit sch
K litsch
Klitsch ko</w>
sk ier</w>
k iss</w>
vir tually</w>
B ak
Altern ative</w>
emb argo</w>
T had</w>
start- up</w>
defin ing</w>
Ren ault</w>
challeng er</w>
Par t
hybri d</w>
chi ps</w>
chen g</w>
hum ane</w>
4 0-
Bac hel
bo o</w>
gall eries</w>
Gi ants</w>
Bl og
t ying</w>
2 3-
bos ses</w>
j ections</w>
os a
year ly</w>
resil ient</w>
t ments</w>
earth ed</w>
bran ch</w>
en cryp
H ang
lo ose</w>
Tou ch</w>
concer ts</w>
attend ance</w>
k off</w>
anc estors</w>
Cho i</w>
neu tral</w>
exac erb
accel er
Â </w>
snip er</w>
G as</w>
Po eh
Poeh ler</w>
Congres sman</w>
Andr e</w>
us ra</w>
N usra</w>
T a
15 5</w>
grand daughter</w>
tic k</w>
po ison</w>
As si
n ights</w>
ur ship</w>
re vit
en son</w>
Sikh s</w>
zomb ie</w>
G ay
od ically</w>
phot ograph</w>
F ed</w>
month- old</w>
kil ome
perpe trators</w>
wi reless</w>
sn atch</w>
Fab io</w>
M az
nic he</w>
devast ated</w>
1 ,0
d les</w>
Sul livan</w>
overwhel med</w>
t ub
assu me</w>
nu ts</w>
festi vals</w>
S ir
acc using</w>
tun es</w>
Bit coin</w>
stri ps</w>
grad ually</w>
Def ence</w>
K ac
Karrub i</w>
hard est</w>
Nick linson</w>
re ll</w>
1. 9</w>
fet us</w>
Ch est
Chest nut</w>
ac ious</w>
Ros en
- only</w>
bod yguard</w>
Jen son</w>
er i</w>
di gging</w>
r s</w>
scape go
Mic key</w>
stig ma</w>
sec tions</w>
Mean while</w>
hand held</w>
Su st
est a</w>
Nob ody</w>
Cub ans</w>
E aster</w>
vir ginity</w>
clean up</w>
McF aul</w>
Traditi onal</w>
et e</w>
o di
motiv ation</w>
con sp
F O
Vit ter</w>
3 50,000</w>
p ipe</w>
Roosevel t</w>
gr ads</w>
E .
Sent ence</w>
si zes</w>
im poses</w>
t oddler</w>
Icel and</w>
Sh ut
Pow er
conv entional</w>
cl ues</w>
right- to-
Mous savi</w>
invest ed</w>
H ard</w>
enrich ment</w>
Mir on</w>
over looked</w>
rec laim</w>
D ie</w>
he els</w>
doc k</w>
sle e</w>
L av
asth ma</w>
Le ave</w>
sub marine</w>
Bar nes</w>
H earing</w>
difficul ties</w>
predic tions</w>
vent ure</w>
warran ts</w>
K raft</w>
pur poses</w>
ultr a-
re pri
a the
Ch erry</w>
Gil bert</w>
Sev en
R ising</w>
ug ly</w>
por ation</w>
wa ivers</w>
S F</w>
emp ire</w>
mic ro
roll ing</w>
en sic</w>
Doc uments</w>
pu zz
al ty</w>
Sch mitt</w>
crush es</w>
Mel anie</w>
Sh ia</w>
In quiry</w>
28 ,000</w>
w n</w>
anx iety</w>
Pol icy</w>
e av
ad justed</w>
USN S</w>
wh ereabouts</w>
Mu eller</w>
voc al</w>
bud gets</w>
necess arily</w>
fing ers</w>
FE MA</w>
ass ess</w>
N af
Am endment</w>
car es</w>
l ec
er ences</w>
licen sed</w>
L ump
guaran tees</w>
surg eons</w>
feed s</w>
Bal let</w>
I mp
F CC</w>
Man agement</w>
Mc Cor
ligh ting</w>
ud a</w>
Dominic an</w>
Hub ble</w>
organiz er</w>
coun ties</w>
P f
m ob</w>
notic ed</w>
pe di
Wid ow</w>
amb ush</w>
occup ants</w>
mus ician</w>
bre aches</w>
ul ate</w>
, 200</w>
Stat ement</w>
Nov .</w>
T our
show down</w>
Ex c
In surance</w>
sub sequ
S aid</w>
prom otion</w>
self- inflicted</w>
int oler
neglig ence</w>
class -action</w>
ra h</w>
P ur
re vo
comm entary</w>
s way</w>
au then
stead ily</w>
Cir cuit</w>
ab sence</w>
Nicar agu
Com edi
ff le</w>
rac ed</w>
cr acks</w>
inv est</w>
house holds</w>
elector ate</w>
ch iefs</w>
Michoac an</w>
Econom ic</w>
sub mit</w>
Alas kan</w>
K ofi</w>
Ch ec
ex us</w>
Mar icopa</w>
Carac as</w>
involun tary</w>
cy an
in action</w>
Ljub icic</w>
publ isher</w>
dub bed</w>
E F
Hol br
Mal colm</w>
Krem lin</w>
on n</w>
Heming way</w>
renew able</w>
Asi ans</w>
fre el
sl ur</w>
Sav ing</w>
s and</w>
vit ro</w>
flu id</w>
bur den</w>
ation ing</w>
ke y
on board</w>
affil iated</w>
crow d
cab ins</w>
Pl ans</w>
battle ground</w>
Boo ker</w>
tast e</w>
M aine</w>
hash tag</w>
fron t-
ham mer</w>
e ka</w>
mor tality</w>
San ford</w>
re ef</w>
H S</w>
ar ter
196 8</w>
consist ently</w>
Pesh merga</w>
Fre in</w>
c attle</w>
aw esome</w>
repe ated</w>
thr ashing</w>
emphas is</w>
form at</w>
cr amp
op ted</w>
Y et</w>
sp reading</w>
att ends</w>
a e</w>
Gu y</w>
Jac ob</w>
Car ds</w>
top pled</w>
An tar
Leg isl
Cathol ics</w>
O RC</w>
Sh in</w>
marath ons</w>
1 3-
ri fe</w>
pas ser
acknow ledge</w>
bum p</w>
id o</w>
sim pl
L N</w>
e house</w>
box es</w>
Abd el</w>
direc tors</w>
dres sage</w>
appro ached</w>
low- cost</w>
X ilai</w>
br ow
spr ay</w>
Cast le</w>
Seg ovia</w>
Ev idence</w>
Cris is</w>
oc eans</w>
artis tic</w>
escal ate</w>
8 0-
prov oked</w>
Or bit
po aching</w>
K ati
jer sey</w>
B ad</w>
W inners</w>
Previ ously</w>
overshad owed</w>
ext ending</w>
sm ashed</w>
autom atically</w>
or mous</w>
he ed</w>
pre cau
les bians</w>
autis tic</w>
50- foot</w>
Vietnam ese</w>
the ories</w>
priv il
Dak ar</w>
appl icants</w>
dist ress</w>
ori entation</w>
ad en</w>
Shep pard</w>
fab ric
Plan et</w>
C C
j an
bath room</w>
hy per
app lies</w>
bru tality</w>
S tern</w>
lo g</w>
trans plants</w>
odd ard</w>
sign ations</w>
depos its</w>
Cor nell</w>
A sa
Fif teen</w>
ann oy
M V</w>
P us
Ev ent</w>
Am ir</w>
enti a</w>
P ack
le ep</w>
min d
s ke
kn ives</w>
e go</w>
oy a</w>
c ater</w>
err o</w>
Qu entin</w>
ind ers</w>
adop tive</w>
tac he</w>
im balance</w>
or ette</w>
photograph ers</w>
eav es
Di Mag
e. g
p av
Bos tick</w>
pic tured</w>
interf ere</w>
il ic</w>
Inv estors</w>
v re</w>
eg es</w>
ind y</w>
re d-
ver tical</w>
intensi fied</w>
est ry</w>
accel eration</w>
ip mun
L ana</w>
au cr
Kati e</w>
M ap
ur ora</w>
mis led</w>
simul tane
imp as
ie ties</w>
vis itation</w>
As ked</w>
b ang</w>
dem ise</w>
Bar cla
age ous</w>
din ing</w>
Antar ctic</w>
H agg
sol id
l ery</w>
Rec ord</w>
engine ers</w>
re aucr
s warm</w>
plo y</w>
wor st-
fer able</w>
speci alizes</w>
emis phere</w>
Brand t</w>
Hos sein</w>
A ja</w>
G is
pris ons</w>
down loading</w>
M U</w>
Mag azine</w>
hij ackers</w>
g ad
Pol e</w>
Alvar o</w>
ar oo</w>
Kim ber
wri te
S oll
I H</w>
un earthed</w>
incor rec
incorrec t</w>
barg ain</w>
Ru sty</w>
st ated</w>
un g-
Re ef</w>
ji had</w>
king dom</w>
ne ath</w>
Banglades his</w>
hur ts</w>
Fu qu
cross roads</w>
distr act</w>
accep ts</w>
J oy
Pos tal</w>
sec uring</w>
en ormous</w>
Ch iev
M end
Mend es</w>
A bor
gen e
b ats</w>
nas tics</w>
Un ique</w>
Arab s</w>
Vide os</w>
tou ted</w>
Aguil era</w>
I AE
in conclusive</w>
En zi</w>
Willi e</w>
cover -up</w>
b il</w>
Christ ine</w>
atis m</w>
escap es</w>
on- to-
Qu ake</w>
tribu tion</w>
tri bes</w>
s ings</w>
employ er</w>
Emil y</w>
Kais er
ent ative</w>
um ul
direc ts</w>
conduc ts</w>
r ounded</w>
Petr o</w>
13 5</w>
Contr oll
U s</w>
F arrell</w>
h ill
Gu itar</w>
at- related</w>
ID F</w>
comm ands</w>
E A</w>
amm ers</w>
lod ge</w>
ro ot</w>
en ia</w>
cre am</w>
Chand ra</w>
lamp o
7 .
br anded</w>
ud is</w>
Y uli
ap i
uph olds</w>
prin ters</w>
as ol
n ostalgia</w>
dynam ic</w>
wid ower</w>
E TA</w>
od g
portr ayal</w>
Leg endary</w>
dis m
No ah</w>
inten sity</w>
year- old</w>
Fred eric
ol i</w>
Pro- Russian</w>
mic r
won dered</w>
secon d
os op
Mc Kin
O le</w>
K s</w>
Am el
Hen in</w>
scre ens</w>
1. 8</w>
T op
P Cs</w>
bar ely</w>
E ti
fre ak</w>
e- commerce</w>
K hawaja</w>
front- runner</w>
reit erated</w>
V onn</w>
ad rift</w>
am ond</w>
Play boy</w>
tis sue</w>
Cl ancy</w>
emp tion</w>
bre a
an ist</w>
Thir teen</w>
us to</w>
bl unt</w>
wit n
ester ol</w>
hon orable</w>
Pul itzer</w>
I mag
p ster</w>
enthusi asm</w>
pl ot
iff s</w>
Ar ro
E ve</w>
der ail</w>
Pear son</w>
ul co</w>
En quir
M ans</w>
3 5-
Ch ua</w>
cre s</w>
Get ty</w>
pos edly</w>
es man</w>
tow ers</w>
DV D</w>
- Carl
char t</w>
G ali
Bel fi</w>
po dium</w>
Her z
interrog ated</w>
Spo tify</w>
D -
deliber ations</w>
R ous
m el</w>
Ast ana</w>
publ ishers</w>
Fur st
H LN</w>
Hash emi</w>
ke ter</w>
Mar ilyn</w>
7 6
9 4</w>
Bomb </w>
New som</w>
c am</w>
aw bone</w>
Bab e</w>
altern atives</w>
F ey</w>
ret ail</w>
it -
a e
The ater</w>
fati g
tem ples</w>
Dre am</w>
Trans formers</w>
sh ot
oll ywood</w>
Con dol
Se par
ist on</w>
Fire fighters</w>
head er</w>
R overs</w>
b n</w>
ta o</w>
proper ties</w>
reg ards</w>
lef tist</w>
dis solve</w>
manus cript</w>
Li ons</w>
am an</w>
lin king</w>
ac comp
in ge</w>
ment ary</w>
Rob aina</w>
Al er
Shir ley</w>
14 9</w>
mar red</w>
ingu ished</w>
tis ers</w>
2 28</w>
Card ona</w>
de ter</w>
e ys</w>
pre s</w>
S N
Ab h
can al</w>
ch rist</w>
L il</w>
att acker</w>
B is
bu ff
rap es</w>
ch asing</w>
o- based</w>
show case</w>
poll o</w>
comm ando</w>
17 5</w>
Tot al</w>
San jay</w>
R ival</w>
tr ac
Con vic
Gol an</w>
Z ard
Hagg ard</w>
run gu
Gu ests</w>
l ene</w>
V ox</w>
an as</w>
Clar ence</w>
Tw ain</w>
4- 3</w>
ref usal</w>
hos tilities</w>
ML S</w>
Khal ed</w>
t any</w>
id ded</w>
S ame</w>
Peter son</w>
son ar</w>
frequ ent</w>
Pic asso</w>
st amp</w>
repres sion</w>
n ice</w>
br ed</w>
Prob le
pro ar</w>
tr un
SEA Ls</w>
re fueling</w>
accompl ishment</w>
dum ps</w>
Le ung</w>
sex u
aw n</w>
Kur ds</w>
E sti
T oc
f end</w>
K ings</w>
F athi</w>
half- hour</w>
b ill
hard- working</w>
bl ow
dem ograph
au f
ol o</w>
IC U</w>
Gl as
ath ani
Al mag
up -
in ded</w>
fi an
fian akis</w>
bra wl</w>
c ured</w>
rob bed</w>
P .</w>
p acks</w>
wor th
ys burg</w>
mand ates</w>
Le ft</w>
Pat riot</w>
jun ta</w>
A cap
co ordin
d ging</w>
son ian</w>
qu ette</w>
revol t</w>
ol ic</w>
com promised</w>
stres sed</w>
con sum
sculp tures</w>
Gl ob
bo on</w>
p- hop</w>
Chap el</w>
ti ll</w>
ang a</w>
Ash raf</w>
Jin tao</w>
dest ab
challeng ing</w>
app le</w>
Good will</w>
rel ates</w>
sw ath</w>
j ockey</w>
Gig lio</w>
shi eld</w>
Prot est</w>
Nad e
surg eries</w>
un se
Me ets</w>
N ag
ous and</w>
ti fied</w>
bel t</w>
ex ternal</w>
d led</w>
f ain
N ever
0 K</w>
e time</w>
St o
k iv
M ake</w>
o th</w>
Pic ower</w>
inv iting</w>
C all
tri be</w>
inter act</w>
R amb
Chap o</w>
o ids</w>
pe ers</w>
N athani
Wol fe</w>
ough s</w>
Ro ads</w>
Pl at
ag o
wor thy</w>
er ney</w>
ul arly</w>
nu kes</w>
subsequ ent</w>
em ade</w>
H HS</w>
Ri ot</w>
mis conc
Le ch</w>
M T</w>
sp a</w>
ell ini</w>
Tong a</w>
Bl acks</w>
avi es</w>
Jan ko</w>
ob serve</w>
mobil ized</w>
Scal ia</w>
y fish</w>
Ad dison</w>
P att
Ch at</w>
1. 1</w>
la ying</w>
G ina</w>
negoti ator</w>
Americ as</w>
collabor ation</w>
ki w</w>
vis ion
reloc ated</w>
or ie</w>
don ation</w>
depend ence</w>
im ately</w>
Furst enberg</w>
Arn old</w>
196 4</w>
C omb
specific ally</w>
Zard ari</w>
2 70</w>
certain ly</w>
F ew
d- be</w>
oul d-be</w>
tre prene
K um
John ston</w>
list en</w>
tr ate</w>
fast est-
Conserv ation</w>
In dies</w>
sa i</w>
Ele mentary</w>
e em
suppor tive</w>
ess entially</w>
Ka sa
ph ins</w>
hot spot</w>
ing a</w>
the- art</w>
t on-
ump f</w>
Schl umpf</w>
fortun ately</w>
Lithu ania</w>
b ors</w>
rungu </w>
pec tive</w>
C pl
E ruption</w>
4 x
sit -in</w>
mer ia</w>
Al meria</w>
legisl ators</w>
K lu
C alls</w>
el o</w>
r owing</w>
n avy</w>
10 00</w>
assass inate</w>
d as
water fall</w>
disa greed</w>
sw ear
as ma</w>
month- long</w>
Te ams</w>
D ating</w>
Tor re</w>
Athle tes</w>
I F
sett ings</w>
rap id</w>
Sp a</w>
re think</w>
ang ir
v angir
fatig ue</w>
ox ide</w>
consolid ate</w>
Develop ed</w>
em aker</w>
d ick</w>
sou thwestern</w>
pr ag
C iti
dep icts</w>
ele ton</w>
i el</w>
ra ys</w>
O h
Eff ect</w>
man -
bro th
g ate
comp are</w>
Enquir er</w>
home grown</w>
aver t</w>
In n
rand om
Steph ens</w>
bo ots</w>
Pa z</w>
O Ks</w>
ess y</w>
V ince</w>
F idel</w>
Cpl .</w>
re tri
Hag ar</w>
4- 2</w>
stran gers</w>
Icel and
succ esses</w>
brea the</w>
7 5,000</w>
C agli
Cagli ari</w>
under mine</w>
mor ality</w>
identi fying</w>
U ber</w>
Alber to</w>
m og
recor der</w>
r iles</w>
I ED</w>
see ker</w>
ob o</w>
H ell
difficul ty</w>
A pollo</w>
Ed win</w>
d eng
Ji had</w>
Pan as
Val erie</w>
impas se</w>
e ti
Cu ts</w>
Manufactur ers</w>
R out
iti ons</w>
bre ed</w>
rob bers</w>
ing- class</w>
Phot o</w>
gu it
Sal dan
Sh ow
dynam ics</w>
Rw andan</w>
al os</w>
4 0th</w>
bre ad</w>
Sa udis</w>
p ants</w>
revi ve</w>
L ack</w>
Napol eon</w>
ep ati
Hen son</w>
Mon th</w>
t ance</w>
Ghana ian</w>
mal es</w>
Del eg
det ectors</w>
in z</w>
down load</w>
Ne bras
Nebras ka</w>
G D
Foot Golf</w>
fl ares</w>
Cop eland</w>
pre mis
Shi ps</w>
Ji ab
Jiab ao</w>
intimid ation</w>
annoy ance</w>
s ounded</w>
def ector</w>
gros sing</w>
ar ing</w>
Deb ra</w>
Re za
NH L</w>
h of
recomm end</w>
se als</w>
are well</w>
M P
st alled</w>
Fuqu a</w>
Brit tany</w>
hard ware</w>
g ie</w>
gener ated</w>
co inc
ful filled</w>
t ut
Pr ab
Bar nett</w>
fl ops</w>
I B
od er
- sized</w>
respon ders</w>
fertili zer</w>
blood shed</w>
y mar</w>
Ab be
investig ates</w>
ac ies</w>
Natal ee</w>
memor able</w>
rem otely</w>
20 50</w>
T elec
war ri
U pper</w>
re signations</w>
Un it</w>
M ig
Mig uel</w>
E than</w>
bub ble</w>
su f
t wins</w>
admir al</w>
Sam an
Saman tha</w>
im ported</w>
ex ams</w>
open ness</w>
Den ison</w>
boos ted</w>
T as
p age
kidn appings</w>
H odg
g ress</w>
Pro gress</w>
out going</w>
Er ic
cocon ut</w>
athle tics</w>
U sher</w>
Val le</w>
infring es</w>
plan ted</w>
Bel grade</w>
amm ate</w>
sign al</w>
oder ling</w>
S oderling</w>
bi ological</w>
m m</w>
Sain z</w>
mu st-
DiMag gio</w>
Pix ar</w>
f inger</w>
pol o</w>
se d
clin ical</w>
B rem
t end
gu ardi
H usband</w>
Explor er</w>
er ran
W as</w>
Glas g
ie g
V ed
Ved der</w>
sl ashed</w>
Vol vo</w>
Cri me</w>
fr ame</w>
aw al</w>
Az iz</w>
y- winning</w>
R itz
dro be</w>
shi elds</w>
recru it</w>
y ip</w>
a es
IAE A</w>
stereotyp e</w>
Now sch</w>
ri x</w>
Ritz -Carl
sl al
oy age</w>
v oyage</w>
cont ainer</w>
king pin</w>
under age</w>
T ele
S ons</w>
over see</w>
ex agg
bet t</w>
der ful</w>
beat ings</w>
persu ade</w>
Glen n</w>
resent ment</w>
Dai ichi</w>
Haw k</w>
cour thouse</w>
re married</w>
Mon sters</w>
l ing
fam ine</w>
imm une</w>
Agr iculture</w>
ag ne</w>
Pin era</w>
Prot ect</w>
h ec
bish ops</w>
1 7-
Thir ty</w>
r ent</w>
eg an
Y egan
mos ques</w>
Uygh ur</w>
sing er-
m phoma</w>
ly mphoma</w>
stal king</w>
Char lot
7 -0</w>
scar red</w>
Rem ember</w>
N Z</w>
conver ts</w>
A D</w>
Z ur
Zur ich</w>
k ata</w>
C ran
stab bing</w>
mut ually</w>
e ah</w>
J ustices</w>
Fe w</w>
W are</w>
Am man</w>
occup y</w>
inj ures</w>
T and
extinc tion</w>
erran ean</w>
Beat les</w>
W ear</w>
Complain ts</w>
public ity</w>
ti ffs</w>
air lifted</w>
C ent
Sun dance</w>
Lump ur</w>
tex ts</w>
br own</w>
k itch
Abor tion</w>
l acked</w>
Gonzal o</w>
Te ammate</w>
D rive</w>
par c
he in
hon oring</w>
quot ed</w>
T ow
S li
for ge</w>
all o</w>
gr o</w>
resol utions</w>
Man m
sup posedly</w>
out put</w>
med ically</w>
s ance</w>
Cr ystal</w>
boo th</w>
stre ams</w>
sink hole</w>
hein ous</w>
sl ick</w>
er em
on gh
str ongh
specul ate</w>
E dith</w>
Hend erson</w>
J. K.</w>
y en</w>
down ward</w>
il ian</w>
form ing</w>
do be</w>
Buck ley</w>
as ectom
ro ofs</w>
Am er
old- school</w>
s ington</w>
Ken sington</w>
m i</w>
guaran tee</w>
di ving</w>
super yacht</w>
gr affiti</w>
20 s</w>
Q az
shot gun</w>
st ell
mar rying</w>
Newsp aper</w>
with stand</w>
bot ched</w>
mand ated</w>
A ge</w>
ation ist</w>
subscri bers</w>
det ection</w>
Bonn aroo</w>
enti rely</w>
awa z</w>
exc av
Mar cel
T .J.</w>
part y-
West on</w>
C um
dem ographic</w>
e. org</w>
B last</w>
colon i
das co</w>
color ful</w>
off erings</w>
Cru m</w>
ri tis</w>
bus h
w ers</w>
Vie wers</w>
Hob bit</w>
Milit ant</w>
ed on</w>
res urg
resurg ence</w>
Lag os</w>
sc am</w>
acad emics</w>
Kat z</w>
Cre ek</w>
Kar l</w>
Lub itz</w>
plat forms</w>
tr um
demonstr ated</w>
dis gu
arch s</w>
R ingo</w>
appl ications</w>
l up
tour ed</w>
bar ge</w>
Thir d-placed</w>
dec ry</w>
W ool
tal a</w>
Disa ster</w>
L ED</w>
al- Nusra</w>
Bo x
random ly</w>
bi kes</w>
Gu ad
T wil
Kind le</w>
sk ill</w>
Hak ken</w>
ec ito</w>
Soll ecito</w>
innov ate</w>
ex clud
N uri</w>
scram bling</w>
tam ine</w>
F as
amb ition</w>
Di amond</w>
en tr
L ol
sear ch-
in arian</w>
Mal don
Car s</w>
Nicol aus</w>
Ro om</w>
W ant</w>
mag ni
rep ly</w>
Nat alie</w>
Un like</w>
Ar ti
gu m</w>
integr al</w>
ro e</w>
day time</w>
Br ou
sp ouse</w>
B -
spot -
Chiev o</w>
t ysburg</w>
Cl ose</w>
ash ville</w>
Sci ence</w>
th- grader</w>
My cos
Mycos k
Mycosk ie</w>
experi encing</w>
or iti
def amation</w>
F M</w>
sem ents</w>
prot otyp
od us</w>
Huff ington</w>
kic king</w>
Ken y
pr opul
l ucky</w>
as leep</w>
ent able</w>
, 700</w>
ter son</w>
t ec</w>
C ut
di stor
Ar bitration</w>
Fl oyd</w>
Mon jack</w>
Yuli a</w>
ot ta</w>
so ap</w>
Com ments</w>
war -
Saf ina</w>
cycl es</w>
qui to</w>
fi ref
coll ecting</w>
sk idded</w>
2. 4</w>
G abor</w>
predic table</w>
char ted</w>
cancell ation</w>
le igh</w>
mud slides</w>
adverti sed</w>
controversi es</w>
ph ant</w>
Ele phant</w>
bar riers</w>
habit ats</w>
W ah
Wah lberg</w>
prof iles</w>
prop ose</w>
B .</w>
Cor poration</w>
tu gboat</w>
Legisl ation</w>
s miles</w>
blizz ard</w>
ann esburg</w>
sign ature</w>
ad ul
adul tery</w>
Conn ick</w>
out age</w>
trem endous</w>
apprec iation</w>
pri or</w>
N em
ver ge</w>
rival ry</w>
Manm ohan</w>
vol ume</w>
new com
y es</w>
et ch</w>
Under ground</w>
F ig
authen tic
state- of-
p ac
J ourney</w>
mechan ical</w>
go ers</w>
sett les</w>
mirr or</w>
th and</w>
respon ses</w>
apocalyp tic</w>
year- long</w>
w ol
Br un
regul ated</w>
deng ue</w>
hi ke</w>
U sain</w>
al tar</w>
f os
pre mature</w>
accompl ice</w>
suf zai</w>
You sufzai</w>
w ished</w>
Gam ers</w>
0 9</w>
heart beat</w>
end ation</w>
K and
inf idelity</w>
educ ators</w>
W oody</w>
R az
on y
ob vi
non- profit</w>
Gh ost</w>
ch ed
res ched
per ed</w>
hi kers</w>
Por to</w>
tast es</w>
2 2-
N ina</w>
Mau ri
Ham d
Hamd ani</w>
staff er</w>
6 0th</w>
Rip ken</w>
anim ous</w>
L akes</w>
mid t</w>
Sch midt</w>
ail ey</w>
M ain</w>
dis credit</w>
pr ank</w>
imag ined</w>
k ell</w>
Has kell</w>
ad mission</w>
Bl itzer</w>
out let</w>
h ubs</w>
n od</w>
Spe ech</w>
advis ories</w>
Bre aking</w>
ten ant</w>
Hell yer</w>
ob struc
clean ing</w>
stor y
campaig ners</w>
oph et</w>
1 12</w>
hy po
th ood</w>
du g</w>
Acc ident</w>
Five- time</w>
gest ure</w>
5- 4</w>
An v
an n</w>
princ ip
C ops</w>
far es</w>
g est-
e- sex</w>
Sam e-sex</w>
lo id</w>
Pharmac eu
Steph anie</w>
Jam al</w>
parach ute</w>
L akers</w>
T ev
sacrif ice</w>
author ization</w>
di er
develop er</w>
Gramm ys</w>
assign ment</w>
Marsh als</w>
August a</w>
As k</w>
pl u
vacc inated</w>
st oning</w>
XX III</w>
est y</w>
om be</w>
is ms</w>
Pe yton</w>
st ad
stad iums</w>
lup us</w>
ignor ance</w>
sty les</w>
Sha kh
organ ize</w>
back grounds</w>
sid ers</w>
ho ax</w>
yi eld</w>
wi pe</w>
succe eds</w>
neglig ent</w>
res titution</w>
Spokes woman</w>
H ost</w>
th ousand</w>
ov ing</w>
an them</w>
explo ited</w>
Ch ancellor</w>
vac ationing</w>
de pen
Fol ey</w>
y gam
au x
Film maker</w>
Civ il
id ance</w>
Vill age</w>
or dering</w>
attit ude</w>
gar den</w>
T end
demograph ics</w>
si e</w>
igh t-
hik ori</w>
pen e
Rob ot</w>
190 1</w>
4 47</w>
graph ics</w>
accommod ate</w>
F all</w>
r ode</w>
H D</w>
de pri
Green field</w>
B ellini</w>
S oh
Sn ip
vig or
8 50</w>
inj ected</w>
attend ant</w>
f ten</w>
H ot</w>
iti me</w>
Sus p
Fro ome</w>
m essy</w>
ampu tees</w>
fl ing</w>
s ank</w>
ra x</w>
distribu ting</w>
re tribution</w>
W ood</w>
D ublin</w>
V augh
C able</w>
Lam bert</w>
A S
evol ve</w>
Sir te</w>
th sonian</w>
In iti
comm its</w>
EA R</w>
enc er</w>
Sp encer</w>
ke en</w>
Z in
Spe ak</w>
war drobe</w>
es el</w>
cont end</w>
hij ack</w>
on t
Sal ahi</w>
y- to-
D ri
ne v</w>
zh nev</w>
off beat</w>
d itch</w>
Har is</w>
R iders</w>
cap tors</w>
bur ger</w>
Yegan eh</w>
fil ly</w>
op illa</w>
Toc opilla</w>
inaug ural</w>
S r.</w>
accomp ani
accompani ed</w>
eh ya</w>
Y ehya</w>
7 77</w>
dest ined</w>
op ic</w>
man i</w>
Ch er
o h</w>
metr o</w>
crip pling</w>
O val</w>
om iting</w>
v omiting</w>
X -
sa cred</w>
Rat ley</w>
v i</w>
emp his</w>
Med it
Medit erranean</w>
ster oids</w>
al o</w>
mar ty
marty rs</w>
birth place</w>
Comedi an</w>
fi k</w>
Cl ick</w>
In tr
Mon te
at oes</w>
Y ing
Ying luck</w>
2 60</w>
grad ing</w>
H ours</w>
Cor bett</w>
psychi atrist</w>
car eg
gr ower</w>
D at
buc k</w>
L in</w>
cat astr
tum or</w>
D ana</w>
co aching</w>
commun ist</w>
f uturistic</w>
Sy ed</w>
Aim ee</w>
handcu ffs</w>
J ail</w>
M a</w>
Tra ining</w>
Mas sive</w>
depar ted</w>
A DH
ADH D</w>
mon keys</w>
law n</w>
ar ta</w>
New ton</w>
ev ille</w>
E asy</w>
C T</w>
Sch i
man agers</w>
Adeb ayor</w>
inst alled</w>
R onn
shoot -out</w>
insp ect</w>
clear ing</w>
publ ishes</w>
Tev ez</w>
4 S</w>
he tamine</w>
amp hetamine</w>
M S
West min
Westmin ster</w>
bu reaucr
dom ain</w>
Nis hikori</w>
exc ess</w>
sup press</w>
Mer i
prev entable</w>
land scape</w>
Histor ian</w>
induc ed</w>
unve il</w>
th wart</w>
urg ency</w>
prec eded</w>
dat a-
sal aries</w>
Ow ners</w>
Ka es
Kaes ong</w>
FA MU</w>
mi x
ber ian</w>
- language</w>
j orn</w>
mon ks</w>
Mil os</w>
lab eled</w>
and ro</w>
six- month</w>
sail boat</w>
repatri ated</w>
4 1st</w>
G lee</w>
v il
Mar tel
videot aped</w>
r att
Chern ob
Pl ac
Blo om</w>
Gr owing</w>
An t
hy dr
doub le-
Sin ai</w>
Con t
conven ience</w>
snow fall</w>
bul le
f old</w>
chair s</w>
sc ans</w>
W rec
at eng</w>
Bo ateng</w>
revo ked</w>
C lau
H eller</w>
Band stand</w>
consen sus</w>
ner vous</w>
K illing</w>
De Gen
DeGen eres</w>
dier no</w>
O dierno</w>
ieg el</w>
Nor thwest</w>
destab il
r af
j j</w>
Ha jj</w>
Ch it
star vation</w>
decision- making</w>
hib ian</w>
publ ici
in kley</w>
af fir
hero ine</w>
Buil ding</w>
Qaz vin</w>
ey e
int el</w>
ais le</w>
end ured</w>
as ants</w>
m ented</w>
attit udes</w>
ev ic</w>
Or thodox</w>
offen heim</w>
Pr actice</w>
legisl ative</w>
om ers</w>
ur ry</w>
Crow ds</w>
Sov ie
Sovie ts</w>
floo d
flood waters</w>
pass words</w>
Th ink</w>
advoc acy</w>
impres sed</w>
-year- olds</w>
Chernob yl</w>
induc ted</w>
al ers</w>
re sh
Gali fianakis</w>
t asy</w>
bar ric
Tro icki</w>
dig it</w>
legisl ator</w>
had n</w>
Joh annesburg</w>
comm enter</w>
qu est</w>
contr ad
purch ases</w>
Shakh tar</w>
cho osing</w>
produc tivity</w>
Wall ace</w>
Theod ore</w>
f o
P owers</w>
conclud ed</w>
disc overing</w>
eight- year</w>
Ch amber
Si berian</w>
Glob es</w>
In nov
now here</w>
for um</w>
dru gged</w>
S crip
erg es</w>
Testi mony</w>
m ated</w>
Col leen</w>
s ellers</w>
Cz ech
comm enters</w>
un lawful</w>
imp acts</w>
transl ation</w>
cri es</w>
craf ts
Ra onic</w>
Snap chat</w>
bo died</w>
Treat ment</w>
ail or</w>
j ams</w>
bol ic</w>
Syn drome</w>
hol ed</w>
Saldan ha</w>
N ap
test ants</w>
bu g</w>
mar ched</w>
bre eding</w>
mountain ous</w>
p o</w>
Ex po</w>
tran sc
Me g</w>
comm anding</w>
P apers</w>
fr inge</w>
s- based</w>
enti tled</w>
our ke</w>
R ourke</w>
Des chan
Deschan el</w>
disc over</w>
. I
h ypoc
Ver dasco</w>
repar ations</w>
dis carded</w>
blue print</w>
inspec ted</w>
eb ra</w>
Abbe y</w>
Sch iff</w>
S tran
Thre e-time</w>
Frances co</w>
intell ec
common ly</w>
run away</w>
T ip
Tip sar
Tipsar evic</w>
end rick</w>
pun ish</w>
Barcla ys</w>
16 6</w>
S opran
Emm ys</w>
Christi ane</w>
land slides</w>
Margar et</w>
Stra it</w>
7 2-year-old</w>
en sures</w>
prin ting</w>
negoti ate</w>
two- time</w>
B an
ha zing</w>
ough ner</w>
L oughner</w>
b ells</w>
Bri tons</w>
Gh ani</w>
D ick
Tend ul
Forec asters</w>
2 7-
Kum ar</w>
Aut opsy</w>
F urious</w>
competi tions</w>
un popular</w>
Tac lob
Taclob an</w>
pu ppy</w>
wel coming</w>
crow ding</w>
al- Awlaki</w>
Pr ophet</w>
Sel fie</w>
Mon tg
P air</w>
cin ema</w>
ti ani</w>
Ash tiani</w>
Co .</w>
R as
mar ti
marti al</w>
aband oning</w>
prec ious</w>
Dig ital</w>
rel ying</w>
Pon ting</w>
up heav
no tion</w>
pra ising</w>
MH 17</w>
rebu ke</w>
4 50</w>
cir cle</w>
Le on
Bel arus</w>
yll is</w>
Ph yllis</w>
sp are</w>
ST Is</w>
Re h
discrimin atory</w>
exp ired</w>
M ata</w>
Mar lon</w>
V ery</w>
Doc ument</w>
Dhar un</w>
N umerous</w>
Proble ms</w>
Produc ers</w>
ve il</w>
counter terrorism</w>
happ ier</w>
r ent
rene w</w>
negoti ators</w>
we ath
h acks</w>
p assionate</w>
Den g</w>
Com petition</w>
W al-
Let ters</w>
vand alism</w>
Arsen e</w>
exper ti
experti se</w>
br ush</w>
un ited</w>
trau matic</w>
en ville</w>
Tra il</w>
Olymp i
marg in</w>
den ly</w>
Ne ymar</w>
un healthy</w>
An chor
t owed</w>
Sh ad
s eller</w>
may oral</w>
h oo
res on
Gib bs</w>
lim bs</w>
compan ion</w>
H anna</w>
Star ting</w>
post- election</w>
tam pering</w>
enh anced</w>
H ale</w>
heart land</w>
N ug
comb ination</w>
ide ologies</w>
you ths</w>
sugg estive</w>
sex y</w>
di m</w>
le ys</w>
Com es</w>
T MZ</w>
L u</w>
Dist ribu
tw ist</w>
Cou l
Lib eral</w>
Complain t</w>
Hor izon</w>
bo arded</w>
ra in-
recogn izes</w>
magni fied</w>
inter faith</w>
- themed</w>
cen sors</w>
succ umb
gl ory</w>
N IH</w>
H and
neck l
Kar en</w>
corpor ations</w>
p izza</w>
clos et</w>
ten berg</w>
S ic
Ern ie</w>
prin ts</w>
Te acher</w>
au x</w>
b ison</w>
pe t
quir ky</w>
Mil lion</w>
Dou ble</w>
min ivan</w>
over saw</w>
A M</w>
broadcast ing</w>
life boat</w>
plan ting</w>
command os</w>
sci ousness</w>
hide out</w>
un usually</w>
f arewell</w>
declar ing</w>
l el
lel ight</w>
cand lelight</w>
wi dening</w>
sugg estion</w>
sugg esting</w>
eas ing</w>
ca o</w>
hi p-hop</w>
me g
l aments</w>
v .</w>
tal es</w>
lun gs</w>
Mir acle</w>
J ur
Nur se</w>
is ons</w>
L in
Ritz-Carl ton</w>
E ating</w>
emb racing</w>
Div ision</w>
if t</w>
T is
massa cres</w>
Des igner</w>
astr onom
de pl
en as</w>
Com cast</w>
ul ent</w>
14- year</w>
Sec ret
desc ended</w>
Ali to</w>
ment oring</w>
Nug ent</w>
Man ager</w>
sym bolic</w>
Ever note</w>
Ar ena</w>
D yn
S mi
cri ses</w>
van ishing</w>
at chi</w>
char tered</w>
ar a
N on
o er</w>
moti ves</w>
assass in</w>
as sured</w>
Khar toum</w>
cous ins</w>
ed ay</w>
som eday</w>
eb erman</w>
Li eberman</w>
N ashville</w>
Schwar zen
Schwarzen eg
Schwarzeneg ger</w>
D ir
c ad
fli p</w>
r ope</w>
Sul len
Sullen berger</w>
burgl ary</w>
grat eful</w>
saf zai</w>
You safzai</w>
acqu is
Run ning</w>
Ne gro</w>
scr apped</w>
less ly</w>
Rybol ovlev</w>
ex clusive</w>
pl ant
sur f
Tic ket</w>
top less</w>
prot ested</w>
la ze</w>
ab laze</w>
dar k
u proar</w>
k its</w>
U BS</w>
log is
cover ing</w>
Cli ppers</w>
hel met</w>
S ee</w>
Wed eman</w>
Week ly</w>
d ads</w>
arre y</w>
respon sibilities</w>
C ord
pione ered</w>
Scre en</w>
Pa ula</w>
ed man</w>
co tics</w>
nar cotics</w>
T ax</w>
ste am
grass roots</w>
tu ous</w>
Wal- Mart</w>
Aber deen</w>
Ab end</w>
Almag ro</w>
ent on</w>
e.g ov</w>
196 6</w>
the irs</w>
H err
A O
AO L</w>
Ad ri
Mil ey</w>
West ern
ath er
veget ation</w>
sw elling</w>
blind ness</w>
t ch</w>
c ot</w>
mas cot</w>
Ev ra</w>
Man s
B oyd</w>
on ial</w>
M emphis</w>
Tre k</w>
Wat ers</w>
Al b
Four th</w>
re fined</w>
Q adri</w>
Patt on</w>
Christi anity</w>
Explos ion</w>
re mark</w>
int act</w>
K lose</w>
mut ual</w>
G ang</w>
st all</w>
P ain
state-of- the-art</w>
high lighted</w>
exc e
tre asure</w>
Athle tic</w>
jum per</w>
In hof
persec ution</w>
proc eed</w>
Nathani el</w>
Scienti st</w>
11 -year-old</w>
Gre y</w>
un identified</w>
aler ted</w>
l u</w>
Hun t
Dun ham</w>
circum vent</w>
two- week</w>
6 th</w>
expl ode</w>
Ste ub
Steub enville</w>
hat eful</w>
con sciousness</w>
unil ateral</w>
Belgi ans</w>
r in</w>
l ou
ch ill</w>
s elec
ic ked</w>
resu med</w>
B oc
an ians</w>
Le ib
appropri ately</w>
construc ted</w>
firef ight</w>
lin eman</w>
Mar issa</w>
Leg end</w>
Bas eball</w>
cre ation</w>
cat al
Lenn on</w>
o tics</w>
Jo y</w>
Val astro</w>
amb a</w>
N ear</w>
[...]
